{
  "</s>": 0,
  "<unk>": 1,
  ".": 2,
  "\u2581\u306e": 3,
  ",": 4,
  "\u2581de": 5,
  "\u2581,": 6,
  "\u2581\u306b": 7,
  "\u3002": 8,
  "\u2581\u306f": 9,
  "\u2581\u3092": 10,
  "\u2581van": 11,
  "\u2581\u3066": 12,
  "\u2581het": 13,
  "\u2581\u305f": 14,
  "\u2581een": 15,
  "?": 16,
  "\u2581en": 17,
  "\u2581": 18,
  "\u2581in": 19,
  "\u2581\u304c": 20,
  "\u2581te": 21,
  "\u2581dat": 22,
  "\u2581\u3068": 23,
  "\u2581is": 24,
  "\u2581\u3067": 25,
  "\u2581zijn": 26,
  "\u2581\u3057": 27,
  "\u2581die": 28,
  "\u2581je": 29,
  "\u2581-": 30,
  "\u2581niet": 31,
  "\u2581op": 32,
  "\u2581\u307e\u3059": 33,
  "\u2581\u3053\u3068": 34,
  "\u2581ik": 35,
  "\u2581\u307e\u3057": 36,
  "\u2581voor": 37,
  "\u2581met": 38,
  "\u2581\u306a": 39,
  "\u2581\u3082": 40,
  "\u2581\u3044": 41,
  "s": 42,
  "\u2581\u304b": 43,
  "\u306e": 44,
  "\u2581Ik": 45,
  "\u2581\u201e": 46,
  "\u2581aan": 47,
  "\u2581om": 48,
  "\u2581\u3067\u3059": 49,
  "\u2581er": 50,
  "\u2581\u4eba": 51,
  ":": 52,
  "\u306f": 53,
  "\u2581als": 54,
  "\u2581(": 55,
  "\u2581\u308c": 56,
  "\u2581\u305d\u306e": 57,
  "\u2581hij": 58,
  "\u2581\u3088\u3046": 59,
  "\u3092": 60,
  "\u2581\u201d": 61,
  "\u3001": 62,
  "...": 63,
  "\u300d": 64,
  "\u2581was": 65,
  "!": 66,
  "\u3068": 67,
  "\u304c": 68,
  "\u2581De": 69,
  "\u2581\u3059\u308b": 70,
  "\u306b": 71,
  "\u2581\u3044\u308b": 72,
  "\u2581Het": 73,
  "\u2581ze": 74,
  "e": 75,
  "\u2581hebben": 76,
  "\u2581door": 77,
  "\u2581\u3042\u308b": 78,
  "\u2581we": 79,
  "\u2581of": 80,
  "\u2581wat": 81,
  "en": 82,
  "\u2581\u306a\u3044": 83,
  "\u2581\u304b\u3089": 84,
  "\u2581u": 85,
  "\u2581naar": 86,
  "\u2581maar": 87,
  "\u2581\u3093": 88,
  "\u2581uit": 89,
  "\u2581dan": 90,
  "\u2581\u307e\u305b": 91,
  "\u2581\u8005": 92,
  "\u2581\u2019": 93,
  "\u2581over": 94,
  "\u2581\u3053\u306e": 95,
  "\u2581worden": 96,
  "\u2581hun": 97,
  "\u2581\u3046": 98,
  "\u2581)": 99,
  "\u2581\u795e": 100,
  "\u2581tot": 101,
  "\u2581heeft": 102,
  "\u2581\u305f\u3061": 103,
  "\u2581\u300c": 104,
  "\u2581Jehovah": 105,
  "\u2581\u2014": 106,
  "\u2581deze": 107,
  "\u2581\u3042\u308a": 108,
  "\u2581zij": 109,
  "\u2581ons": 110,
  "\u2581ook": 111,
  "\u2581dit": 112,
  "\u2581kan": 113,
  "\u2581kunnen": 114,
  "\u2581mijn": 115,
  "\u2581\u3055": 116,
  "\u2581zal": 117,
  "\u2581\u30a8\u30db\u30d0": 118,
  "n": 119,
  "\u2581hem": 120,
  "\u2581bij": 121,
  "\u2581zo": 122,
  "\u2581Wat": 123,
  "\u2581\u305d\u308c": 124,
  ")": 125,
  "\u2581God": 126,
  "\u2581zich": 127,
  "\u2581zou": 128,
  "\u3067": 129,
  "\u2581wij": 130,
  "\u2581mensen": 131,
  "\u2581geen": 132,
  "\u2581me": 133,
  "t": 134,
  "\u3060": 135,
  "\u2581[": 136,
  "\u2581En": 137,
  "\u2581\u7684": 138,
  "\u2581nog": 139,
  "\u2581\u3084": 140,
  "\u2581Maar": 141,
  "\u2581Hij": 142,
  "\u2581\u3067\u3057\u3087": 143,
  "\u2581haar": 144,
  "\u2581\u3044\u3046": 145,
  "\u2581wordt": 146,
  "\u2581heb": 147,
  "\u25811": 148,
  "\u2019": 149,
  "\u2581\u305f\u3081": 150,
  "\u2581doen": 151,
  "\u2581\u306a\u308a": 152,
  "\u2581\u3082\u306e": 153,
  "\u2581werd": 154,
  "\u2581In": 155,
  "\u2581meer": 156,
  "\u2581leven": 157,
  "\u2581had": 158,
  "\u2581Je": 159,
  "\u2581\u5e74": 160,
  "\u2581Dat": 161,
  "\u2581\u30fb": 162,
  "\u300c": 163,
  "\u2581\u81ea\u5206": 164,
  "\u2581We": 165,
  "\u2581\u2015": 166,
  "\u2581\u8056\u66f8": 167,
  "\u2581\u3089\u308c": 168,
  "de": 169,
  "\u3002\u300c": 170,
  "\u2581\u3070": 171,
  "\u3088": 172,
  "\u2581Jezus": 173,
  "\u2581al": 174,
  "\u2581tijd": 175,
  "\u2581Een": 176,
  "\u2581moet": 177,
  "\u2581onze": 178,
  "\u2581ben": 179,
  "\u2581mij": 180,
  "\u304b": 181,
  "\u2581nu": 182,
  "\u2581Als": 183,
  "\u2581gaan": 184,
  "\u2581andere": 185,
  "\u2581\u308c\u308b": 186,
  "\u2581\u3057\u304b\u3057": 187,
  "\u2581\u3067\u3057": 188,
  "\u2581\u201d.": 189,
  "\u2581Ze": 190,
  "\u2581wel": 191,
  "\u2581\u4f55": 192,
  "\u2581veel": 193,
  "\u2581\u30a4\u30a8\u30b9": 194,
  "\u2581Hoe": 195,
  "\u2581moeten": 196,
  ";": 197,
  "\u2581\u4e2d": 198,
  "\u2581uw": 199,
  "'": 200,
  "\u2581\u306a\u308b": 201,
  "\u2581\"": 202,
  "\u2581hier": 203,
  "\u308b": 204,
  "\u2581waren": 205,
  "\u2581waar": 206,
  "\u3067\u3059": 207,
  "\u306a": 208,
  "\u2581\u305d\u3046": 209,
  "-": 210,
  "\u2581goed": 211,
  "\u3082": 212,
  "\u2581\u4eba\u3005": 213,
  "\u2581wil": 214,
  "\u300d\u3002": 215,
  "\u2581hen": 216,
  "\u2581hoe": 217,
  "\u2581jaar": 218,
  "\u2581\u79c1": 219,
  "\u2581zullen": 220,
  "\u2581Gods": 221,
  "\u304b\u3089": 222,
  "d": 223,
  "\u2581\u4e00": 224,
  "\u2581zei": 225,
  "\u2581\u3067\u304d": 226,
  "\u2581\u307e\u305f": 227,
  "\u2581\u6642": 228,
  "\u2581zien": 229,
  "\u2581\u308f\u305f\u3057\u305f\u3061": 230,
  "\u2581Dit": 231,
  "\u2581maken": 232,
  "\u2581\u3042\u306a\u305f": 233,
  "\u2581iets": 234,
  "\u25812": 235,
  "\u2581\u3053\u3046": 236,
  "\u2581weet": 237,
  "\u2581\u306a\u3063": 238,
  "\u2581\u3064\u3044": 239,
  "\u2581onder": 240,
  "\u2581wereld": 241,
  "\u2581'": 242,
  "\u2581...": 243,
  "\u2581\u2010": 244,
  "]": 245,
  "\u2581\u306a\u3089": 246,
  "\u2581alle": 247,
  "\u2581alleen": 248,
  "\u2581\u3069\u3093\u306a": 249,
  "\u2581tegen": 250,
  "\u2581\u305d\u3057\u3066": 251,
  "\u2581\u8ff0\u3079": 252,
  "\u3057": 253,
  "\u30fb": 254,
  "\u2581Er": 255,
  "\u2581komen": 256,
  "\u2581dingen": 257,
  "\u25813": 258,
  "\u2581hebt": 259,
  "\u2581\u65e5": 260,
  "\u2581af": 261,
  "\u2581toen": 262,
  "\u2581\u306a\u304f": 263,
  "\u2581man": 264,
  "\u2581\u3060": 265,
  "\u2581\u7b2c": 266,
  "\u2581zoals": 267,
  "\"": 268,
  "\u2581iemand": 269,
  "\u2581\u3053\u308c": 270,
  "\u2581bijbel": 271,
  "\u2581\u201d,": 272,
  "\u2581Waarom": 273,
  "\u2581gaat": 274,
  "\u2581weg": 275,
  "\u2581eens": 276,
  "\u2581\u5f7c\u3089": 277,
  "\u2581bent": 278,
  "\u308f": 279,
  "\u2581toe": 280,
  "\u2581\u4e16\u754c": 281,
  "er": 282,
  "\u2581\u8a3c\u4eba": 283,
  "\u2581twee": 284,
  "\u2581\u5fc5\u8981": 285,
  "\u2581jij": 286,
  "\u2581kinderen": 287,
  "\u2581zeggen": 288,
  "\u2581\u591a\u304f": 289,
  "\u2581jullie": 290,
  "\u300f": 291,
  "\u2581\u308f\u305f\u3057": 292,
  "\u2581Ja": 293,
  "\u2581daar": 294,
  "\u2581zegt": 295,
  "\u2581dag": 296,
  "\u2581\u3088\u3063": 297,
  "\u2581\u3059\u3079\u3066": 298,
  "\u2581\u30af\u30ea\u30b9\u30c1\u30e3\u30f3": 299,
  "\u2581heel": 300,
  "\u2581werden": 301,
  "\u2581\u8003\u3048": 302,
  "\u2581staat": 303,
  "\u2581laten": 304,
  "\u2581zelfs": 305,
  "\u2581\u9593": 306,
  "\u2581\u3088\u308a": 307,
  "\u2581aarde": 308,
  "\u2581\u304f\u3060\u3055\u3044": 309,
  "\u2581dus": 310,
  "\u2581\u3069\u306e": 311,
  "\u2581na": 312,
  "\u2581\u307e\u3067": 313,
  "\u2581geven": 314,
  "\u2581nodig": 315,
  "\u2581zouden": 316,
  "\u306d": 317,
  "\u2581eerste": 318,
  "\u2581\u3079\u304d": 319,
  "\u25814": 320,
  "\u25815": 321,
  "\u2581\u00e9\u00e9n": 322,
  "\u2581omdat": 323,
  "\u258110": 324,
  "\u2581\u4eba\u9593": 325,
  "\u2581\u3069\u3046": 326,
  "\u2581\u304d": 327,
  "\u2581weten": 328,
  "\u2581\u898b": 329,
  "\u2581dood": 330,
  "\u2581grote": 331,
  "\u2581\u306a\u305c": 332,
  "\u25818": 333,
  "\u2581\u5bb6": 334,
  "\u2581werk": 335,
  "\u2581hadden": 336,
  "\u2581goede": 337,
  "\u2581nooit": 338,
  "\u2581\u4e8c": 339,
  "\u2581\u6b21": 340,
  "\u2581\u3067\u304d\u308b": 341,
  "\u2581terug": 342,
  "\u2581Nee": 343,
  "\u2581Zij": 344,
  "\u3055": 345,
  "\u3059\u308b": 346,
  "\u2581vrouw": 347,
  "\u2581\u4ed6": 348,
  "\u2581Getuigen": 349,
  "\u2581\u5f8c": 350,
  "\u2581weer": 351,
  "\u2581plaats": 352,
  "\u2581alles": 353,
  "\u2581mee": 354,
  "\u2581komt": 355,
  "\u2581ten": 356,
  "\u2581\u30ad\u30ea\u30b9\u30c8": 357,
  "\u2581\u554f\u984c": 358,
  "\u2581wanneer": 359,
  "\u2581\u305f\u308a": 360,
  "\u2581misschien": 361,
  "\u2581wie": 362,
  "\u2581\u3060\u3051": 363,
  "\u2581\u3078": 364,
  "\u258115": 365,
  "\u2581huis": 366,
  "\u2581\u524d": 367,
  "\u2581\u4eca": 368,
  "\u2581\u30da\u30fc\u30b8": 369,
  "\u3093\u3060": 370,
  "\u2581helpen": 371,
  "\u2581Toen": 372,
  "\u3044": 373,
  "\u2581kon": 374,
  "\u2581echter": 375,
  "\u2581\u8a00\u8449": 376,
  "\u2581\u5fc3": 377,
  "\u2581Wij": 378,
  "\u2581blz": 379,
  "\u2581kunt": 380,
  "\u25816": 381,
  "\u2581nieuwe": 382,
  "\u2581echt": 383,
  "\u2581Christus": 384,
  "\u3084": 385,
  "\u2581\u307b\u3069": 386,
  "\u2581blijven": 387,
  "\u2581\u5834\u5408": 388,
  "\u2581anderen": 389,
  "\u25817": 390,
  "\u2581eigen": 391,
  "\u3057\u305f": 392,
  "\u2581geloof": 393,
  "\u2581\u5bfe\u3059\u308b": 394,
  "(": 395,
  "\u305f": 396,
  "\u2581\u306a\u3069": 397,
  "\u2581altijd": 398,
  "\u2581vinden": 399,
  "\u2581\u3089\u308c\u308b": 400,
  "\u2581\u5f7c": 401,
  "\u2581Op": 402,
  "\u2581houden": 403,
  "\u2581naam": 404,
  "\u2581\u4e0a": 405,
  "\u3089": 406,
  "\u2581Deze": 407,
  "\u3066": 408,
  "\u2581\u305b": 409,
  "\u2581\u3067\u3082": 410,
  "a": 411,
  "\u2581\u306a\u3051\u308c": 412,
  "\u2581elkaar": 413,
  "\u2581men": 414,
  "\u2581/": 415,
  "\u2581niets": 416,
  "\u2581\u305a": 417,
  "\u2581\u3042\u3063": 418,
  "\u2581Dus": 419,
  "\u2581\u53d7\u3051": 420,
  "\u2581gedaan": 421,
  "\u2581steeds": 422,
  "\u2581Paulus": 423,
  "\u2581gij": 424,
  "\u2581willen": 425,
  "\u2581brengen": 426,
  "\u2581\u5b50\u4f9b": 427,
  "\u2581toch": 428,
  "\u2581\u79c1\u306f": 429,
  "\u2581\u826f\u3044": 430,
  "\u2581geest": 431,
  "\u2581zonder": 432,
  "\u2581\u751f\u6d3b": 433,
  "\u2581net": 434,
  "\u258112": 435,
  "\u2581zelf": 436,
  "\u3063\u3066": 437,
  "\u2581want": 438,
  "\u2581nemen": 439,
  "\u2581\u3057\u308c": 440,
  "\u258118": 441,
  "\u2581\u6708": 442,
  "\u2581kwam": 443,
  "\u3057\u3066": 444,
  "\u2581\u611b": 445,
  "\u2581\u738b\u56fd": 446,
  "\u2581manier": 447,
  "\u25819": 448,
  "\u2581liefde": 449,
  "\u2581\u7bc0": 450,
  "\u2581\u540c\u3058": 451,
  "\u2581jou": 452,
  "\u2581\u6642\u9593": 453,
  "\u2581hele": 454,
  "\u2581\u5bb6\u65cf": 455,
  "\u306b\u306f": 456,
  "\u2581woorden": 457,
  "\u25813:": 458,
  "\u2581ga": 459,
  "\u2581\u76ee": 460,
  "\u2581\u7814\u7a76": 461,
  "\u2581\u4e8b\u67c4": 462,
  "\u2581laat": 463,
  "\u2581ver": 464,
  "\u2581\u70b9": 465,
  "\u2581Is": 466,
  "\u2581\u304a\u3089": 467,
  "\u258111": 468,
  "\u258120": 469,
  "\u2581vragen": 470,
  "\u2581denk": 471,
  "\u2581ging": 472,
  "\u2581\u300e": 473,
  "\u2581Zo": 474,
  "\u2581U": 475,
  "\u25812:": 476,
  "\u2581krijgen": 477,
  "\u2581Waar": 478,
  "\u2581Mijn": 479,
  "\u2581\u4e0e\u3048": 480,
  "\u2581hart": 481,
  "\u2581doet": 482,
  "\u2581\u529b": 483,
  "\u2581Die": 484,
  "\u2581\u7ae0": 485,
  "1": 486,
  "\u2581\u4f7f\u5f92": 487,
  "\u2581ouders": 488,
  "\u2581\u30d1\u30a6\u30ed": 489,
  "\u2581\u3088\u308b": 490,
  "\u2581\u5949\u4ed5": 491,
  "\u2581\u52a9\u3051": 492,
  "\u2581\u4e00\u3064": 493,
  "\u2581\u3082\u3046": 494,
  "\u2581mens": 495,
  "\u2581waarom": 496,
  "\u2581gewoon": 497,
  "\u2581drie": 498,
  "T": 499,
  "\u2581binnen": 500,
  "\u4eba": 501,
  "m": 502,
  "\u2581ge": 503,
  "\u2581land": 504,
  "\u2581\u3055\u3089\u306b": 505,
  "heid": 506,
  "\u308a": 507,
  "\u2581\u95a2\u4fc2": 508,
  "ing": 509,
  "\u2581wilde": 510,
  "\u2581geweest": 511,
  "\u307e\u3059": 512,
  "\u2581deel": 513,
  "\u2581\u3088\u304f": 514,
  "\u2581keer": 515,
  "\u2581staan": 516,
  "\u258114": 517,
  "\u2581\u4eca\u65e5": 518,
  "\u2581allemaal": 519,
  "\u2581lang": 520,
  "2": 521,
  "\u2581\u2019.": 522,
  "\u2581\u3068\u3053\u308d": 523,
  "\u2581christenen": 524,
  "\u2581\u201c": 525,
  "\u2581vader": 526,
  "\u2581\u3060\u308c": 527,
  "\u2581\u3064\u307e\u308a": 528,
  "\u2581vaak": 529,
  "\u2581\u4e0d": 530,
  "\u2581\u306a\u304b\u3063": 531,
  "\u2581!": 532,
  "\u3063": 533,
  "\u2581tussen": 534,
  "\u2581elke": 535,
  "\u306a\u3089": 536,
  "\u2581welke": 537,
  "\u25814:": 538,
  "\u2581gemaakt": 539,
  "\u2581slechts": 540,
  "\u2581christelijke": 541,
  "\u2581\u5b97\u6559": 542,
  "\u2581gebruiken": 543,
  "\u2581boek": 544,
  "\u2581ervan": 545,
  "\u2581water": 546,
  "\u258116": 547,
  "\u2581\u4e07": 548,
  "\u30b9": 549,
  "r": 550,
  "\u2581volgende": 551,
  "\u2581degenen": 552,
  "\u25811:": 553,
  "\u2581moeder": 554,
  "\u2581dienen": 555,
  "\u2581leren": 556,
  "\u2581geeft": 557,
  "\u2581\u5f97": 558,
  "\u2581\u8a00\u3044": 559,
  "\u2581hulp": 560,
  "\u2581\u5144\u5f1f": 561,
  "\u2581\u601d\u3044": 562,
  "\u2581S": 563,
  "\u2581\u5927": 564,
  "\u2581\u305d\u308c\u3089": 565,
  "\u2581anders": 566,
  "\u2581denken": 567,
  "\u2581\u3068\u3063": 568,
  "\u2581beter": 569,
  "\u2581geld": 570,
  "\u2581werken": 571,
  "\u2581\u95a2\u3059\u308b": 572,
  "\u25815:": 573,
  "\u2581\u5730": 574,
  "\u2581\u305f\u3044": 575,
  "\u201e": 576,
  "\u2581der": 577,
  "\u2581enkele": 578,
  "\u2581\u3068\u304d": 579,
  "\u2581terwijl": 580,
  "\u2581\u7269": 581,
  "\u2581gemeente": 582,
  "\u2581\u304a\u3044": 583,
  "\u2581jaren": 584,
  "\u2581dagen": 585,
  "\u2581waarheid": 586,
  "\u2581gaf": 587,
  "\u2581\u4f1a\u8846": 588,
  "\u2581\u4ed5\u4e8b": 589,
  "\u2581mannen": 590,
  "\u258113": 591,
  "\u2581moest": 592,
  "\u2581gebruikt": 593,
  "\u2581\u610f\u5473": 594,
  "\u258117": 595,
  "\u2581\u547d": 596,
  "\u2581\u8a9e": 597,
  "\u2581\u6570": 598,
  "\u2581duidelijk": 599,
  "\u2581Zijn": 600,
  "\u308d": 601,
  "\u2581enige": 602,
  "\u2581\u5bfe\u3057": 603,
  "\u2581\u79c1\u305f\u3061": 604,
  "\u2581\u4fe1\u4ef0": 605,
  "\u2581kind": 606,
  "\u2581\u30de\u30bf\u30a4": 607,
  "\u2581\u30e8\u30cf\u30cd": 608,
  "\u2581\u3067\u3059\u304b\u3089": 609,
  "\u2581\u5927\u304d\u306a": 610,
  "\u2581\u5b9f\u969b": 611,
  "\u2581maakt": 612,
  "\u2581\u306a\u3055\u3044": 613,
  "\u2581\u56fd": 614,
  "\u2581Wie": 615,
  "\u2581\u624b": 616,
  "\u2581\u65b0\u3057\u3044": 617,
  "te": 618,
  "\u2581zeker": 619,
  "\u2581\u793a\u3057": 620,
  "\u2581Niet": 621,
  "\u304f": 622,
  "\u2581aantal": 623,
  "\u2581Met": 624,
  "\u2581\u6559\u3048": 625,
  "\u2581bijvoorbeeld": 626,
  "\u2581hoop": 627,
  "\u2581\u5f7c\u306f": 628,
  "\u2581laatste": 629,
  "\u25816:": 630,
  "\u2581personen": 631,
  "\u3053\u3068": 632,
  "\u2581\u6240": 633,
  "\u2581\u3046\u3061": 634,
  "\u2581\u89aa": 635,
  "\u2581hoofd": 636,
  "\u3053\u306e": 637,
  "\u2581b": 638,
  "\u2581Wanneer": 639,
  "\u2581gegeven": 640,
  "\u2581geestelijke": 641,
  "\u2581Kom": 642,
  "\u2581erg": 643,
  "\u2581stad": 644,
  "\u2581\u6765": 645,
  "\u306e\u304b": 646,
  "\u2581\u672c": 647,
  "\u2581hand": 648,
  "\u2581Voor": 649,
  "\u2581\u3053\u308c\u306f": 650,
  "den": 651,
  "\u2581koninkrijk": 652,
  "\u2581gezien": 653,
  "\u258122": 654,
  "\u2581\u6027": 655,
  "in": 656,
  "\u2581\u8a18\u4e8b": 657,
  "\u2581deed": 658,
  "\u2581volk": 659,
  "\u2581\u3082\u3057": 660,
  "\u2581\u307e\u3057\u3087": 661,
  "\u2581waarin": 662,
  "\u2581samen": 663,
  "\u2581gezegd": 664,
  "ten": 665,
  "\u2581vraag": 666,
  "\u2581Door": 667,
  "\u2581doe": 668,
  "\u2581Nu": 669,
  "\u2581\u7d50\u679c": 670,
  "S": 671,
  "\u2581\u970a\u7684": 672,
  "\u2581Jij": 673,
  "\u2581Misschien": 674,
  "\u2581problemen": 675,
  "\u2581\u78ba\u304b": 676,
  "\u2581\u5b50\u3069\u3082": 677,
  "\u2581Ga": 678,
  "\u2581woord": 679,
  "\u2581uur": 680,
  "\u2581paar": 681,
  "\u2581Dan": 682,
  "\u2581ware": 683,
  "\u2581achter": 684,
  "\u2581werkelijk": 685,
  "\u2581Na": 686,
  "\u2581\u307f": 687,
  "\u2581\u4e16": 688,
  "\u2581Ook": 689,
  "\u2581s": 690,
  "\u2581vrouwen": 691,
  "\u2581\u300d": 692,
  "\u2581\u8a00\u308f": 693,
  "\u2581Illustratie": 694,
  "\u2581geleden": 695,
  "\u306a\u3044": 696,
  "\u2581Daar": 697,
  "\u2581kracht": 698,
  "\u2581\u56f3": 699,
  "\u2581nieuws": 700,
  "\u2581zodat": 701,
  "\u2581\u8a71": 702,
  "\u2581\u305b\u308b": 703,
  "\u2581m": 704,
  "\u2581Welke": 705,
  "\u2581einde": 706,
  "\u2581\u3053\u308c\u3089": 707,
  "\u2581snel": 708,
  "\u2581\u6c34": 709,
  "\u3060\u3063\u305f": 710,
  "\u2581later": 711,
  "\u2581wijze": 712,
  "\u2581\u304a": 713,
  "\u2581betekent": 714,
  "\u2581kleine": 715,
  "\u2581ogen": 716,
  "\u2581mogelijk": 717,
  "\u2581zit": 718,
  "\u2581\u6559\u4f1a": 719,
  "\u2581\u305d\u308c\u306f": 720,
  "je": 721,
  "k": 722,
  "\u2581\u59bb": 723,
  "\u2581\u7d50\u5a5a": 724,
  "\u2581zorgen": 725,
  "\u2581per": 726,
  "\u2581\u3054\u81ea\u5206": 727,
  "\u2581Bijbel": 728,
  "\u2581gezin": 729,
  "\u2581Laat": 730,
  "\u2581\u3067\u306f": 731,
  "\u2581\u30a4\u30b9\u30e9\u30a8\u30eb": 732,
  "\u2581\u3060\u308d": 733,
  "\u258119": 734,
  "\u2581zult": 735,
  "\u2581\u5973\u6027": 736,
  "\u306e\u306f": 737,
  "\u2581ooit": 738,
  "\u3057\u307e\u3059": 739,
  "\u3059": 740,
  "\u2581graag": 741,
  "3": 742,
  "\u2581\u738b": 743,
  "\u2581Om": 744,
  "\u2581\u6b7b": 745,
  "\u2581\u51fa": 746,
  "\u2581gebruik": 747,
  "\u2581\u305d\u308c\u3067": 748,
  "\u2581\u30a4": 749,
  "\u2581dacht": 750,
  "\u2581\u65b9\u6cd5": 751,
  "\u2581stellen": 752,
  "\u2581\u3055\u308c": 753,
  "\u2581groot": 754,
  "\u2581\u307e\u3060": 755,
  "\u2581lezen": 756,
  "ste": 757,
  "\u2581\u9810\u8a00": 758,
  "\u2581\u672c\u5f53": 759,
  "\u2581G": 760,
  "\u2581ter": 761,
  "\u2581lichaam": 762,
  "\u2581probleem": 763,
  "\u2581--": 764,
  "\u2581\u771f": 765,
  "\u300e": 766,
  "\u2581even": 767,
  "\u2581genoeg": 768,
  "\u2581A": 769,
  "\u2581bloed": 770,
  "\u2581raad": 771,
  "\u2581\u5f71\u97ff": 772,
  "\u305e": 773,
  "\u2581bijna": 774,
  "\u2581ziet": 775,
  "\u307e\u3057\u305f": 776,
  "\u2581vast": 777,
  "\u2581praten": 778,
  "\u2581iedereen": 779,
  "\u2581waarop": 780,
  "\u2581begon": 781,
  "\u2581kennen": 782,
  "ge": 783,
  "\u2581sommige": 784,
  "\u2581\u3042\u308c": 785,
  "\u2581\u30ed\u30fc\u30de": 786,
  "\u2581\u7b54\u3048": 787,
  "\u305d\u306e": 788,
  "Ik": 789,
  "\u2581soort": 790,
  "\u2581Heb": 791,
  "\u2581\u6c11": 792,
  "\u2581\u3059": 793,
  "\u2581zag": 794,
  "\u2581landen": 795,
  "\u2581\u8aac\u660e": 796,
  "\u258130": 797,
  "\u2581ongeveer": 798,
  "\u2581\u5f7c\u5973": 799,
  "\u2581schreef": 800,
  "\u2581\u7406\u89e3": 801,
  "\u2581\u4ee5\u4e0a": 802,
  "\u2581licht": 803,
  "\u2581\u7d4c\u9a13": 804,
  "\u2581\u3055\u3048": 805,
  "\u2581vertrouwen": 806,
  "\u2581zulke": 807,
  "\u2581vroeg": 808,
  "\u2581Woord": 809,
  "\u2581\u7406\u7531": 810,
  "\u2581\u304a\u308a": 811,
  "\u2581boven": 812,
  "\u2581\u5b50": 813,
  "\u30fc": 814,
  "\u2581voordat": 815,
  "y": 816,
  "\u2581kijken": 817,
  "\u2581zichzelf": 818,
  "\u2581zitten": 819,
  "\u2581reden": 820,
  "\u2581\u884c\u306a\u3046": 821,
  "\u2581\u3042\u3042": 822,
  "\u2581heen": 823,
  "\u2581ander": 824,
  "\u30c8": 825,
  "\u2581\u975e\u5e38": 826,
  "\u2581Omdat": 827,
  "\u30fb\u30fb\u30fb": 828,
  "\u2581\u30ed": 829,
  "\u2581wist": 830,
  "\u30af": 831,
  "\u2581\u6301\u3064": 832,
  "\u2581elk": 833,
  "\u2581oude": 834,
  "\u2581Hoewel": 835,
  "\u2581zeer": 836,
  "\u2581\u3059\u308c": 837,
  "\u2581\u3060\u3063": 838,
  "\u2581vertellen": 839,
  "\u2581bijbelse": 840,
  "\u2581vele": 841,
  "\u304d": 842,
  "\u2581\u884c\u306a\u308f": 843,
  "\u2581voorbeeld": 844,
  "\u3058\u3083\u306a\u3044": 845,
  "\u3067\u3082": 846,
  "\u258121": 847,
  "\u2581\u4f8b\u3048\u3070": 848,
  "\u2581spreken": 849,
  "\u2581\u4e16\u7d00": 850,
  "\u2581Laten": 851,
  "\u2581geval": 852,
  "\u2581\u7236": 853,
  "\u2581zoon": 854,
  "\u2581\u3042\u308b\u3044\u306f": 855,
  "\u2581\u5d07\u62dd": 856,
  "\u2581\u7528\u3044": 857,
  "\u2581Geen": 858,
  "\u2581apostel": 859,
  "\u2581auto": 860,
  "\u2581vier": 861,
  "\u2581jonge": 862,
  "\u2581eerst": 863,
  "ver": 864,
  "\u2581\u5929": 865,
  "\u2581\u4e0b": 866,
  "\u2581buiten": 867,
  "\u2581\u6b73": 868,
  "\u258124": 869,
  "\u307e\u3067": 870,
  "\u2581\u25a1": 871,
  "\u2581doden": 872,
  "\u2581\u6301\u3063": 873,
  "\u2581school": 874,
  "\u2581wilt": 875,
  "\u3067\u306f": 876,
  "\u2581B": 877,
  "\u2581\u3069\u3046\u3057\u3066": 878,
  "\u2581dezelfde": 879,
  "\u2581\u305d\u3053": 880,
  "\u2581gebracht": 881,
  "\u2581\u8a00\u3046": 882,
  "\u2581\u8a69\u7de8": 883,
  "\u2581\u4f53": 884,
  "\u2581\u7f6a": 885,
  "\u2581beste": 886,
  "\u2581*": 887,
  "\u2581\u6700\u521d": 888,
  "\u2581jouw": 889,
  "\u2581voedsel": 890,
  "\u2581\u6559": 891,
  "\u2581\u77e5\u3063": 892,
  "\u2581\u6642\u4ee3": 893,
  "\u2581\u9053": 894,
  "\u2581konden": 895,
  "\u2581belangrijk": 896,
  "\u2581eten": 897,
  "\u2581tijdens": 898,
  "\u2581be": 899,
  "\u2581\u307b\u3068\u3093\u3069": 900,
  "\u2581\u3053\u3053": 901,
  "\u258125": 902,
  "\u2581\u771f\u7406": 903,
  "\u2581meeste": 904,
  "\u2581\u91cd\u8981": 905,
  "\u2581\u66f8": 906,
  "\u2581koning": 907,
  "\u2581\u652f\u914d": 908,
  "\u2581dienst": 909,
  "De": 910,
  "\u2581\u696d": 911,
  "\u795e": 912,
  "\u2581\u660e\u3089\u304b": 913,
  "\u2581gevonden": 914,
  "\u2581familie": 915,
  "\u2581menselijke": 916,
  "\u30eb": 917,
  "\u2581\u5225": 918,
  "\u2581horen": 919,
  "\u2581\u3088": 920,
  "\u2581persoon": 921,
  "\u2581begin": 922,
  "i": 923,
  "\u2581gelijk": 924,
  "\u2581\u7d04": 925,
  "\u2581\u793a\u3059": 926,
  "ers": 927,
  "\u2581%1": 928,
  "\u2581\u7948\u308a": 929,
  "\u3093": 930,
  "\u2581\u65b9": 931,
  "\u2581\u5275\u9020": 932,
  "\u2581K": 933,
  "\u2581\u30b3\u30ea\u30f3\u30c8": 934,
  "\u2581\u76ee\u7684": 935,
  "\u2581vrienden": 936,
  "\u2581Hier": 937,
  "\u2581artikel": 938,
  "\u2581\u5171": 939,
  "\u308c": 940,
  "\u2581eeuw": 941,
  "\u2581Of": 942,
  "\u2581\u72b6\u614b": 943,
  "\u2581idee": 944,
  "\u2581\u884c\u52d5": 945,
  "\u2581verschillende": 946,
  "\u30ca": 947,
  "\u2581\u73fe\u5728": 948,
  "\u2581helemaal": 949,
  "\u2581\u7c73\u56fd": 950,
  "\u2581\u6c42\u3081": 951,
  "\u2581\u6700\u3082": 952,
  "\u2581\u30da\u30c6\u30ed": 953,
  "\u2581M": 954,
  "\u2581Goed": 955,
  "\u2581\u5371\u967a": 956,
  "\u2581niemand": 957,
  "\u2581\u5834\u6240": 958,
  "\u2581genoemd": 959,
  "\u2581geloven": 960,
  "\u2581\u5b8c\u5168": 961,
  "\u2581Johannes": 962,
  "\u2581allen": 963,
  "\u2581gebied": 964,
  "\u2581\u307b\u304b": 965,
  "\u2581maakte": 966,
  "\u30ba": 967,
  "\u2581mensheid": 968,
  "\u2581zoeken": 969,
  "\u2581doel": 970,
  "\u2581Isra\u00ebl": 971,
  "\u2581bestaat": 972,
  "\u30c9": 973,
  "\u2581kennis": 974,
  "\u2581mag": 975,
  "\u2581vrede": 976,
  "\u2581\u3082\u3063\u3068": 977,
  "\u2581verder": 978,
  "\u304c\u3042\u308b": 979,
  "\u2581Van": 980,
  "\u2581thuis": 981,
  "\u2581bepaalde": 982,
  "\u2581\u4eba\u985e": 983,
  "\u8005": 984,
  "\u2581a": 985,
  "\u2581\u3044\u3084": 986,
  "o": 987,
  "re": 988,
  "\u2581\u65b0": 989,
  "\u2581miljoen": 990,
  "\u2581C": 991,
  "\u2581kreeg": 992,
  "\u2581zie": 993,
  "\u2581moeilijk": 994,
  "\u2581O": 995,
  "\u2581broeders": 996,
  "\u2581toekomst": 997,
  "b": 998,
  "\u2581\u3069\u3053": 999,
  "\u3081": 1000,
  "\u2581\u8a00\u3063": 1001,
  "\u2581hemel": 1002,
  "\u3055\u308c\u305f": 1003,
  "\u2581\u3042\u306a\u305f\u306f": 1004,
  "\u2581\u5730\u4e0a": 1005,
  "\u6642": 1006,
  "\u2581Verenigde": 1007,
  "\u2581\u25cf": 1008,
  "\u2581ja": 1009,
  "\u2581geworden": 1010,
  "\u2581Daarom": 1011,
  "\u2581Weet": 1012,
  "\u2581\u3042\u306a\u305f\u65b9": 1013,
  "\u2581Volgens": 1014,
  ".\"": 1015,
  "\u2581waardoor": 1016,
  "\u2581daarom": 1017,
  "\u258112:": 1018,
  "\u2581\u3060\u304b\u3089": 1019,
  "\u2581\u95a2\u3057": 1020,
  "\u307f": 1021,
  "\u2581ontvangen": 1022,
  "\u3088\u3046": 1023,
  "een": 1024,
  "\u2581\u6d3b\u52d5": 1025,
  "\u2581\u611f\u3058": 1026,
  "\u2581moment": 1027,
  "G": 1028,
  "\u2581minder": 1029,
  "\u258123": 1030,
  "\u2581\u50d5": 1031,
  "\u2581\u5b66": 1032,
  "\u2581verband": 1033,
  "\u306e\u3067\u3059": 1034,
  "\u2581leiden": 1035,
  "\u2581volgen": 1036,
  "f": 1037,
  "\u2581\u9762": 1038,
  "\u2581\u79c1\u304c": 1039,
  "\u2581\u4e8b\u5b9f": 1040,
  "\u2581Toch": 1041,
  "\u2581Bij": 1042,
  "\u2581\u2018": 1043,
  "\u2581lijkt": 1044,
  "\u2581gekomen": 1045,
  "\u2581vooral": 1046,
  "\u2581\u5c11\u306a\u304f": 1047,
  "\u2581\u30e6\u30c0\u30e4": 1048,
  "\u2581\u7d04\u675f": 1049,
  "\u2581\u3088\u3044": 1050,
  "\u3060\u308d": 1051,
  "\u2581kom": 1052,
  "\u2581situatie": 1053,
  "\u2581vijf": 1054,
  "\u2581procent": 1055,
  "\u2581vriend": 1056,
  "\u2581\u559c\u3073": 1057,
  "\u2581\u898b\u308b": 1058,
  "\u2581vol": 1059,
  "\u2581stond": 1060,
  "\u2581Zie": 1061,
  "\u2581\u75c5\u6c17": 1062,
  "\u2581houdt": 1063,
  "\u2581aandacht": 1064,
  "\u2581grond": 1065,
  "\u2581waarschijnlijk": 1066,
  "\u30a2": 1067,
  "\u2581kwamen": 1068,
  "\u2581\u82e5\u3044": 1069,
  "\u2581\u5c11\u3057": 1070,
  "\u30e9": 1071,
  "\u2581juiste": 1072,
  "\u2581\u308f\u3051": 1073,
  "\u2015": 1074,
  "\u5e74": 1075,
  "\u2581begrijpen": 1076,
  "\u2581oorlog": 1077,
  "\u2581\u5f97\u308b": 1078,
  "5": 1079,
  "le": 1080,
  "\u2581bestaan": 1081,
  "\u2581\u5ba3\u6559": 1082,
  "\u2581Heer": 1083,
  "\u2581\u306a\u304c\u3089": 1084,
  "\u2581Kijk": 1085,
  "\u2581\u592b": 1086,
  "\u2581\u3042\u306e": 1087,
  "\u2581Vader": 1088,
  "\u30ea": 1089,
  "\u2581%": 1090,
  "\u2581\u30a4\u30b6\u30e4": 1091,
  "\u2581\u540d": 1092,
  "ig": 1093,
  "\u2581blijft": 1094,
  "\u258110:": 1095,
  "\u3068\u3057\u3066": 1096,
  "\u2581\u5b66\u6821": 1097,
  "\u2581Al": 1098,
  "D": 1099,
  "\u304a": 1100,
  "\u2581huwelijk": 1101,
  "\u2581\u304f\u308c": 1102,
  "\u30bf": 1103,
  "\u2581\u3082\u3061\u308d\u3093": 1104,
  "\u2581rond": 1105,
  "\u2581soms": 1106,
  "\u2581\u8eca": 1107,
  "\u2581religieuze": 1108,
  "\u2581\u7279\u306b": 1109,
  "\u2581on": 1110,
  "\u3078": 1111,
  "\u2581\u541b\u306f": 1112,
  "\u2581\u653f\u5e9c": 1113,
  "\u2581\u6c17\u6301\u3061": 1114,
  "\u2581klaar": 1115,
  "\u2581\u5168\u304f": 1116,
  "\u2581\u5f7c\u5973\u306f": 1117,
  "\u2581\u3059\u3050": 1118,
  "\u2581bekend": 1119,
  "\u2581antwoord": 1120,
  "\u2581vond": 1121,
  "\u3064": 1122,
  "\u2581heilige": 1123,
  "\u2581ertoe": 1124,
  "\u2581\u6ce8\u610f": 1125,
  "\u2581\u611f\u8b1d": 1126,
  "\u2581kant": 1127,
  "\u2581gehad": 1128,
  "E": 1129,
  "\u2581vormen": 1130,
  "\u25817:": 1131,
  "\u2581\u52aa\u529b": 1132,
  "\u2581\u3044\u3064\u3082": 1133,
  "\u2581grootste": 1134,
  "\u2581betrekking": 1135,
  "\u2581\u5341\u5206": 1136,
  "\u3067\u3057\u3087\u3046": 1137,
  "\u2581\u5168": 1138,
  "\u2581wet": 1139,
  "\u2581\u4ffa\u306f": 1140,
  "\u2581\u304a\u3051\u308b": 1141,
  "\u2581Ben": 1142,
  "\u3082\u306e": 1143,
  "\u2581P": 1144,
  "\u2581David": 1145,
  "\u2581Petrus": 1146,
  "\u2581\u5e73\u548c": 1147,
  "\u2581delen": 1148,
  "\u2581gevolg": 1149,
  "\u3057\u307e\u3057\u305f": 1150,
  "\u2581\u751f\u3058": 1151,
  "\u2581eeuwig": 1152,
  "\u2581onderzoek": 1153,
  "\u2581spijt": 1154,
  "\u258128": 1155,
  "st": 1156,
  "\u3060\u308d\u3046": 1157,
  "\u258111:": 1158,
  "\u2581getuigen": 1159,
  "\u2581\u540c\u69d8": 1160,
  "\u2581tonen": 1161,
  "\u2581feit": 1162,
  "\u3046": 1163,
  "\u2581The": 1164,
  "\u2581Ok\u00e9": 1165,
  "\u2581hetzelfde": 1166,
  "\u2581\u614b\u5ea6": 1167,
  "\u2581moesten": 1168,
  "\u2581\u5e0c\u671b": 1169,
  "be": 1170,
  "\u2581\u5730\u7403": 1171,
  "\u2581dient": 1172,
  "\u2581beginnen": 1173,
  "\u2581\u30eb\u30ab": 1174,
  "\u2581\u3068\u3066\u3082": 1175,
  "\u3057\u3066\u3044\u308b": 1176,
  "\u2581proberen": 1177,
  "\u2581\u8003\u3048\u308b": 1178,
  "\u2581erop": 1179,
  "\u4e8b": 1180,
  "\u3068\u3044\u3046": 1181,
  "\u2581\u4e3b": 1182,
  "4": 1183,
  "\u2581\u4ef2\u9593": 1184,
  "\u2581discipelen": 1185,
  "\u2581\u3042\u308a\u304c\u3068\u3046": 1186,
  "\u2581gebeurt": 1187,
  "\u2581\u4f1d\u9053": 1188,
  "\u2581\u5b9f": 1189,
  "\u2581gehele": 1190,
  "\u2581volledig": 1191,
  "\u2581druk": 1192,
  "\u2581\u5553\u793a": 1193,
  "\u2581D": 1194,
  "\u2581\u79d1\u5b66": 1195,
  "\u2581New": 1196,
  "\u2581volgens": 1197,
  "\u2581maanden": 1198,
  "\u2581\u72b6\u6cc1": 1199,
  "\u2581\u52d5\u7269": 1200,
  "/": 1201,
  "\u2581liet": 1202,
  "\u2581zowel": 1203,
  "\u2581\u6c17": 1204,
  "\u30ed": 1205,
  "\u2581vrij": 1206,
  "\u2581gevoel": 1207,
  "\u2581\u305f\u3060": 1208,
  "\u2581\u3044\u3048": 1209,
  "\u2581\u5b58\u5728": 1210,
  "\u2581\u8cea\u554f": 1211,
  "\u3060\u3088": 1212,
  "\u2581\u81ea\u7531": 1213,
  "\u2581middel": 1214,
  "\u2581\u82e5\u8005": 1215,
  "\u2581\u8eab": 1216,
  "\u2581Staten": 1217,
  "\u2581\u970a": 1218,
  "\u2581T": 1219,
  "\u3002\u300e": 1220,
  "\u2581oog": 1221,
  "\u2581beslist": 1222,
  "\u2581\u7bb4\u8a00": 1223,
  "\u2581\u77e5\u3089": 1224,
  "\u2581Zoals": 1225,
  "\u2581noch": 1226,
  "\u2581\u59cb\u3081": 1227,
  "\u2581\u30d8\u30d6\u30e9\u30a4": 1228,
  "\u2581E": 1229,
  "\u2581precies": 1230,
  "\u2581Natuurlijk": 1231,
  "jes": 1232,
  "\u305b": 1233,
  "\u2581\u3060\u304c": 1234,
  "\u2581\u5fe0\u5b9f": 1235,
  "\u30ab": 1236,
  "\u65e5": 1237,
  "\u2581\u306d": 1238,
  "\u2581sterven": 1239,
  "\u2581\u305f\u3089": 1240,
  "\u2581tweede": 1241,
  "\u2581\u5f1f\u5b50": 1242,
  "\u2581weinig": 1243,
  "\u2581Jeruzalem": 1244,
  "\u2581\u4f55\u304b": 1245,
  "\u2581eind": 1246,
  "\u2581kans": 1247,
  "\u2581Wil": 1248,
  "\u2581\u5206": 1249,
  "\u258126": 1250,
  "\u2581\u53f7": 1251,
  "\u3063\u305f": 1252,
  "\u2581open": 1253,
  "\u2581veranderen": 1254,
  "\u3057\u3066\u308b": 1255,
  "C": 1256,
  "\u30ea\u30fc": 1257,
  "\u2581invloed": 1258,
  "\u2581velen": 1259,
  "\u2581F": 1260,
  "\u2581zeg": 1261,
  "\u2581eraan": 1262,
  "\u2581\u30c6\u30e2\u30c6": 1263,
  "\u2581\u982d": 1264,
  "\u2581\u30b5\u30bf\u30f3": 1265,
  "\u2581\u7d44\u7e54": 1266,
  "\u3060\u3051": 1267,
  "\u2581informatie": 1268,
  "\u2581belangrijke": 1269,
  "\u2581\u53d7\u3051\u308b": 1270,
  "\u2581Veel": 1271,
  "\u2581\u56fd\u6c11": 1272,
  "\u2581ligt": 1273,
  "\u2581pijn": 1274,
  "\u2581regering": 1275,
  "\u2581\u7d42\u308f\u308a": 1276,
  "\u2581blijkt": 1277,
  "\u2581denkt": 1278,
  "\u2581\u3082\u3068": 1279,
  "\u258113:": 1280,
  "\u5206": 1281,
  "\u2581\u884c\u306a\u3063": 1282,
  "\u2581Zoon": 1283,
  "\u2581bericht": 1284,
  "\u2581\u3044\u3044": 1285,
  "\u2581\u305d\u308c\u3067\u3082": 1286,
  "\u2581\u5185": 1287,
  "\u2581100": 1288,
  "\u2581religie": 1289,
  "\u2581\u95a2\u5fc3": 1290,
  "\u2581\u9577\u8001": 1291,
  "\u3051\u3069": 1292,
  "\u2581bang": 1293,
  "\u2581\u5927\u4f1a": 1294,
  "\u2581\u6226\u4e89": 1295,
  "\u2581thans": 1296,
  "\u2581vorm": 1297,
  "\u2581Zelfs": 1298,
  "\u7269": 1299,
  "\u2581\u30d0\u30d7\u30c6\u30b9\u30de": 1300,
  "\u2581gingen": 1301,
  "is": 1302,
  "\u2581\u304a\u3088\u3073": 1303,
  "\u2581\u8a8d\u3081": 1304,
  "\u306b\u3082": 1305,
  "\u2581\u7a2e": 1306,
  "B": 1307,
  "\u2581gebeurd": 1308,
  "\u5927": 1309,
  "\u2581\u5ea6": 1310,
  "A": 1311,
  "\u2581beetje": 1312,
  "\u2581\u751f\u304d": 1313,
  "\u2581\u4e0e\u3048\u308b": 1314,
  "\u2581\u897f\u66a6": 1315,
  "\u2581\u547c\u3070": 1316,
  "\u2581\u79c1\u306e": 1317,
  "\u2581geschiedenis": 1318,
  "\u2581tien": 1319,
  "\u2581\u5f8b\u6cd5": 1320,
  "\u2581Wachttoren": 1321,
  "\u2581alsof": 1322,
  "\u2581\u3044\u3064": 1323,
  "\u624b": 1324,
  "\u3053\u3068\u3092": 1325,
  "\u2581Ge": 1326,
  "\u3088\u308a": 1327,
  "\u2581Aan": 1328,
  "\u2581Dank": 1329,
  "\u2581\u5e7e\u3064": 1330,
  "\u2581groep": 1331,
  "\u258140": 1332,
  "\u2581\u51fa\u5e2d": 1333,
  "\u30e0": 1334,
  "\u2581handen": 1335,
  "\u3070": 1336,
  "\u2581\u795d\u798f": 1337,
  "\u2581begonnen": 1338,
  "\u2581\u793e\u4f1a": 1339,
  "u": 1340,
  "\u2581vreugde": 1341,
  "\u2581\u8af8": 1342,
  "\u2581Satan": 1343,
  "\u2581daarvan": 1344,
  "\u2581\u5909\u5316": 1345,
  "\u2581\u5e78\u798f": 1346,
  "\u2581Koninkrijk": 1347,
  "\u2581\u307b\u3046": 1348,
  "\u2581\u884c\u306a\u3044": 1349,
  "\u3067\u3057\u305f": 1350,
  "\u2581\u305d\u3053\u3067": 1351,
  "\u2581\u6c7a\u3057\u3066": 1352,
  "\u2581halen": 1353,
  "\u2581\u76ca": 1354,
  "\u2581\u7fa9": 1355,
  "\u2581sommigen": 1356,
  "\u2581V": 1357,
  "\u30f3": 1358,
  "\u2581\u3042\u3089\u3086\u308b": 1359,
  "op": 1360,
  "\u2581\u4e00\u90e8": 1361,
  "\u2581zaak": 1362,
  "\u258150": 1363,
  "O": 1364,
  "\u2581gedrag": 1365,
  "\u2581waarvan": 1366,
  "\u2581zes": 1367,
  "\u2581\u606f\u5b50": 1368,
  "\u2581\u30a2": 1369,
  "x": 1370,
  "\u2581jongen": 1371,
  "\u3055\u3093": 1372,
  "\u2581ziekte": 1373,
  "\u2581nam": 1374,
  "\u2581blij": 1375,
  "\u2581\u72a0\u7272": 1376,
  "\u2581\u77e5\u8b58": 1377,
  "\u3068\u306f": 1378,
  "\u2581\u4fe1\u3058": 1379,
  "\u305d\u3046": 1380,
  "\u3060\u3068": 1381,
  "\u2581\u96c6\u4f1a": 1382,
  "se": 1383,
  "l": 1384,
  "\u2581macht": 1385,
  "\u2581geluk": 1386,
  "\u2581z": 1387,
  "P": 1388,
  "\u2581\u7121": 1389,
  "g": 1390,
  "\u2581lucht": 1391,
  "\u2581meest": 1392,
  "\u30d0": 1393,
  "\u2581\u969b": 1394,
  "\u2581\u30a2\u30e1\u30ea\u30ab": 1395,
  "\u2581eerder": 1396,
  "\u2581nati\u00ebn": 1397,
  "\u2581Denk": 1398,
  "\u2581\u6765\u308b": 1399,
  "\u2581meisje": 1400,
  "\u2581ervoor": 1401,
  "Het": 1402,
  "\u2581recht": 1403,
  "\u2581kerk": 1404,
  "\u2581ziel": 1405,
  "\u2581aanbidding": 1406,
  "\u307e": 1407,
  "\u30de": 1408,
  "\u2581acht": 1409,
  "\u2581Zou": 1410,
  "\u2581\u6bcd": 1411,
  "\u2581\u5730\u57df": 1412,
  "\u2581\u90fd\u5e02": 1413,
  "\u258124:": 1414,
  "\u2581\u30ab\u30c8\u30ea\u30c3\u30af": 1415,
  "\u2581\u8a8c": 1416,
  "\u2581\u81ea\u8eab": 1417,
  "\u2581Doe": 1418,
  "\u2581zetten": 1419,
  "\u2581\u8a00\u3048": 1420,
  "\u2581taal": 1421,
  "\u2581gebeuren": 1422,
  "\u2581\u5c06\u6765": 1423,
  "\u2581Ver": 1424,
  "\u2581\u5c0f\u3055\u306a": 1425,
  "p": 1426,
  "\u2581Onze": 1427,
  "\u2581vind": 1428,
  "\u2581Nog": 1429,
  "\u2581krijgt": 1430,
  "\u2581\u6b74\u53f2": 1431,
  "\u2581kijk": 1432,
  "L": 1433,
  "\u2581gedachten": 1434,
  "\u2581DE": 1435,
  "\u3067\u3042\u308b": 1436,
  "\u2581H": 1437,
  "\u306e\u305f\u3081\u306b": 1438,
  "\u2581\u884c\u304f": 1439,
  "on": 1440,
  "\u306a\u3093\u3060": 1441,
  "\u2581\u4ee5\u524d": 1442,
  "\u2581eigenlijk": 1443,
  "\u2581E\u00e9n": 1444,
  "\u2581pas": 1445,
  "\u2581\u6050\u308c": 1446,
  "al": 1447,
  "\u4e2d": 1448,
  "\u2581dieren": 1449,
  "\u2581klein": 1450,
  "\u2581juist": 1451,
  "\u2581\u601d\u308f": 1452,
  "\u2581bracht": 1453,
  "\u306b\u3064\u3044\u3066": 1454,
  "\u2581\u53ef\u80fd": 1455,
  "\u2581kun": 1456,
  "\u2581\u307f\u3093\u306a": 1457,
  "\u2581slechte": 1458,
  "),": 1459,
  "\u2581\u4f8b": 1460,
  "w": 1461,
  "\u2581\u4e00\u7dd2": 1462,
  "\u2581\u7537": 1463,
  "\u2581\u307e\u305a": 1464,
  "\u2581\u3082\u3063": 1465,
  "\u2581\u601d\u3063": 1466,
  "\u7684\u306a": 1467,
  "\u2581ieder": 1468,
  "\u2581\u7d19": 1469,
  "\u79c1\u306f": 1470,
  "\u2581neer": 1471,
  "\u2581\u3069\u308c": 1472,
  "\u2581Sommige": 1473,
  "\u2581lange": 1474,
  "\u2581\u4fa1\u5024": 1475,
  "\u5b50": 1476,
  "\u2581\u6728": 1477,
  "\u2581leiding": 1478,
  "\u2581langer": 1479,
  "\u2581lopen": 1480,
  "\u2581voelen": 1481,
  "\u2581\u66f8\u3044": 1482,
  "\u2581strijd": 1483,
  "\u2581\u5dde": 1484,
  "\u25818:": 1485,
  "\u3080": 1486,
  "\u2581politie": 1487,
  "\u2581vindt": 1488,
  "\u2581\u30a2\u30d5\u30ea\u30ab": 1489,
  "\u2581geestelijk": 1490,
  "\u2581Amerikaanse": 1491,
  "\u2581&": 1492,
  "\u2581persoonlijke": 1493,
  "\u2581zonde": 1494,
  "\u306b\u306a\u308b": 1495,
  "\u2581\u30c0\u30d3\u30c7": 1496,
  "\u306a\u306e": 1497,
  "\u2581\u7cbe\u795e": 1498,
  "\u2581\u500b\u4eba": 1499,
  "\u2581gelukkig": 1500,
  "\u2581v": 1501,
  "\u3044\u305f": 1502,
  "\u2581\u305f\u3088\u308a": 1503,
  "\u3067\u304d\u308b": 1504,
  "\u2581\u8a3c\u62e0": 1505,
  "\u2581natuurlijk": 1506,
  "\u2581werkt": 1507,
  "\u2581\u9053\u5fb3": 1508,
  "\u3088\u3046\u306b": 1509,
  "\u2581\u3048\u3048": 1510,
  "\u2581slecht": 1511,
  "\u3042\u306a\u305f": 1512,
  "\u2581\u3044\u3063": 1513,
  "\u2581dragen": 1514,
  "\u2581\u611f\u60c5": 1515,
  "\u2581zoveel": 1516,
  "\u2581meter": 1517,
  "\u3048": 1518,
  "\u306a\u304b\u3063\u305f": 1519,
  "\u2581\u672c\u5f53\u306b": 1520,
  "\u2581baby": 1521,
  "\u2581\u30a8\u30eb\u30b5\u30ec\u30e0": 1522,
  "\u2581vandaag": 1523,
  "\u2581\u6b63\u3057\u3044": 1524,
  "\u2581opnieuw": 1525,
  "\u2581\u6bcd\u89aa": 1526,
  "\u2581wachten": 1527,
  "\u2581nadat": 1528,
  "\u2581Kan": 1529,
  "\u2581opdat": 1530,
  "\u2581\u60aa\u3044": 1531,
  "\u2581wonen": 1532,
  "\u2581zaken": 1533,
  "\u307e\u305f": 1534,
  "\u6c17": 1535,
  "\u2581\u5f53\u6642": 1536,
  "\u2581Tot": 1537,
  "\u2581Psalm": 1538,
  "\u2581Want": 1539,
  "\u2581deur": 1540,
  "\u2581\u8d77\u304d": 1541,
  "M": 1542,
  "h": 1543,
  "\u2581gehouden": 1544,
  "\u2581best": 1545,
  "\u2581huidige": 1546,
  "\u25819:": 1547,
  "\u65b9": 1548,
  "\u2581week": 1549,
  "\u2581leggen": 1550,
  "\u2581\u4e8b": 1551,
  "\u2581\u4f4f\u3080": 1552,
  "\u2581\u884c\u70ba": 1553,
  "man": 1554,
  "\u2581\u5973": 1555,
  "\u2581\u52a9\u8a00": 1556,
  "\u2581jongeren": 1557,
  "\u2581waarde": 1558,
  "het": 1559,
  "\u2581vertelde": 1560,
  "\u2581\u7d9a\u3051": 1561,
  "\u4f55": 1562,
  "6": 1563,
  "\u30aa": 1564,
  "\u2581\u540c": 1565,
  "\u2581wijsheid": 1566,
  "\u2581gelegenheid": 1567,
  "\u2581\u6bd4\u8f03": 1568,
  "\u2581\u8cac\u4efb": 1569,
  "\u2581Jesaja": 1570,
  "\u306e\u3088": 1571,
  "\u2581gevallen": 1572,
  "\u2581mogen": 1573,
  "\u2581\u4eba\u751f": 1574,
  "\u306a\u3093\u3066": 1575,
  "\u2581Jullie": 1576,
  "\u2581\u304f\u3060\u3055\u308b": 1577,
  "\u2581\u5065\u5eb7": 1578,
  "\u2581\u541b\u306e": 1579,
  "\u2581\u6700\u8fd1": 1580,
  "\u2581Uit": 1581,
  "\u2581\u3053\u3068\u3070": 1582,
  "\u2581gehoord": 1583,
  "\u2581gek": 1584,
  "\u2581\u4f1d\u3048": 1585,
  "\u2581punt": 1586,
  "\u2581vertelt": 1587,
  "\u2581Schepper": 1588,
  "\u2581nieuw": 1589,
  "\u2581\u533b\u5e2b": 1590,
  "\u2581\u77e5\u308b": 1591,
  "\u2581tijden": 1592,
  "\u2581waarbij": 1593,
  "tje": 1594,
  "\u2581\u60c5\u5831": 1595,
  "K": 1596,
  "\u2581\u52e7\u3081": 1597,
  "\u2581\u3068\u304a\u308a": 1598,
  "\u2581basis": 1599,
  "\u2581\u541b": 1600,
  "\u2581\u624b\u7d19": 1601,
  "\u2581Bovendien": 1602,
  "\u2581trekken": 1603,
  "\u3042\u308b": 1604,
  "\u2581\u898b\u65b9": 1605,
  "\u2581sterk": 1606,
  "\u2581\u73fe\u4ee3": 1607,
  "\u3051": 1608,
  "\u2581moeite": 1609,
  "\u2581bezig": 1610,
  "\u2581\u53e3": 1611,
  "\u2581brengt": 1612,
  "\u2581Bedankt": 1613,
  "gens": 1614,
  "\u2581\u7686": 1615,
  "\u3044\u308b": 1616,
  "\u2581\u601d\u3046": 1617,
  "\u2581nou": 1618,
  "\u3067\u3057\u3087": 1619,
  "\u30b3": 1620,
  "\u2581verlaten": 1621,
  "\u2581oud": 1622,
  "\u2581Nou": 1623,
  "\u2581Over": 1624,
  "\u2581lijden": 1625,
  "\u2581hoog": 1626,
  "\u3066\u3044\u308b": 1627,
  "\u2581leden": 1628,
  "or": 1629,
  "\u2581verhaal": 1630,
  "\u2581nacht": 1631,
  "\u2581ont": 1632,
  "\u258129": 1633,
  "\u2581\u78ba\u4fe1": 1634,
  "\u2581\u653f\u6cbb": 1635,
  "ken": 1636,
  "\u2581\u4fe1\u983c": 1637,
  "\u30d5": 1638,
  "\u5730": 1639,
  "\u2581\u542b\u307e": 1640,
  "\u2581\u901a\u3057": 1641,
  "\u2581reeds": 1642,
  "\u2581\u91d1": 1643,
  "\u258117:": 1644,
  "\u2581studie": 1645,
  "\u2581\u5bb6\u5ead": 1646,
  "\u3053": 1647,
  "\u2581\u3088\u308c": 1648,
  "\u2581omstandigheden": 1649,
  "\u2581zin": 1650,
  "\u30b7": 1651,
  "\u2581I": 1652,
  "\u2581gesteld": 1653,
  "\u2581gebed": 1654,
  "\u30b8": 1655,
  "\u2581L": 1656,
  "\u2581zat": 1657,
  "\u79c1": 1658,
  "\u258132": 1659,
  "\u2581\u8a33": 1660,
  "\u2581organisatie": 1661,
  "\u529b": 1662,
  "\u2581bieden": 1663,
  "\u2581Dr": 1664,
  "\u2581geleerd": 1665,
  "\u2581verantwoorde": 1666,
  "\u2581via": 1667,
  "\u2581\u4e00\u822c": 1668,
  "\u30c0": 1669,
  "\u30de\u30f3": 1670,
  "c": 1671,
  "\u2581leuk": 1672,
  "\u6027": 1673,
  "\u2581minuten": 1674,
  "\u2581\u30ae\u30ea\u30b7\u30e3": 1675,
  "\u2581\u5206\u304b\u308a": 1676,
  "\u308f\u305f\u3057": 1677,
  "\u2581\u5a18": 1678,
  "\u2581geschreven": 1679,
  "\u2581\u884c\u304d": 1680,
  "\u30cb": 1681,
  "\u2581\u3057\u307e\u3044": 1682,
  "\u258131": 1683,
  "\u2581zee": 1684,
  "\u2581\u3042\u306a\u305f\u304c": 1685,
  "\u2581\u5149": 1686,
  "\u2581verloren": 1687,
  "us": 1688,
  "\u3066\u308b": 1689,
  "\u2581echte": 1690,
  "\u2581kwaad": 1691,
  "\u2581vallen": 1692,
  "\u30ec": 1693,
  "\u2581Geef": 1694,
  "Name": 1695,
  "\u2581inderdaad": 1696,
  "\u258114:": 1697,
  "\u2581contact": 1698,
  "\u2581waarmee": 1699,
  "\u2581\u305d\u3093\u306a": 1700,
  "\u2581\u5168\u4f53": 1701,
  "\u2581bedoel": 1702,
  "\u2581Mozes": 1703,
  "\u2581\u7269\u8cea": 1704,
  "\u2581\u8aad\u3080": 1705,
  "rechtvaardigheid": 1706,
  "H": 1707,
  "\u2581zorg": 1708,
  "\u2581\u30c9\u30a4\u30c4": 1709,
  "\u2581\u8840": 1710,
  "\u2581\u5e7e": 1711,
  "\u2581Mr": 1712,
  "\u2581gevoelens": 1713,
  "sen": 1714,
  "\u2581Be": 1715,
  "\u2581\u5fa9\u6d3b": 1716,
  "\u3057\u3066\u3044\u307e\u3059": 1717,
  "R": 1718,
  "\u2581\u30ad\u30ed": 1719,
  "\u2581\u4f53\u5236": 1720,
  "\u2581\u666e\u901a": 1721,
  "\u2581gevaar": 1722,
  "\u258133": 1723,
  "\u81ea\u5206": 1724,
  "\u2581\u8b66\u544a": 1725,
  "\u2581veilig": 1726,
  "\u2581plan": 1727,
  "\u258127": 1728,
  "\u4e00": 1729,
  "\u2581\u5b89\u5168": 1730,
  "V": 1731,
  "\u2581hield": 1732,
  "\u2581daarna": 1733,
  "\u2581gezondheid": 1734,
  "\u2581vlees": 1735,
  "\u2581Isra\u00eblieten": 1736,
  "F": 1737,
  "I": 1738,
  "\u2581bijzonder": 1739,
  "\u2581kilometer": 1740,
  "\u2581beschermen": 1741,
  "\u2581ervaring": 1742,
  "\u2581foto": 1743,
  "\u2581christen": 1744,
  "\u2581spelen": 1745,
  "\u2581bleef": 1746,
  "\u2581samenstel": 1747,
  "\u2581\u305d\u308c\u304c": 1748,
  "\u2581\u81ea\u7136": 1749,
  "\u2581\u5275\u4e16\u8a18": 1750,
  "\u2581York": 1751,
  "\u2581midden": 1752,
  "\u305d\u308c": 1753,
  "\u2581geboren": 1754,
  "\u2581plek": 1755,
  "\u2581broer": 1756,
  "\u2581\u4e09": 1757,
  "\u2581\u3061\u3087\u3063\u3068": 1758,
  "\u2581opzicht": 1759,
  "?\"": 1760,
  "\u2581\u611f": 1761,
  "\u2581\u3057\u307e\u3046": 1762,
  "\u2581\u69d8\u3005": 1763,
  "\u30a8": 1764,
  "\u2581\u8a9e\u3063": 1765,
  "\u2581\u304a\u91d1": 1766,
  "\u2581namen": 1767,
  "\u2581\u53d6\u308a": 1768,
  "\u2581\u7537\u6027": 1769,
  "\u2581sprak": 1770,
  "\u2581\u3055\u305b": 1771,
  "\u2581\u5831\u544a": 1772,
  "\u2581\u611b\u3059\u308b": 1773,
  "\u2581betrokken": 1774,
  "\u2581ene": 1775,
  "\u2581\u6559\u80b2": 1776,
  "\u2581\u4e8c\u3064": 1777,
  "\u2581gedachte": 1778,
  "\u2581\u58f0": 1779,
  "\u2581\u539f\u56e0": 1780,
  "\u826f\u3044": 1781,
  "\u2581luisteren": 1782,
  "\u2581rol": 1783,
  "\u3060\u306a": 1784,
  "\u76ee\u3056\u3081\u3088": 1785,
  "\u2581\u5099\u3048": 1786,
  "\u2581\u53d7\u3051\u5165\u308c": 1787,
  "\u2581gesproken": 1788,
  "\u2581\u3042\u308d": 1789,
  "\u2581\u3057\u304b": 1790,
  "\u2581Zeg": 1791,
  "\u2581\u3059\u3067\u306b": 1792,
  "\u2581\u4e00\u81f4": 1793,
  "\u30d6": 1794,
  "\u2581ding": 1795,
  "\u2581\u8a08\u753b": 1796,
  "\u2581\u8a18\u9332": 1797,
  "\u2581genomen": 1798,
  "7": 1799,
  "\u2581verslag": 1800,
  "\u6c34": 1801,
  "\u4e0a": 1802,
  "\u2581hemelse": 1803,
  "\u2581boodschap": 1804,
  "\u2581\u8a2a\u554f": 1805,
  "\u2581\u4e3b\u7fa9": 1806,
  "\u2581\u3044\u3044\u3048": 1807,
  "\u2581speciale": 1808,
  "\u2581beeld": 1809,
  "\u2581\u6d77": 1810,
  "\u2581\u6700\u5f8c": 1811,
  "\u2581\u3042\u3068": 1812,
  "\u2581\u8a18": 1813,
  "10": 1814,
  "\u2581vervolgens": 1815,
  "\u2581\u7acb\u5834": 1816,
  "\u2581\u3055\u3042": 1817,
  "\u2581Alles": 1818,
  "\u2581\u53e4\u4ee3": 1819,
  "\u2581\u96e2\u308c": 1820,
  "\u2581geholpen": 1821,
  "\u2581\u540d\u524d": 1822,
  "\u2581\u304b\u3051": 1823,
  "\u2581\u6c38\u9060": 1824,
  "\u2581Neem": 1825,
  "\u2581redden": 1826,
  "\u30b0": 1827,
  "\u898b": 1828,
  "\u2581\u53cd\u5bfe": 1829,
  "\u2581\u30e4\u30b3\u30d6": 1830,
  "\u2581\u59c9\u59b9": 1831,
  "\u30a8\u30db\u30d0": 1832,
  "\u2581voorkomen": 1833,
  "\u2581hou": 1834,
  "\u2581aldus": 1835,
  "\u2581tijdschrift": 1836,
  "\u884c": 1837,
  "\u2581\u3059\u306a\u308f\u3061": 1838,
  "\u2581\u6c7a\u5b9a": 1839,
  "aan": 1840,
  "\u2581hoge": 1841,
  "\u2581geheel": 1842,
  "\u2581zeven": 1843,
  "\u2581\u8abf\u67fb": 1844,
  "\u2581\u77e5\u6075": 1845,
  "\u30b5": 1846,
  "\u2581totdat": 1847,
  "\u2581\u60aa": 1848,
  "\u2581succes": 1849,
  "\u2581\u793a\u3055": 1850,
  "ie": 1851,
  "\u2581\u4e00\u65b9": 1852,
  "\u2581vermoord": 1853,
  "\u2581\u6614": 1854,
  "uit": 1855,
  "\u2581geweld": 1856,
  "\u2581joden": 1857,
  "\u3057\u306a\u3044": 1858,
  "\u2581W": 1859,
  "\u2581erin": 1860,
  "\u2581sinds": 1861,
  "\u30df": 1862,
  "\u2581langs": 1863,
  "\u2581neemt": 1864,
  "ige": 1865,
  "\u2581Sommigen": 1866,
  "\u2581\u8a00\u8a9e": 1867,
  "\u2581zoek": 1868,
  "\u2581\u3054\u89a7": 1869,
  "\u2581uiteindelijk": 1870,
  "\u2581bewijzen": 1871,
  "\u3067\u306f\u306a\u3044": 1872,
  "\u2581manieren": 1873,
  "\u2581wegens": 1874,
  "\u2581Alleen": 1875,
  "\u2581\u5f7c\u3089\u306f": 1876,
  "\u2581stand": 1877,
  "\u2581\u7236\u89aa": 1878,
  "\u306a\u3055\u3044": 1879,
  "\u2581f": 1880,
  "\u6570": 1881,
  "z": 1882,
  "\u304b\u306a": 1883,
  "\u2581bewijs": 1884,
  "\u30c6\u30a3": 1885,
  "\u2581vanaf": 1886,
  "\u2581mening": 1887,
  "\u2581R": 1888,
  "\u2581Hun": 1889,
  "\u2581hard": 1890,
  "\u2581\u5165\u308c": 1891,
  "\u2581overal": 1892,
  "\u2581J": 1893,
  "\u2581noemen": 1894,
  "\u2581ouderlingen": 1895,
  "der": 1896,
  "\u2581\u751f": 1897,
  "\u2581\u7279\u5225": 1898,
  "\u2581\u62b1\u3044": 1899,
  "\u7b11": 1900,
  "\u2581algemeen": 1901,
  "\u2581\u751f\u307e": 1902,
  "\u2581avond": 1903,
  "\u2581bereiken": 1904,
  "\u2581\u539f\u5247": 1905,
  "\u2581hoewel": 1906,
  "\u2581\u8239": 1907,
  "\u2581Afrika": 1908,
  "\u2581bereid": 1909,
  "\u2581muziek": 1910,
  "\u304c\u3042\u308a\u307e\u3059": 1911,
  "\u2581verteld": 1912,
  "\u2581\u4fdd\u8b77": 1913,
  "\u2581voort": 1914,
  "\u2581Net": 1915,
  "\u2581\u958b\u62d3": 1916,
  "\u2581voorbij": 1917,
  "\u3053\u3068\u306f": 1918,
  "\u2581\u308f\u305a\u304b": 1919,
  "\u2581ruimte": 1920,
  "\u2581\u5927\u5207": 1921,
  "\u2581schrijven": 1922,
  "\u307e\u305b\u3093": 1923,
  "\u2581liggen": 1924,
  "\u2581belangstelling": 1925,
  "\u2581\u50d5\u306f": 1926,
  "\u2581energie": 1927,
  "\u3055\u308c\u308b": 1928,
  "\u2581vergaderingen": 1929,
  "\u2581\u884c\u3063": 1930,
  "\u2581levens": 1931,
  "\u2581\u304b\u306a\u308a": 1932,
  "\u2581derde": 1933,
  "\u2581\u8aad\u3093": 1934,
  "\u2581Iemand": 1935,
  "\u2581tempel": 1936,
  "\u2581\u591a\u3044": 1937,
  "\u2581\u898b\u3048": 1938,
  "\u2581buurt": 1939,
  "\u2581dochter": 1940,
  "\u2581\u3059\u3070\u3089\u3057\u3044": 1941,
  "\u2581natie": 1942,
  "\u2581Openbaring": 1943,
  "\u30c3": 1944,
  "\u2581bediening": 1945,
  "eren": 1946,
  "\u2581groter": 1947,
  "\u2581\u89e3\u6c7a": 1948,
  "\u30ad": 1949,
  "\u2581\u30e2\u30fc\u30bb": 1950,
  "\u2581\u805e\u3044": 1951,
  "\u30c4": 1952,
  "\u2581gezicht": 1953,
  "\u3057\u308d": 1954,
  "\u2581plaatsen": 1955,
  "\u2581gebeurde": 1956,
  "ster": 1957,
  "\u2581\u90e8\u5206": 1958,
  "\u2581Mensen": 1959,
  "\u2581Z": 1960,
  "\u2581\u6211\u3005\u306f": 1961,
  "\u2581\u3084\u304c\u3066": 1962,
  "\u2581beide": 1963,
  "\u2581vrijheid": 1964,
  "\u2581miljoenen": 1965,
  "\u2581kwestie": 1966,
  "\u30c1": 1967,
  "\u2581\u304a\u524d\u306f": 1968,
  "\u2581\u3042\u306a\u305f\u306e": 1969,
  "\u2581positie": 1970,
  "\u3067\u3059\u304b": 1971,
  "\u2581degene": 1972,
  "\u2581\u5fc5\u305a": 1973,
  "\u2581\u81ea\u3089": 1974,
  "\u2581\u6307\u5c0e": 1975,
  "\u2581Ten": 1976,
  "\u6642\u9593": 1977,
  "\u2581\u6a5f\u4f1a": 1978,
  "\u2581zusters": 1979,
  "\u2581\u52a0\u3048": 1980,
  "\u2581onderwijs": 1981,
  "\u2581\u5916": 1982,
  "N": 1983,
  "\u2581\u8033": 1984,
  "\u2581\u56de": 1985,
  "\u2581\u54e1": 1986,
  "\u2581\u96fb\u8a71": 1987,
  "\u2581houding": 1988,
  "\u2581\u306f\u3044": 1989,
  "\u2581\u811a\u6ce8": 1990,
  "\u2581geweten": 1991,
  "el": 1992,
  "\u2581doordat": 1993,
  "\u2581deden": 1994,
  "\u2581\u8fd1\u304f": 1995,
  "\u2581enkel": 1996,
  "\u2581indien": 1997,
  "\u305a": 1998,
  "\u2581wellicht": 1999,
  "\u2581John": 2000,
  "\u2581politieke": 2001,
  "\u2581\u306f\u305a": 2002,
  "\u2581\u306f\u3063\u304d\u308a": 2003,
  "\u2581\u3057\u305f\u304c\u3063\u3066": 2004,
  "\u2581\u8a71\u3059": 2005,
  "\u2581band": 2006,
  "\u258120:": 2007,
  "\u2581getuigenis": 2008,
  "\u2581vergeten": 2009,
  "\u30cd": 2010,
  "\u3078\u306e": 2011,
  "\u3093\u3067\u3059": 2012,
  "\u2581\u5e02": 2013,
  "\u2581\u9b42": 2014,
  "\u2581drinken": 2015,
  "\u2581prijs": 2016,
  "\u2581\u3053\u308c\u304c": 2017,
  "\u2581broeder": 2018,
  "\u2581\u5b87\u5b99": 2019,
  "\u3089\u308c\u308b": 2020,
  "\u2581\u3084\u3063": 2021,
  "\u2581\u82f1\u56fd": 2022,
  "om": 2023,
  "\u25811914": 2024,
  "\u30bf\u30fc": 2025,
  "\u3053\u308c": 2026,
  "\u2581welk": 2027,
  "\u2581boeken": 2028,
  "\u2581orde": 2029,
  "\u3044\u307e\u3059": 2030,
  "\u4eca": 2031,
  "\u2581\u5974\u96b7": 2032,
  "\u7684": 2033,
  "\u2581Naar": 2034,
  "\u2581programma": 2035,
  "\u2581Blijf": 2036,
  "\u4f53": 2037,
  "_": 2038,
  "\u2581gemakkelijk": 2039,
  "\u2581\u3086\u304f": 2040,
  "8": 2041,
  "\u2581Schrift": 2042,
  "\u2581Adam": 2043,
  "\u2581Indien": 2044,
  "\u2581\u6cbb\u7642": 2045,
  "\u2581\u304b\u6708": 2046,
  "\u2581\u5354\u4f1a": 2047,
  "\u2581dicht": 2048,
  "\u2581\u8db3": 2049,
  "\u2581\u5f37\u3044": 2050,
  "\u2581stoppen": 2051,
  "\u2581\u6211\u3005": 2052,
  "\u2581\u3080\u3057\u308d": 2053,
  "\u2581\u8a71\u3057": 2054,
  "\u2581\u904e\u53bb": 2055,
  "\u2581\u53cb\u4eba": 2056,
  "\u2581aanzien": 2057,
  "\u2581baan": 2058,
  "ch": 2059,
  "\u305f\u3044": 2060,
  "\u2581afgelopen": 2061,
  "\u2581\u4ffa\u306e": 2062,
  "\u30c7\u30a3": 2063,
  "\u30ce": 2064,
  "\u2581nee": 2065,
  "\u300f\u3002": 2066,
  "\u2581\u304a\u524d": 2067,
  "\u2581\u30a8": 2068,
  "15:": 2069,
  "\u2581gevangenis": 2070,
  "\u2581\u518d\u3073": 2071,
  "\u2581\u82f1\u8a9e": 2072,
  "\u30d3": 2073,
  "\u2581rest": 2074,
  "\u2581opstanding": 2075,
  "\u2581\u89aa\u5207": 2076,
  "\u2581zon": 2077,
  "\u308c\u3070": 2078,
  "\u2581bron": 2079,
  "\u2581\u8abf\u3079": 2080,
  "\u30c7": 2081,
  "\u2581jezelf": 2082,
  "\u2581Oh": 2083,
  "\u2581Spreuken": 2084,
  "\u2581geef": 2085,
  "\u2581valt": 2086,
  "\u258160": 2087,
  "\u2581\u9ad8\u3044": 2088,
  "\u2581dienstknechten": 2089,
  "\u2581Heeft": 2090,
  "\u2581fout": 2091,
  "\u2581vuur": 2092,
  "\u2581getrouwe": 2093,
  "\u2581Wacht": 2094,
  "\u258135": 2095,
  "\u2581bidden": 2096,
  "\u2581geweldig": 2097,
  "\u30a4": 2098,
  "\u2581\u77e5\u308a": 2099,
  "\u2581\u6a5f": 2100,
  "\u524d\u306b": 2101,
  "\u2581\u60a3\u8005": 2102,
  "\u2581\u5c71": 2103,
  "\u2581\u541b\u304c": 2104,
  "\u2581jongens": 2105,
  "\u2581vervulling": 2106,
  "\u2581hoeft": 2107,
  "\u2581Men": 2108,
  "\u2581helpt": 2109,
  "\u2581\u30b9": 2110,
  "\u2581\u5f7c\u304c": 2111,
  "\u2581bouwen": 2112,
  "\u2581\u8a13\u7df4": 2113,
  "\u305d": 2114,
  "\u540d": 2115,
  "\u2581veranderd": 2116,
  "\u2581eruit": 2117,
  "\u2581stuk": 2118,
  "\u2581kamer": 2119,
  "ar": 2120,
  "\u258116:": 2121,
  "\u2581\u4fdd\u3064": 2122,
  "\u2581leeftijd": 2123,
  "\u2581\u4e00\u5ea6": 2124,
  "\u2581\u6575": 2125,
  "ia": 2126,
  "\u2581christenheid": 2127,
  "\u2581prediken": 2128,
  "\u2581raken": 2129,
  "\u2581\u6b7b\u3093": 2130,
  "\u2581\u571f\u5730": 2131,
  "\u2581kort": 2132,
  "\u2581bed": 2133,
  "\u76ee": 2134,
  "\u2581weken": 2135,
  "\u2581ermee": 2136,
  "\u2581\u4e92\u3044": 2137,
  "\u2581\u771f\u5b9f": 2138,
  "\u2581\u521d\u3081\u3066": 2139,
  "\u2581brief": 2140,
  "\u2581niks": 2141,
  "\u2581\u66f8\u304d": 2142,
  "\u2581aangezien": 2143,
  "\u2581\u30c0\u30cb\u30a8\u30eb": 2144,
  "\u5bb6": 2145,
  "\u9053": 2146,
  "\u2581duizenden": 2147,
  "\u2581verlangen": 2148,
  "\u2581\u305a\u3063": 2149,
  "\u2581vanuit": 2150,
  "\u5fc3": 2151,
  "\u2581bezoeken": 2152,
  "\u2581\u65e5\u672c": 2153,
  "\u258119:": 2154,
  "\u2581voorzien": 2155,
  "\u306e\u306b": 2156,
  "\u2581gaven": 2157,
  "\u2581\u66b4\u529b": 2158,
  "ische": 2159,
  "\u30e1": 2160,
  "\u2581plaatselijke": 2161,
  "\u2581\u671f\u9593": 2162,
  "\u2581Grote": 2163,
  "\u2581mond": 2164,
  "\u2581soorten": 2165,
  "\u2581mis": 2166,
  "\u306e\u3088\u3046\u306b": 2167,
  "\u2581\u5fd8\u308c": 2168,
  "\u2581Niemand": 2169,
  "\u2581slachtoffer": 2170,
  "\u2581zeiden": 2171,
  "\u2581\u592b\u5a66": 2172,
  "\u3068\u601d\u3046": 2173,
  "\u2581\u3082\u305f\u3089\u3059": 2174,
  "\u3066\u3044\u307e\u3059": 2175,
  "\u2581tekst": 2176,
  "\u2581hoorde": 2177,
  "\u2581ergens": 2178,
  "\u2581\u72af\u7f6a": 2179,
  "\u306a\u3069": 2180,
  "\u751f": 2181,
  "\u2581periode": 2182,
  "\u2581\u5cf6": 2183,
  "\u2581\u9031": 2184,
  "\u2581\u51fa\u7248": 2185,
  "\u2581tegenover": 2186,
  "\u2581Griekse": 2187,
  "\u2581\u753a": 2188,
  "\u2581\u30d5\u30e9\u30f3\u30b9": 2189,
  "\u2581\u5f93\u3046": 2190,
  "\u30d0\u30fc": 2191,
  "\u2581verkeerde": 2192,
  "\u2581\u5f62": 2193,
  "\u2581Ontwaakt": 2194,
  "\u2581vrees": 2195,
  "\u2581\u6df1\u3044": 2196,
  "\u2581\u8a9e\u308a": 2197,
  "\u2581belangrijkste": 2198,
  "\u3044\u3044": 2199,
  "\u2581stem": 2200,
  "\u2581betekenis": 2201,
  "\u2581\u307f\u306a": 2202,
  "\u2581\u3088\u3057": 2203,
  "U": 2204,
  "\u2581kent": 2205,
  "\u2581Matthe\u00fcs": 2206,
  "\u2581waardering": 2207,
  "ve": 2208,
  "\u2581\u30e1\u30fc\u30c8\u30eb": 2209,
  "\u2581mooi": 2210,
  "\u305f\u3089": 2211,
  "\u2581\u6c42\u3081\u308b": 2212,
  "\u524d": 2213,
  "\u2581begint": 2214,
  "\u2581eenvoudig": 2215,
  "ma": 2216,
  "\u2581\u30e8\u30d6": 2217,
  "\u258170": 2218,
  "\u2581betreft": 2219,
  "\u2581beneden": 2220,
  "\u2581voordeel": 2221,
  "\u2581heet": 2222,
  "\u2581ernstige": 2223,
  "\u2581verkeerd": 2224,
  "\u2581\u98df\u7269": 2225,
  "\u2581Korinthi\u00ebrs": 2226,
  "\u2581Alle": 2227,
  "\u2581\u3086\u3048\u306b": 2228,
  "v": 2229,
  "W": 2230,
  "\u2581\u3053\u308d": 2231,
  "\u4e0b": 2232,
  "\u8a8c": 2233,
  "\u2581leidt": 2234,
  "\u2581feite": 2235,
  "\u258145": 2236,
  "\u2581beginselen": 2237,
  "\u2581\u6cd5": 2238,
  "\u2581\u80fd\u529b": 2239,
  "\u2581\u50cd\u304d": 2240,
  "\u2581\u671f\u5f85": 2241,
  "\u2581derhalve": 2242,
  "\u2581overeenstemming": 2243,
  "\u2581\u706b": 2244,
  "\u2581Soms": 2245,
  "\u2581\u5927\u5b66": 2246,
  "\u2581Maak": 2247,
  "\u2581\u30a8\u30d5\u30a7\u30bd\u30b9": 2248,
  "\u2581\u3084\u3081": 2249,
  "\u2581schuld": 2250,
  "\u2581v\u00f3\u00f3r": 2251,
  "lijkheid": 2252,
  "\u2581\u51fa\u6765\u4e8b": 2253,
  "\u2581\u4f4f\u3093": 2254,
  "\u2581terecht": 2255,
  "\u2581genieten": 2256,
  "\u2581opdracht": 2257,
  "\u30ac": 2258,
  "\u2581\u5f7c\u306e": 2259,
  "\u2581omgeving": 2260,
  "\u2581rust": 2261,
  "\u30c6": 2262,
  "\u2581respect": 2263,
  "\u3064\u306e": 2264,
  "Gelach": 2265,
  "\u2581\u5186": 2266,
  "\u2581dergelijke": 2267,
  "\u2581maand": 2268,
  "\u30d7": 2269,
  "\u2581\u7fd2\u6163": 2270,
  "\u2581\u304f\u3060\u3055\u3063": 2271,
  "ur": 2272,
  "\u2581\u5104": 2273,
  "\u2581werkelijkheid": 2274,
  "\u2581\u307e\u3055\u306b": 2275,
  "\u2581\u4f7f\u7528": 2276,
  "\u2581Twee": 2277,
  "\u2581\u3059\u304e": 2278,
  "\u2581ernstig": 2279,
  "\u51fa": 2280,
  "\u258122:": 2281,
  "\u2581volle": 2282,
  "\u2581\u5168\u90e8": 2283,
  "\u2581\u65e9\u304f": 2284,
  "\u30a6": 2285,
  "\u2581\u4e21\u89aa": 2286,
  "tjes": 2287,
  "\u308c\u308b": 2288,
  "\u2581gedurende": 2289,
  "\u2581vermijden": 2290,
  "\u2581\u6e80\u8db3": 2291,
  "\u2581\u6210\u5c31": 2292,
  "\u2581wilden": 2293,
  "\u2581Terwijl": 2294,
  "\u2581\u6210\u529f": 2295,
  "\u2581profeet": 2296,
  "\u2581H\u00e9": 2297,
  "\u30bd\u30f3": 2298,
  "ingen": 2299,
  "\u2581neem": 2300,
  "\u2581Hallo": 2301,
  "\u2581los": 2302,
  "\u2581\u52a9\u3051\u308b": 2303,
  "\u2581valse": 2304,
  "\u3061": 2305,
  "\u2581\u63f4\u52a9": 2306,
  "\u2581\u30a2\u30c0\u30e0": 2307,
  "\u2581\u6b7b\u306c": 2308,
  "\u2581Hou": 2309,
  "\u56de": 2310,
  "\u2581<": 2311,
  "\u6240": 2312,
  "\u2581\u4ffa\u304c": 2313,
  "\u2581volgelingen": 2314,
  "\u2581\u304b\u3064\u3066": 2315,
  "\u2581\u6559\u3048\u308b": 2316,
  "\u2581\u5927\u52e2": 2317,
  "\u2581grotere": 2318,
  "\u2581apostelen": 2319,
  "\u2581voelde": 2320,
  "\u2581daden": 2321,
  "\u2581waard": 2322,
  "\u2581namelijk": 2323,
  "\u2581\u3053\u3053\u3067": 2324,
  "ende": 2325,
  "\u2581lijken": 2326,
  "\u2581ouder": 2327,
  "\u2581\u6b63\u78ba": 2328,
  "\u3054": 2329,
  "\u2581betalen": 2330,
  "eerd": 2331,
  "\u2581voornemen": 2332,
  "\u2581\u98df\u3079": 2333,
  "\u2581Uw": 2334,
  "\u2581leer": 2335,
  "\u2581\u4f7f\u3063": 2336,
  "\u2581Onder": 2337,
  "\u3058\u3083": 2338,
  "\u2581\u30e8\u30fc\u30ed\u30c3\u30d1": 2339,
  "\u2581\u7d4c\u6e08": 2340,
  "\u2581\u76e3\u7763": 2341,
  "00": 2342,
  "\u2581ruim": 2343,
  "\u2581\u76f8\u624b": 2344,
  "\u2581belang": 2345,
  "\u3053\u308c\u306f": 2346,
  "\u2581\u5b9a\u3081": 2347,
  "\u2581\u30ab": 2348,
  "\u307b\u3069": 2349,
  "\u4eba\u306e": 2350,
  "\u2581\u79c1\u305f\u3061\u306f": 2351,
  "\u2581voelt": 2352,
  "\u2581\u9055\u3046": 2353,
  "\u2581\u305f\u304f\u3055\u3093": 2354,
  "\u2581\u30c9\u30eb": 2355,
  "\u2581\u5ddd": 2356,
  "\u2581bleek": 2357,
  "\u2581\u4ed5\u65b9": 2358,
  "\u2581\u56fd\u969b": 2359,
  "\u2581bestuderen": 2360,
  "\u2581hoeveel": 2361,
  "\u2581Amerika": 2362,
  "\u2581\u60aa\u9b54": 2363,
  "\u2581\u30cb\u30e5\u30fc\u30e8\u30fc\u30af": 2364,
  "\u2581\u65c5\u884c": 2365,
  "\u2581gekregen": 2366,
  "\u306b\u3088\u3063\u3066": 2367,
  "\u2581Iedereen": 2368,
  "\u2581profetie": 2369,
  "end": 2370,
  "\u2581\u3053\u3093\u306a": 2371,
  "\u2581verwacht": 2372,
  "\u2581\u90aa\u60aa": 2373,
  "\u2581e": 2374,
  "es": 2375,
  "\u2581Duivel": 2376,
  "\u2581\u53cd\u5fdc": 2377,
  "\u2581verleden": 2378,
  "\u2581verrichten": 2379,
  "\u2581N": 2380,
  "\u2581kregen": 2381,
  "\u56fd": 2382,
  "an": 2383,
  "\u2581\u8b66\u5bdf": 2384,
  "\u2581antwoorden": 2385,
  "\u30b9\u30c8": 2386,
  "\u2581bezit": 2387,
  "\u2581\u6bce\u65e5": 2388,
  "\u2581Aangezien": 2389,
  "\u2581daarmee": 2390,
  "\u2581goedheid": 2391,
  "\u3005": 2392,
  "\u2581\u7a2e\u985e": 2393,
  "\u4eba\u306f": 2394,
  "\u2581oordeel": 2395,
  "\u30ea\u30f3": 2396,
  "\u79c1\u306e": 2397,
  "\u2581gebruikte": 2398,
  "\u2581Lees": 2399,
  "\u2581enorme": 2400,
  "\u2581spreekt": 2401,
  "\u2581\u9577\u3044": 2402,
  "\u2581rijk": 2403,
  "\u2581belofte": 2404,
  "\u2581maak": 2405,
  "\u3068\u304b": 2406,
  "\u25811,": 2407,
  "\u2581wacht": 2408,
  "\u2581\u6ce8\u76ee": 2409,
  "\u5f7c": 2410,
  "\u91d1": 2411,
  "\u2581slaan": 2412,
  "baar": 2413,
  "\u2581gevolgen": 2414,
  "\u672c": 2415,
  "\u2581\u5b88\u308b": 2416,
  "\u2581haat": 2417,
  "\u2581\u30b0\u30eb\u30fc\u30d7": 2418,
  "\u2581\u5ba3\u3079\u4f1d\u3048\u308b": 2419,
  "\u2581\u30c6\u30ec\u30d3": 2420,
  "\u2581\u3057\u304b\u3082": 2421,
  "\u2581meneer": 2422,
  "\u2581diep": 2423,
  "\u2581kiezen": 2424,
  "\u2581\u4e8b\u614b": 2425,
  "\u2581\u30a8\u30ec\u30df\u30e4": 2426,
  "\u2581telefoon": 2427,
  "\u3059\u3079\u3066": 2428,
  "\u2581gebeden": 2429,
  "\u2581\u5f0f": 2430,
  "\u2581bewust": 2431,
  "\u2581\u6a29\u5a01": 2432,
  "\u5ea6": 2433,
  "\u2581gedoopt": 2434,
  "\u2581\u6804\u5149": 2435,
  "\u2581Kerk": 2436,
  "\u3089\u308c\u305f": 2437,
  "ter": 2438,
  "\u2581\u30de": 2439,
  "\u2581\u5897\u52a0": 2440,
  "\u2581\u8a18\u3055": 2441,
  "\u2581mate": 2442,
  "\u2581indruk": 2443,
  "\u2581congres": 2444,
  "\u2581\u5148": 2445,
  "\u2581ziekenhuis": 2446,
  "\u30e9\u30fc": 2447,
  "\u2581\u7f8a": 2448,
  "\u2581goddelijke": 2449,
  "\u2581\u611b\u3057": 2450,
  "\u2581Getuige": 2451,
  "\u2581\u5c0b\u306d": 2452,
  "\u2581stellig": 2453,
  "\u306e\u3067": 2454,
  "\u2581goddeloze": 2455,
  "\u258137": 2456,
  "\u2581\u767a\u898b": 2457,
  "\u2581\u81f3\u308b": 2458,
  "\u305f\u3081\u306b": 2459,
  "\u2581\u5b66\u3076": 2460,
  "\u2581\u75c5": 2461,
  "\u2581ontwikkelen": 2462,
  "\u2581alsjeblieft": 2463,
  "\u2581\u4eba\u3073\u3068": 2464,
  "\u2581\u5165\u3063": 2465,
  "\u3060\u304b\u3089": 2466,
  "\u2581\u9a5a\u304f": 2467,
  "\u2581eer": 2468,
  "\u2581gebeurtenissen": 2469,
  "\u2581\u30aa": 2470,
  "\u2581\u8a00\u3048\u308b": 2471,
  "\u2581\u91cf": 2472,
  "\u8272": 2473,
  "\u2581\u53cb\u9054": 2474,
  "\u2581\u4f1a": 2475,
  "\u2581\u6a21\u7bc4": 2476,
  "\u2581\u591c": 2477,
  "na": 2478,
  "\u2581wakker": 2479,
  "\u2581Echt": 2480,
  "\u2581Lukas": 2481,
  "\u2581\u535a\u58eb": 2482,
  "\u2581ok\u00e9": 2483,
  "\u3055\u308c": 2484,
  "\u2581Abraham": 2485,
  "\u2581beschouwen": 2486,
  "\u2581persoonlijk": 2487,
  "\u2581\u547d\u4ee4": 2488,
  "\u305d\u308c\u306f": 2489,
  "\u2581verandering": 2490,
  "\u5148": 2491,
  "\u2581voldoende": 2492,
  "\u2581schapen": 2493,
  "\u2581drugs": 2494,
  "\u2581dollar": 2495,
  "\u2581redenen": 2496,
  "\u2581behoren": 2497,
  "\u2581kopen": 2498,
  "\u2581vraagt": 2499,
  "\u2581\u8056": 2500,
  "\u2581hoogte": 2501,
  "\u2581schepping": 2502,
  "\u7528": 2503,
  "\u2581\u5e38": 2504,
  "\u2581\u8272": 2505,
  "werk": 2506,
  "\u2581slotte": 2507,
  "\u2581steden": 2508,
  "\u2581\u307e": 2509,
  "\u2581verklaarde": 2510,
  "\u2581\u3042\u306a\u305f\u304c\u305f": 2511,
  "\u2581k": 2512,
  "ne": 2513,
  "\u305c": 2514,
  "\u2581Romeinen": 2515,
  "\u2581wegen": 2516,
  "\u2581\u30b8\u30e7\u30f3": 2517,
  "\u3055\u305b\u308b": 2518,
  "\u3058": 2519,
  "eerde": 2520,
  "ul": 2521,
  "\u2581voel": 2522,
  "\u2581vandaan": 2523,
  "\u2581\u306a\u305c\u306a\u3089": 2524,
  "\u2581\u97f3\u697d": 2525,
  "\u2581katholieke": 2526,
  "\u4e3b": 2527,
  "\u2581verliezen": 2528,
  "\u2581\u7591\u554f": 2529,
  "\u2581uitdrukking": 2530,
  "\u2581bezien": 2531,
  "\u2581paradijs": 2532,
  "\u2581allerlei": 2533,
  "\u5f8c": 2534,
  "\u2581\u97f3\u4fe1": 2535,
  "\u2581\u3042": 2536,
  "\u2581bezitten": 2537,
  "\u2581verwachten": 2538,
  "\u2581probeerde": 2539,
  "\u2581\u3042\u307e\u308a": 2540,
  "\u2581\u73fe\u5b9f": 2541,
  "\u2581stelde": 2542,
  "\u2581systeem": 2543,
  "\u2581berg": 2544,
  "\u2581gevraagd": 2545,
  "\u2581vanwege": 2546,
  "\u2581\u56fd\u5bb6": 2547,
  "\u2581beslissing": 2548,
  "\u2581standpunt": 2549,
  "\u2581leerde": 2550,
  "\u2581\u74b0\u5883": 2551,
  "\u2022": 2552,
  "\u2581\u305d\u308c\u305e\u308c": 2553,
  "\u2581\u3054": 2554,
  "\u2581krijg": 2555,
  "\u2581\u732e\u8eab": 2556,
  "\u2581\u66f8\u304b": 2557,
  "sch": 2558,
  "\u2581\u7686\u3055\u3093": 2559,
  "\u2581veroorzaakt": 2560,
  "\u2581hetgeen": 2561,
  "len": 2562,
  "\u2581\u7269\u4e8b": 2563,
  "\u3060\u3063\u3066": 2564,
  "\u2581leger": 2565,
  "\u2581\u5168\u54e1": 2566,
  "ven": 2567,
  "\u2581bereikt": 2568,
  "\u2581\u795e\u6bbf": 2569,
  "\u2581boom": 2570,
  "\u2581Sorry": 2571,
  "\u2581Wees": 2572,
  "\u2581\u307e\u305f\u306f": 2573,
  "\u2581veranderingen": 2574,
  "\u2581engelen": 2575,
  "\u2581\u8056\u970a": 2576,
  "\u65b0\u3057\u3044": 2577,
  "\u2581Europa": 2578,
  "\u30b4": 2579,
  "\u2581\u5fe0\u7bc0": 2580,
  "atie": 2581,
  "\u2581\u899a\u3048": 2582,
  "\u2581stelt": 2583,
  "\u2581bevolking": 2584,
  "\u2581verhouding": 2585,
  "\u2581\u5fc3\u914d": 2586,
  "\u2581\u4ee5\u6765": 2587,
  "\u2581\u82e6\u3057\u307f": 2588,
  "\u3050": 2589,
  "\u2581\u7528": 2590,
  "\u2581\u4f55\u3082": 2591,
  "\u2581pakken": 2592,
  "\u2581zonden": 2593,
  "\u2581\u5f93\u3063": 2594,
  "\u2581lijst": 2595,
  "\u2581voortdurend": 2596,
  "\u2581wetten": 2597,
  "\u5316": 2598,
  "\u2581bezoek": 2599,
  "\u8003\u3048": 2600,
  "\u30dc": 2601,
  "ed": 2602,
  "\u30cb\u30fc": 2603,
  "\u2581\u826f\u5fc3": 2604,
  "\u2581\u975e": 2605,
  "\u3059\u308b\u3068": 2606,
  "\u2581\u904b\u52d5": 2607,
  "\u2581\u76ee\u6a19": 2608,
  "\u5f7c\u306f": 2609,
  "\u25811,2": 2610,
  "\u2581zijde": 2611,
  "20": 2612,
  "9": 2613,
  "\u2581\u3054\u81ea\u8eab": 2614,
  "\u2581reis": 2615,
  "nen": 2616,
  "\u2581vermogen": 2617,
  "\u2581\u751f\u7269": 2618,
  "\u2581beschouwd": 2619,
  "\u2581ondanks": 2620,
  "\u2581\u5b66\u3093": 2621,
  "\u4eba\u304c": 2622,
  "\u2581rechtvaardige": 2623,
  "\u2581resultaat": 2624,
  "\u258134": 2625,
  "\u30b6": 2626,
  "\u2581merkte": 2627,
  "\u2581morgen": 2628,
  "\u2581\u4e00\u756a": 2629,
  "\u2581\u4fe1\u8005": 2630,
  "\u2581\u8003\u616e": 2631,
  "\u2581legde": 2632,
  "\u2581erover": 2633,
  "\u2581kop": 2634,
  "\u2581\u592a\u967d": 2635,
  "\u2581\u5c0f": 2636,
  "\u2581behoefte": 2637,
  "\u304b\u3082": 2638,
  "\u2581seksuele": 2639,
  "\u2581\u3086\u304d": 2640,
  "\u2581200": 2641,
  "\u2581\u4ee3": 2642,
  "\u2581\u8133": 2643,
  "\u3060\u304c": 2644,
  "\u2581korte": 2645,
  "\u2581wapen": 2646,
  "\u2581gewoonlijk": 2647,
  "\u30bb": 2648,
  "\u2581computer": 2649,
  "\u2581\u30af\u30ec\u30b8\u30c3": 2650,
  "\u2581liefhebben": 2651,
  "\u7dda": 2652,
  "\u2581\u7279\u8cea": 2653,
  "\u2581liefdevolle": 2654,
  "\u9577": 2655,
  "\u2581\u30e9": 2656,
  "\u3073": 2657,
  "\u2581\u3070\u304b\u308a": 2658,
  "\u2581stil": 2659,
  "\u2581\u6700\u9ad8": 2660,
  "\u65b0": 2661,
  "\u8a9e": 2662,
  "\u2581gedood": 2663,
  "\u2581eenheid": 2664,
  "\u2581\u6210\u9577": 2665,
  "\u2581wetenschap": 2666,
  "\u2581richting": 2667,
  "\u2581eerlijk": 2668,
  "\u2581o": 2669,
  "\u2581\u5834": 2670,
  "\u2581angst": 2671,
  "\u306b\u3042\u308b": 2672,
  "\u2581ken": 2673,
  "EN": 2674,
  "\u304e": 2675,
  "\u611b": 2676,
  "\u2581zijt": 2677,
  "\u2581zagen": 2678,
  "\u2581Babylon": 2679,
  "\u2581ziek": 2680,
  "\u2581maakten": 2681,
  "\u2581\u304f\u308b": 2682,
  "at": 2683,
  "\u2581\u5357": 2684,
  "\u306b\u306a\u3063\u305f": 2685,
  "\u2581loop": 2686,
  "\u2581medische": 2687,
  "\u2581\u76f4\u9762": 2688,
  "\u3082\u3046": 2689,
  "\u2581redding": 2690,
  "\u2581\u958b\u304b": 2691,
  "\u2581onderricht": 2692,
  "\u2581steun": 2693,
  "\u2581besluit": 2694,
  "\u2581\u30fc": 2695,
  "\u9762": 2696,
  "af": 2697,
  "\u2581beseffen": 2698,
  "\u2581jong": 2699,
  "\u2581talen": 2700,
  "\u2581joodse": 2701,
  "\u6b7b": 2702,
  "\u2581Koning": 2703,
  "\u2581olie": 2704,
  "\u2581risico": 2705,
  "\u2581\u5e74\u4ee3": 2706,
  "\u2581gegaan": 2707,
  "\u2581totaal": 2708,
  "\u2581\u3082\u306e\u307f\u306e\u5854": 2709,
  "\u2581\u52b9\u679c": 2710,
  "\u2581kosten": 2711,
  "\u2581\u8056\u53e5": 2712,
  "\u2581\u305f\u3068\u3048": 2713,
  "\u51fa\u3057": 2714,
  "\u2581\u97f3": 2715,
  "lo": 2716,
  "\u2581\u5bfe\u51e6": 2717,
  "\u2581\u9854": 2718,
  "\u2581\u6b63\u76f4": 2719,
  "\u2581>": 2720,
  "\u2581ontstaan": 2721,
  "\u2581Was": 2722,
  "\u2581verschaft": 2723,
  "\u2581leert": 2724,
  "\u2581uitwerking": 2725,
  "\u2581\u969c\u5bb3": 2726,
  "\u2581gewone": 2727,
  "\u2581teken": 2728,
  "\u2581\u30a2\u30d6\u30e9\u30cf\u30e0": 2729,
  "\u2581gemeenten": 2730,
  "\u2581gestorven": 2731,
  "\u2581Stel": 2732,
  "\u2581\u6280\u8853": 2733,
  "\u2581behandeling": 2734,
  "\u2581noodzakelijk": 2735,
  "\u2581Haar": 2736,
  "\u30c9\u30eb": 2737,
  "\u2581bepaald": 2738,
  "\u308f\u306d": 2739,
  "ra": 2740,
  "\u2581vormt": 2741,
  "\u2581\u9ce5": 2742,
  "\u2581gebaseerd": 2743,
  "\u2581stierf": 2744,
  "\u2581\u8089": 2745,
  "\u2581\u9ebb\u85ac": 2746,
  "\u2581zegen": 2747,
  "\u2581lief": 2748,
  "\u2581spel": 2749,
  "\u2581aanvaarden": 2750,
  "\u2581normaal": 2751,
  "\u2581\u653b\u6483": 2752,
  "\u4e16\u754c": 2753,
  "\u2581straat": 2754,
  "\u2581\u8868\u73fe": 2755,
  "\u2581iedere": 2756,
  "\u2581voeren": 2757,
  "\u2581artikelen": 2758,
  "\u3044\u3066": 2759,
  "\u2581\u5c02\u9580": 2760,
  "\u2581herinneren": 2761,
  "\u2581\u4e3b\u5f35": 2762,
  "\u2581hoor": 2763,
  "\u53e3": 2764,
  "\u2581onderzoeken": 2765,
  "\u2581\u75c7": 2766,
  "\u2581zwaar": 2767,
  "\u2581\u305d\u3046\u3044\u3046": 2768,
  "\u2581geleid": 2769,
  "\u2581geregeld": 2770,
  "\u2581\u2212": 2771,
  "\u2581\u96d1\u8a8c": 2772,
  "\u2581geboorte": 2773,
  "\u2581\u305d\u3046\u3060": 2774,
  "\u2581\u507d\u308a": 2775,
  "21:": 2776,
  "\u2581hoort": 2777,
  "\u2581prediking": 2778,
  "\u2581\u8a69": 2779,
  "\u2581onmiddellijk": 2780,
  "\u2581\u3082\u306f\u3084": 2781,
  "ik": 2782,
  "\u2581voorbeelden": 2783,
  "\u2581\u75c5\u9662": 2784,
  "\u2581Job": 2785,
  "\u2581\u98df\u4e8b": 2786,
  "\u2581slapen": 2787,
  "\u2581\u8feb\u5bb3": 2788,
  "\u2581\u901a\u308a": 2789,
  "\u5973": 2790,
  "\u2581krant": 2791,
  "\u2581\u5199\u771f": 2792,
  "\u70b9": 2793,
  "\u2581vertegenwoordig": 2794,
  "\u2581schade": 2795,
  "\u2581volgt": 2796,
  "ton": 2797,
  "\u2581\u4ffa": 2798,
  "\u3060\u3051\u3060": 2799,
  "\u2581\u5411\u3051": 2800,
  "\u2581gered": 2801,
  "\u2581huizen": 2802,
  "\u2581god": 2803,
  "\u2581vermoorden": 2804,
  "\u30fb\u30fb": 2805,
  "\u2581\u6b4c": 2806,
  "\u2581\u304f\u308c\u308b": 2807,
  "\u2581\u3072\u3068\u308a": 2808,
  "\u2581\u4ed5\u3048\u308b": 2809,
  "\u2581\u5f53\u7136": 2810,
  "\u3052": 2811,
  "\u2581geboden": 2812,
  "\u2581slachtoffers": 2813,
  "\u2581\u6e96\u5099": 2814,
  "\u2581\u8981\u6c42": 2815,
  "\u2581\u4e3b\u8981": 2816,
  "\u2581zware": 2817,
  "\u2581\u656c\u610f": 2818,
  "\u2581half": 2819,
  "\u2581menselijk": 2820,
  "\u2581\u8aad\u307f": 2821,
  "\u2581leeft": 2822,
  "\u2581\u6319\u3052": 2823,
  "\u2581\u3082\u305f\u3089\u3057": 2824,
  "\u2581\u5c0e\u304d": 2825,
  "\u2581nuttig": 2826,
  "\u2581Mag": 2827,
  "\u2581omgang": 2828,
  "\u2581legt": 2829,
  "\u2581onderwijzen": 2830,
  "\u2581Luister": 2831,
  "\u2581\u5316": 2832,
  "\u2581schenken": 2833,
  "\u30d9": 2834,
  "\u2581\u7528\u3044\u308b": 2835,
  "it": 2836,
  "\u2581ervaren": 2837,
  "\u2581bescherming": 2838,
  "\u2581\u6cb9\u305d\u305d": 2839,
  "\u306a\u304f": 2840,
  "\u2581aardse": 2841,
  "\u2581dank": 2842,
  "\u2581keren": 2843,
  "\u7684\u306b": 2844,
  "\u2581begrijp": 2845,
  "\u305f\u3081": 2846,
  "\u3068\u304d": 2847,
  "\u2581Maria": 2848,
  "\u306f\u306a\u3044": 2849,
  "\u30e9\u30f3": 2850,
  "Wat": 2851,
  "\u2581IN": 2852,
  "et": 2853,
  "\u30e4": 2854,
  "ga": 2855,
  "\u2581moord": 2856,
  "\u2581\u56f2\u307f": 2857,
  "\u6708": 2858,
  "\u2581FBI": 2859,
  "\u2581\u5927\u304d\u304f": 2860,
  "\u2581\u5b66\u3073": 2861,
  "@": 2862,
  "\u2581passen": 2863,
  "\u2581\u6170\u3081": 2864,
  "\u4e8b\u7269": 2865,
  "\u53d6\u308a": 2866,
  "\u2581oudere": 2867,
  "\u2581Welk": 2868,
  "\u2581afstand": 2869,
  "\u25812.": 2870,
  "\u2581\u4e88\u544a": 2871,
  "\u51fa\u3059": 2872,
  "\u3057\u3066\u3044\u305f": 2873,
  "\u79c1\u304c": 2874,
  "\u2581verschil": 2875,
  "il": 2876,
  "\u2581begrip": 2877,
  "\u2581\u3057\u3063\u304b\u308a": 2878,
  "\u2581\u53d6\u308b": 2879,
  "\u2581autoriteit": 2880,
  "\u2581betere": 2881,
  "\u2581verklaart": 2882,
  "\u554f\u984c": 2883,
  "50": 2884,
  "\u2581\u4f3c": 2885,
  "\u2581\u690d\u7269": 2886,
  "\u2581toestand": 2887,
  "\u2581vonden": 2888,
  "\u2581\u30d0\u30d3\u30ed\u30f3": 2889,
  "\u3082\u306e\u307f\u306e\u5854": 2890,
  "\u2581\u5951\u7d04": 2891,
  "\u2581oplossing": 2892,
  "\u2581\u3042\u3089": 2893,
  "\u2581\u8ce2\u660e": 2894,
  "\u2581Duitsland": 2895,
  "\u2581Tijdens": 2896,
  "\u3067\u304d\u306a\u3044": 2897,
  "\u2581\u3082\u3057\u304f\u306f": 2898,
  "\u2581onderwerp": 2899,
  "\u304b\u3082\u3057\u308c\u306a\u3044": 2900,
  "\u2581partner": 2901,
  "\u2581schitterende": 2902,
  "\u2581\u5f37\u304f": 2903,
  "\u2581handelen": 2904,
  "\u2581\u516c": 2905,
  "\u4e8b\u3092": 2906,
  "\u2581\u50be\u5411": 2907,
  "\u672c\u5f53\u306b": 2908,
  "\u2581\u8c4a\u304b": 2909,
  "\u2581\u305d\u306e\u4ed6": 2910,
  "\u2581\u6642\u671f": 2911,
  "\u5834": 2912,
  "\u2581reageren": 2913,
  "\u2581\u5074": 2914,
  "\u2581naast": 2915,
  "\u2581\u7d9a\u3051\u308b": 2916,
  "lijk": 2917,
  "\u2581\u3057\u307e\u3063": 2918,
  "\u2581morele": 2919,
  "\u2581president": 2920,
  "\u2581Elke": 2921,
  "\u2581Later": 2922,
  "\u2581Nadat": 2923,
  "\u2581schijnt": 2924,
  "\u2581trots": 2925,
  "\u2581Hoeveel": 2926,
  "\u2581Velen": 2927,
  "\u2581\u85ac": 2928,
  "eert": 2929,
  "\u2581verbonden": 2930,
  "\u2581taak": 2931,
  "\u2581x": 2932,
  "\u8a00\u3063\u305f": 2933,
  "\u2581\u3075\u3055\u308f\u3057\u3044": 2934,
  "\u2581\u5229\u7528": 2935,
  "as": 2936,
  "\u2581\u3064\u3064": 2937,
  "do": 2938,
  "\u2581vroeger": 2939,
  "\u2581\u90e8": 2940,
  "\u2581\u8a3c\u8a00": 2941,
  "\u2581\u3068\u3053\u308d\u304c": 2942,
  "\u30d1": 2943,
  "\u2581natuurlijke": 2944,
  "\u2581prachtige": 2945,
  "\u2581\u9577": 2946,
  "\u2581HET": 2947,
  "\u2581planten": 2948,
  "\u2581\u30a8\u30b8\u30d7\u30c8": 2949,
  "\u2581dokter": 2950,
  "\u2581eiland": 2951,
  "\u2581\u5927\u4e08\u592b": 2952,
  "\u2581Salomo": 2953,
  "\u2581hedendaagse": 2954,
  "\u25814.": 2955,
  "\u2581gesprek": 2956,
  "\u258136": 2957,
  "\u2581meisjes": 2958,
  "\u306a\u3044\u3068": 2959,
  "\u2581helft": 2960,
  "\u3053\u3068\u304c": 2961,
  "\u4eba\u9593": 2962,
  "\u2581\u3064": 2963,
  "\u2581\u3055\u3066": 2964,
  "\u2581Vergelijk": 2965,
  "\u2581hoofdstuk": 2966,
  "\u304c\u3042\u3063\u305f": 2967,
  "\u2581\u652f\u6301": 2968,
  "\u2581Alsjeblieft": 2969,
  "\u2581wonder": 2970,
  "\u2581\u30de\u30eb\u30b3": 2971,
  "\u2581\u559c\u3093": 2972,
  "\u2581Handelingen": 2973,
  "\u2581gebieden": 2974,
  "\u2581\u9032\u3093": 2975,
  "\u2581blijk": 2976,
  "\u5916": 2977,
  "\u2581\u7834\u58ca": 2978,
  "\u4f55\u304b": 2979,
  "\u4e0d": 2980,
  "\u2581makkelijk": 2981,
  "\u2581\u611f\u3058\u308b": 2982,
  "\u2581dankbaar": 2983,
  "\u2581\u521d\u671f": 2984,
  "\u2581Nieuwe": 2985,
  "\u2581c": 2986,
  "\u2581\u50cd\u304f": 2987,
  "\u2581stap": 2988,
  "\u2581Vervolgens": 2989,
  "\u2581\u7279\u6a29": 2990,
  "\u2581\u8a18\u8ff0": 2991,
  "\u2581omhoog": 2992,
  "\u2581\u9023\u308c": 2993,
  "\u2581Meer": 2994,
  "\u2581\u3068\u3082": 2995,
  "\u2581\u4f1a\u9928": 2996,
  "\u4e07": 2997,
  "\u2581\u7acb\u3061": 2998,
  "\u30e2": 2999,
  "\u2581leek": 3000,
  "\u2581\u88c1\u5224": 3001,
  "\u2581\u796d\u53f8": 3002,
  "\u305d\u3057\u3066": 3003,
  "\u2581\u4f7f\u3046": 3004,
  "\u2581Gaat": 3005,
  "\u2581activiteiten": 3006,
  "um": 3007,
  "\u2581\u62e1\u5927": 3008,
  "\u2581Re": 3009,
  "\u2581behoeften": 3010,
  "\u2581gemeenschap": 3011,
  "\u2581opleiding": 3012,
  "\u258190": 3013,
  "\u2581\u307f\u308b": 3014,
  "\u2581\u3054\u610f\u5fd7": 3015,
  "\u541b": 3016,
  "\u2581moeilijkheden": 3017,
  "\u2581onmogelijk": 3018,
  "\u2581\u3058\u3083\u3042": 3019,
  "\u2581\u8a31\u3057": 3020,
  "\u8a71": 3021,
  "\u2581bevat": 3022,
  "\u2581Wereldoorlog": 3023,
  "\u2581\u307e\u307e": 3024,
  "\u2581\u53d6\u3063": 3025,
  "\u2581Daarna": 3026,
  "\u2581last": 3027,
  "\u2581\u3053\u3053\u306b": 3028,
  "\u2581eveneens": 3029,
  "\u306e\u3088\u3046\u306a": 3030,
  "\u2581\u7f8e\u3057\u3044": 3031,
  "\u2581natuur": 3032,
  "\u2581\u6301\u3061": 3033,
  "\u2581extra": 3034,
  "\u2581kleur": 3035,
  "\u2581vijanden": 3036,
  "\u2581verstandig": 3037,
  "\u2581\u5f93\u9806": 3038,
  "bare": 3039,
  "\u2581gebouw": 3040,
  "\u2581overtuigd": 3041,
  "\u2581\u8ab0\u304b": 3042,
  "\u2581\u51fa\u3057": 3043,
  "\u2581aanbidders": 3044,
  "\u2581eigenschappen": 3045,
  "\u2581zonen": 3046,
  "\u2581\u65b0\u305f": 3047,
  "\u2581verstand": 3048,
  "\u2581slaap": 3049,
  "\u2581\u3055\u305b\u308b": 3050,
  "\u2581sterke": 3051,
  "\u2581\u4e16\u8a71": 3052,
  "\u2581vernietiging": 3053,
  "\u2581voorrecht": 3054,
  "\u60aa": 3055,
  "th": 3056,
  "\u2581\u53c2\u52a0": 3057,
  "\u2581Noach": 3058,
  "\u2581\u6700\u5927": 3059,
  "\u2581\u7c21\u5358": 3060,
  "\u258180": 3061,
  "\u2581\u30d1\u30d1": 3062,
  "ja": 3063,
  "\u2581\u5341": 3064,
  "\u2581verscheidene": 3065,
  "\u2581\u8a8d\u8b58": 3066,
  "\u2581re": 3067,
  "\u2581\u516c\u6b63": 3068,
  "\u2581miljard": 3069,
  "\u2581\u304a\u524d\u306e": 3070,
  "\u2581\u751f\u304d\u308b": 3071,
  "\u2581\u30b9\u30da\u30a4\u30f3": 3072,
  "\u2581meestal": 3073,
  "\u2581agent": 3074,
  "\u2581\u512a\u308c": 3075,
  "\u2581\u8ab0\u3082": 3076,
  "\u2581werkte": 3077,
  "van": 3078,
  "to": 3079,
  "\u2581leiders": 3080,
  "\u3067\u3059\u304c": 3081,
  "\u2581\u30cf": 3082,
  "\u2581\u6b8b\u308a": 3083,
  "\u2581\u71b1\u5fc3": 3084,
  "\u2581betekenen": 3085,
  "\u2581Dani\u00ebl": 3086,
  "\u2581Kader": 3087,
  "\u2581\u3069\u3061\u3089": 3088,
  "\u2581kleding": 3089,
  "\u2581gezalfde": 3090,
  "\u2581Te": 3091,
  "\u2581\u60f3\u50cf": 3092,
  "\u8005\u306f": 3093,
  "\u2581\u30ce\u30a2": 3094,
  "\u2581\u30e6\u30c0": 3095,
  "\u258123:": 3096,
  "\u2581stonden": 3097,
  "\u2581\u30de\u30de": 3098,
  "\u2581\u96e3\u3057\u3044": 3099,
  "\u2581gelezen": 3100,
  "\u2581\u5b9a\u671f": 3101,
  "\u2581\u304b\u304b\u308f\u3089": 3102,
  "\u2581zet": 3103,
  "\u2581\u59cb\u307e\u308a": 3104,
  "\u2581lag": 3105,
  "\u2581probeer": 3106,
  "\u2581\u6b7b\u8005": 3107,
  "\u2581\u5f15\u304d": 3108,
  "\u2581team": 3109,
  "\u2581\u4f7f\u308f": 3110,
  "\u3042": 3111,
  "\u2581interessant": 3112,
  "\u3060\u308f": 3113,
  "\u30b1": 3114,
  "\u2581\u307f\u4f7f\u3044": 3115,
  "\u3066\u3044\u305f": 3116,
  "\u2581\u3069\u3046\u3084\u3063\u3066": 3117,
  "\u2581\u500d": 3118,
  "\u2581Illustraties": 3119,
  "\u2581\u7ffb\u8a33": 3120,
  "\u30c8\u30f3": 3121,
  "\u2581beschikbaar": 3122,
  "\u8eab": 3123,
  "pen": 3124,
  "\u2581\u970a\u611f": 3125,
  "\u2581toont": 3126,
  "\u2581the": 3127,
  "\u2581aanwezig": 3128,
  "\u2581waarschuwing": 3129,
  "\u2581\u307f\u5b50": 3130,
  "\u2581werkelijke": 3131,
  "\u305d\u3046\u3060": 3132,
  "\u2581loopt": 3133,
  "\u2581vers": 3134,
  "\u2581\u308f\u304b\u3063\u305f": 3135,
  "\u2581zegeningen": 3136,
  "\u2581\u95a2\u9023": 3137,
  "\u2581persoonlijkheid": 3138,
  "\u2581\u610f\u898b": 3139,
  "\u3057\u305f\u3044": 3140,
  "\u2581Kun": 3141,
  "\u2581mezelf": 3142,
  "\u2581\u5a66\u4eba": 3143,
  "\u2581Bijbelse": 3144,
  "\u2581oorzaak": 3145,
  "\u2581\u53cb": 3146,
  "\u3060\u305e": 3147,
  "\u2581\u4f59\u308a": 3148,
  "\u2581Jeremia": 3149,
  "\u308f\u305f\u3057\u305f\u3061": 3150,
  "\u2581\u5143": 3151,
  "\u2581\u305d\u3046\u3059\u308c\u3070": 3152,
  "\u2581voortreffelijke": 3153,
  "\u2581bedrijf": 3154,
  "\u2581geheim": 3155,
  "\u2581kerken": 3156,
  "\u2581schrijft": 3157,
  "\u2581Hebreeuwse": 3158,
  "\u2581\u306f\u308b\u304b": 3159,
  "\u3057\u3044": 3160,
  "\u2581EEN": 3161,
  "\u25810": 3162,
  "\u2581Hebree\u00ebn": 3163,
  "\u2581\u6012\u308a": 3164,
  "\u2581eenmaal": 3165,
  "\u2581\u7a0b\u5ea6": 3166,
  "\u2581Moet": 3167,
  "\u2581schip": 3168,
  "\u2581gericht": 3169,
  "\u2581word": 3170,
  "\u3082\u3057": 3171,
  "\u3088\u304f": 3172,
  "\u2581openbare": 3173,
  "\u2581twijfel": 3174,
  "\u2581\u3064\u3051": 3175,
  "\u2581\u6226\u3044": 3176,
  "\u8fbc\u307f": 3177,
  "\u2581geschapen": 3178,
  "\u2581ontdekt": 3179,
  "\u2581\u8ecd": 3180,
  "\u69d8": 3181,
  "\u2581\u8a3c\u660e": 3182,
  "of": 3183,
  "\u2581film": 3184,
  "\u2581\u4ed5\u3048": 3185,
  "\u2581Genesis": 3186,
  "\u2581Egypte": 3187,
  "\u2581heerlijkheid": 3188,
  "\u2581\u305d\u308c\u306b": 3189,
  "\u2581volledige": 3190,
  "\u3092\u898b\u3066": 3191,
  "\u2581\u30ec": 3192,
  "\u3044\u306a\u3044": 3193,
  "\u2581\u3055\u3055\u3052": 3194,
  "\u304b\u3044": 3195,
  "\u2581\u3046\u307e\u304f": 3196,
  "\u7537": 3197,
  "\u2581handelwijze": 3198,
  "\u2581reactie": 3199,
  "\u2581straf": 3200,
  "\u304f\u3060\u3055\u3044": 3201,
  "kg": 3202,
  "\u2581Tegen": 3203,
  "\u2581moderne": 3204,
  "\u2581\u3044\u308d\u3044\u308d": 3205,
  "\u2581Heel": 3206,
  "\u2581\u5831\u3044": 3207,
  "\u2581\u5909\u3048": 3208,
  "\u2581\u8868\u308f\u3057": 3209,
  "\u2581\u4eba\u53e3": 3210,
  "\u2581\u4efb\u547d": 3211,
  "\u2581\u9032\u6b69": 3212,
  "\u2581zuster": 3213,
  "\u2581\u6df1\u304f": 3214,
  "\u2581Zuid": 3215,
  "\u2581\u3055\u308c\u308b": 3216,
  "\u2581levende": 3217,
  "\u2581\u5ba3\u660e": 3218,
  "\u2581\u30a2\u30eb\u30b3\u30fc\u30eb": 3219,
  "\u2581Wel": 3220,
  "\u2581\u5317": 3221,
  "co": 3222,
  "\u2581Houd": 3223,
  "\u2581eeuwen": 3224,
  "\u2581\u4e2d\u56fd": 3225,
  "\u2581besloot": 3226,
  "\u2581zekere": 3227,
  "\u2581oudheid": 3228,
  "\u2581\u77f3": 3229,
  "\u304b\u3089\u3067\u3059": 3230,
  "\u2581aard": 3231,
  "\u2581twintig": 3232,
  "\u2581wapens": 3233,
  "\u4ed5\u4e8b": 3234,
  "verantwoordelijk": 3235,
  "\u2581wind": 3236,
  "\u30ca\u30fc": 3237,
  "\u2581wijzen": 3238,
  "\u2581omtrent": 3239,
  "\u3088\u308a\u3082": 3240,
  "grote": 3241,
  "\u2581les": 3242,
  "\u2581rug": 3243,
  "\u2581vroege": 3244,
  "\u2581\u5fc3\u81d3": 3245,
  "\u2581\u307f\u540d": 3246,
  "\u2581\u6559\u5f92": 3247,
  "\u2581\u30bd\u30ed\u30e2\u30f3": 3248,
  "\u3042\u306a\u305f\u306f": 3249,
  "\u2581wees": 3250,
  "\u7740": 3251,
  "\u2581rechter": 3252,
  "\u2581stof": 3253,
  "\u2581Japan": 3254,
  "\u2581\u30ea": 3255,
  "\u2581\u5bb9\u6613": 3256,
  "\u2581\u306a\u308c": 3257,
  "\u6642\u306b": 3258,
  "\u2581voordelen": 3259,
  "\u2581\u7d50\u8ad6": 3260,
  "\u2581dier": 3261,
  "\u2581mooie": 3262,
  "\u2581\u624b\u8853": 3263,
  "\u2581\u306c": 3264,
  "\u2581\u56fd\u3005": 3265,
  "\u2581schat": 3266,
  "\u2581\u3057\u3070\u3057\u3070": 3267,
  "\u9593": 3268,
  "\u2581\u5927\u6226": 3269,
  "\u2581On": 3270,
  "\u2581controle": 3271,
  "\u2581verwijderen": 3272,
  "\u2581\u57fa\u3065\u3044": 3273,
  "\u2581\u898b\u3048\u308b": 3274,
  "\u2581\u8c61\u5fb4": 3275,
  "\u2581seks": 3276,
  "\u2581winnen": 3277,
  "\u3042\u306a\u305f\u306e": 3278,
  "\u2581\u5411\u304b\u3063": 3279,
  "\u3092\u898b": 3280,
  "\u8fbc\u3080": 3281,
  "\u2581dr": 3282,
  "\u2581slaaf": 3283,
  "\u2581voornaamste": 3284,
  "\u306b\u3044\u308b": 3285,
  "\u2581resultaten": 3286,
  "\u2581\u9055\u3044\u3042\u308a": 3287,
  "\u2581verdrukking": 3288,
  "\u2581\u6c7a\u610f": 3289,
  "\u2581\u7d71\u6cbb": 3290,
  "\u2581\u88c1\u304d": 3291,
  "\u2581\u9650\u308a": 3292,
  "\u305d\u308c\u3092": 3293,
  "\u2581erger": 3294,
  "\u2581gebrek": 3295,
  "\u2581krachtige": 3296,
  "\u2581\u305f\u3070\u3053": 3297,
  "\u3053\u3046": 3298,
  "\u2581vis": 3299,
  "\u2581sta": 3300,
  "\u2581\u8ad6": 3301,
  "\u3067\u306f\u3042\u308a\u307e\u305b\u3093": 3302,
  "\u2581zekerheid": 3303,
  "\u2581\u5927\u62b5": 3304,
  "\u2581toepassing": 3305,
  "\u306b\u306a\u308a\u307e\u3059": 3306,
  "\u2581priesters": 3307,
  "\u305b\u308b": 3308,
  "\u2581onszelf": 3309,
  "\u2581\u4f1a\u793e": 3310,
  "\u66f8": 3311,
  "\u2581\u304d\u3063\u3068": 3312,
  "\u2581\u5f79\u5272": 3313,
  "\u30ea\u30a2": 3314,
  "\u2581geraakt": 3315,
  "\u2581\u8eab\u4f53": 3316,
  "\u2581\u4e3b\u4eba": 3317,
  "ha": 3318,
  "\u2581feiten": 3319,
  "\u2581heerschappij": 3320,
  "\u2581verbond": 3321,
  "\u2581gevaarlijk": 3322,
  "\u2581meteen": 3323,
  "\u2581\u30b5": 3324,
  "\u2581\u30e1": 3325,
  "\u2581veld": 3326,
  "\u2581hemelen": 3327,
  "\u2581hiervan": 3328,
  "\u2581bomen": 3329,
  "\u2581hersenen": 3330,
  "\u2581\u65b0\u805e": 3331,
  "\u2581\u8981\u7d20": 3332,
  "\u2581\u4f55\u3092": 3333,
  "\u30ab\u30fc": 3334,
  "\u2581\u751f\u304d\u65b9": 3335,
  "\u2581bewaren": 3336,
  "\u2581sleutel": 3337,
  "\u2581\u53d6\u308a\u4e0a\u3052": 3338,
  "\u2581\u521d\u3081": 3339,
  "la": 3340,
  "\u00e9": 3341,
  "\u2581iemands": 3342,
  "\u2581\u5927\u3044\u306b": 3343,
  "\u2581\u7d30\u80de": 3344,
  "gen": 3345,
  "\u2581hoeveelheid": 3346,
  "\u2581honderd": 3347,
  "\u2581keuze": 3348,
  "\u2581\u7acb\u3066": 3349,
  "ine": 3350,
  "\u3057\u304b": 3351,
  "\u2581\u5b98": 3352,
  "\u2581arm": 3353,
  "\u2581bemiddeling": 3354,
  "\u2581\u30de\u30ea\u30a2": 3355,
  "\u2581\u91cd\u5927": 3356,
  "\u30cf": 3357,
  "\u2581\u5206\u304b\u308b": 3358,
  "\u3055\u308c\u3066\u3044\u308b": 3359,
  "\u307e\u3057\u3087\u3046": 3360,
  "\u5834\u5408": 3361,
  "\u2581Ra": 3362,
  "\u2581middelen": 3363,
  "\u2581internationale": 3364,
  "\u2581\u9078\u629e": 3365,
  "\u2581\u3044\u305a\u308c": 3366,
  "\u2581\u8aad\u8005": 3367,
  "men": 3368,
  "\u2581\u305d\u308c\u3092": 3369,
  "\u2581\u304b\u306a\u3063": 3370,
  "\u2581\u90e8\u5c4b": 3371,
  "\u2581negen": 3372,
  "\u2581misdaad": 3373,
  "\u2581\u30aa\u30fc\u30b9\u30c8\u30e9\u30ea\u30a2": 3374,
  "\u2581\u3053\u305d": 3375,
  "\u2581groeien": 3376,
  "\u2581mocht": 3377,
  "\u2581\u7279\u5b9a": 3378,
  "\u2581\u8840\u6db2": 3379,
  "\u2581\u3072": 3380,
  "\u2581aanbidden": 3381,
  "\u2581vechten": 3382,
  "\u2581\u53f8\u796d": 3383,
  "\u2581\u795e\u8056": 3384,
  "\u2581\u8ab0\u304c": 3385,
  "\u2581gang": 3386,
  "\u2581\u6307\u793a": 3387,
  "tie": 3388,
  "\u2581\u7d76\u3048": 3389,
  "\u2581\u798f\u97f3": 3390,
  "\u307f\u305f\u3044": 3391,
  "\u8eca": 3392,
  "\u2581\u30d1\u30f3": 3393,
  "\u2581\u5206\u304b\u3063": 3394,
  "\u2581jeugd": 3395,
  "\u2581wijn": 3396,
  "\u2581\u307e\u3042": 3397,
  "\u3053\u3068\u3067\u3059": 3398,
  "\u2581goud": 3399,
  "\u2581\u57fa\u672c": 3400,
  "\u5834\u6240": 3401,
  "\u2581gauw": 3402,
  "\u2581\u3064\u3044\u306b": 3403,
  "\u2581vriendelijk": 3404,
  "\u2581blijf": 3405,
  "\u2581\u81ea\u5df1": 3406,
  "\u2581twaalf": 3407,
  "aal": 3408,
  "\u2581\u5165\u308b": 3409,
  "\u2581\u7fa4\u8846": 3410,
  "\u2581Rome": 3411,
  "\u2581\u6cd5\u5f8b": 3412,
  "\u2581\u7fa4\u308c": 3413,
  "\u2581\u7d20\u6674\u3089\u3057\u3044": 3414,
  "\u2581ontwikkeling": 3415,
  "\u2581probeert": 3416,
  "30": 3417,
  "\u2581\u601d\u3048": 3418,
  "\u5f7c\u306e": 3419,
  "\u52d5": 3420,
  "\u2581\u6587\u66f8": 3421,
  "\u2581vergadering": 3422,
  "\u2581zienswijze": 3423,
  "\u304c\u306a\u3044": 3424,
  "\u2581vreemd": 3425,
  "\u2581\u767a\u884c": 3426,
  "\u2581300": 3427,
  "\u2581\u8ffd\u968f": 3428,
  "\u304c\u3044\u308b": 3429,
  "\u2581\u79c1\u3082": 3430,
  "\u2581Eva": 3431,
  "\u2581\u308f\u305f\u3063": 3432,
  "\u2581\u4f5c\u308b": 3433,
  "\u2581\u5efa\u8a2d": 3434,
  "\u2581getroffen": 3435,
  "\u2581video": 3436,
  "\u2581bewegen": 3437,
  "\u3057\u3066\u305f": 3438,
  "\u2581liep": 3439,
  "\u2581planeet": 3440,
  "\u2581\u305d\u308c\u304b\u3089": 3441,
  "\u2581Niets": 3442,
  "\u3066\u304f\u308c": 3443,
  "\u2581beelden": 3444,
  "\u2581verheugen": 3445,
  "\u2581\u597d\u304d": 3446,
  "\u2581La": 3447,
  "\u2581\u6bce\u5e74": 3448,
  "\u3057\u3088\u3046": 3449,
  "Een": 3450,
  "\u304f\u308c": 3451,
  "\u2581gezond": 3452,
  "\u2581\u5927\u5909": 3453,
  "\u2581\u6210\u54e1": 3454,
  "\u2581oprechte": 3455,
  "\u2581bezocht": 3456,
  "\u2581erbij": 3457,
  "\u3053\u3068\u306b": 3458,
  "\u2581daarvoor": 3459,
  "\u2581verschrikkelijk": 3460,
  "\u2581\u697d\u5712": 3461,
  "In": 3462,
  "land": 3463,
  "\u2581schuldig": 3464,
  "\u2581\u898f\u6e96": 3465,
  "\u3067\u3059\u306d": 3466,
  "\u2581\u907f\u3051\u308b": 3467,
  "\u2581Timothe\u00fcs": 3468,
  "\u2581honderden": 3469,
  "\u2581rijden": 3470,
  "\u2581sturen": 3471,
  "\u2581speciaal": 3472,
  "\u2581oorspronkelijke": 3473,
  "\u2581\u624b\u6bb5": 3474,
  "\u2581\u907f\u3051": 3475,
  "\u2581Noord": 3476,
  "\u30d5\u30a1\u30a4\u30eb": 3477,
  "\u2581VAN": 3478,
  "\u2581bevinden": 3479,
  "\u3064\u3051": 3480,
  "\u5bb6\u65cf": 3481,
  "\u2581viel": 3482,
  "\u2581\u5206\u304b\u3063\u305f": 3483,
  "\u2581gewoonte": 3484,
  "\u2581\u30c7": 3485,
  "\u2581moed": 3486,
  "\u2581honger": 3487,
  "\u2581\u304a\u304f": 3488,
  "\u2581\u82b1": 3489,
  "\u2581\u9858\u3044": 3490,
  "\u2581\u7570\u306a\u3063": 3491,
  "ca": 3492,
  "\u2581nummer": 3493,
  "\u2581\u51fa\u308b": 3494,
  "\u2581h\u00e8": 3495,
  "\u2581\u751f\u547d": 3496,
  "\u2581\u8cb4\u91cd": 3497,
  "\u2581proces": 3498,
  "\u2581trouwen": 3499,
  "\u25813.": 3500,
  "\u2581verklaring": 3501,
  "\u2581\u5f37\u529b": 3502,
  "\u258110.": 3503,
  "\u2581kunst": 3504,
  "\u2581\u9152": 3505,
  "\u30c3\u30c8": 3506,
  "\u5f62": 3507,
  "\u2581lid": 3508,
  "\u2581Romeinse": 3509,
  "\u2581gegevens": 3510,
  "\u2581\u5370\u5237": 3511,
  "\u2581\u756a": 3512,
  "\u2581\u96e2\u5a5a": 3513,
  "\u2581zus": 3514,
  "\u25813,": 3515,
  "\u2581goden": 3516,
  "\u2581\u306a\u3093\u3068": 3517,
  "\u2581\u30a4\u30f3\u30c9": 3518,
  "\u2581\u98a8": 3519,
  "\u2581\u304b\u304b\u3063": 3520,
  "\u6cd5": 3521,
  "\u258125:": 3522,
  "\u2581activiteit": 3523,
  "\u2581beschreven": 3524,
  "\u2581bouw": 3525,
  "\u2581\u6240\u6709": 3526,
  "\u2581\u7a7a": 3527,
  "\u2581plezier": 3528,
  "\u2581verricht": 3529,
  "ic": 3530,
  "\u2581tv": 3531,
  "\u2581\u3072\u3069\u3044": 3532,
  "\u2581\u5727\u529b": 3533,
  "me": 3534,
  "\u2581pati\u00ebnt": 3535,
  "\u2581\u652f\u3048": 3536,
  "\u2581\u9b5a": 3537,
  "\u2581Matth": 3538,
  "\u767a": 3539,
  "\u2581\u5f7c\u5973\u304c": 3540,
  "\u4e8b\u306f": 3541,
  "\u7121": 3542,
  "\u2581ongetwijfeld": 3543,
  "\u2581plannen": 3544,
  "\u2581voorstellen": 3545,
  "\u2581\u72af\u3057": 3546,
  "zo": 3547,
  "\u884c\u304f": 3548,
  "\u2581armen": 3549,
  "\u3076": 3550,
  "\u2581Ons": 3551,
  "\u2581Stop": 3552,
  "\u2581geluid": 3553,
  "\u2581\u898b\u3064\u3051": 3554,
  "\u25812000": 3555,
  "\u2581Ha": 3556,
  "\u2581cel": 3557,
  "\u2581\u5165\u308a": 3558,
  "\u30ed\u30fc": 3559,
  "\u2581rivier": 3560,
  "\u2581\u9ad8": 3561,
  "\u2581Hebben": 3562,
  "\u2581\u30a4\u30bf\u30ea\u30a2": 3563,
  "\u25aa": 3564,
  "\u2581praat": 3565,
  "\u2581\u6307\u6458": 3566,
  "\u2581\u306a\u3055": 3567,
  "\u2581\u50cd\u3044": 3568,
  "\u2581\u54c1": 3569,
  "no": 3570,
  "\u258143": 3571,
  "\u2581vervolging": 3572,
  "\u2581\u304a\u9858\u3044": 3573,
  "\u2581\u4eca\u306f": 3574,
  "\u2581\u30ab\u30ca\u30c0": 3575,
  "\u2581\u6551\u3044": 3576,
  "\u2581sluiten": 3577,
  "\u6a5f": 3578,
  "\u2581voeten": 3579,
  "\u307c": 3580,
  "\u2581gebod": 3581,
  "\u2581gebouwd": 3582,
  "\u2581\u9283": 3583,
  "per": 3584,
  "ren": 3585,
  "\u2581datgene": 3586,
  "\u2581beslissingen": 3587,
  "\u2581\u5730\u5143": 3588,
  "\u2581vroegere": 3589,
  "\u2581vogels": 3590,
  "\u2581\u305d\u308c\u3068\u3082": 3591,
  "\u2581\u6b69\u307f": 3592,
  "tijd": 3593,
  "\u2581\u306a\u3057": 3594,
  "\u2581\u30b5\u30e0\u30a8\u30eb": 3595,
  "\u2581\u8fd1\u3044": 3596,
  "als": 3597,
  "\u2581beweging": 3598,
  "\u2581\u30e1\u30b7\u30a2": 3599,
  "\u2581geslacht": 3600,
  "\u2581openbaar": 3601,
  "\u30e9\u30a4": 3602,
  "mo": 3603,
  "\u25815.": 3604,
  "\u2581kost": 3605,
  "\u2581volkomen": 3606,
  "\u54e1": 3607,
  "\u2581berouw": 3608,
  "\u2581\u4f8b\u3048": 3609,
  "\u2581leidde": 3610,
  "\u2581rekening": 3611,
  "\u306e\u4e2d\u3067": 3612,
  "\u30a4\u30f3": 3613,
  "\u8840": 3614,
  "\u2581roken": 3615,
  "\u3057\u304f": 3616,
  "\u2581ontmoeten": 3617,
  "\u2581\u805e\u304f": 3618,
  "\u2581\u56de\u5fa9": 3619,
  "\u2581\u5efa\u7269": 3620,
  "ta": 3621,
  "\u2581Zal": 3622,
  "\u2581technologie": 3623,
  "\u2581\u6e90": 3624,
  "\u2581\u4e8b\u6545": 3625,
  "\u2581raakte": 3626,
  "\u2581\u4ed6\u306e": 3627,
  "\u8db3": 3628,
  "\u2581Koninkrijkszaal": 3629,
  "voor": 3630,
  "\u2581vergelijken": 3631,
  "\u3088\u306d": 3632,
  "\u6d77": 3633,
  "\u2581bespreken": 3634,
  "\u2581trouw": 3635,
  "\u2581\u30d0": 3636,
  "\u2581\u4e8b\u4ef6": 3637,
  "\u5185": 3638,
  "\u2581doop": 3639,
  "\u2581ziekten": 3640,
  "\u98df": 3641,
  "\u2581\u30a8\u30bc\u30ad\u30a8\u30eb": 3642,
  "\u2581\u6d3e": 3643,
  "\u2581arts": 3644,
  "\u2581veiligheid": 3645,
  "\u2581\u5947\u8de1": 3646,
  "\u2581\u656c\u8654": 3647,
  "\u982d": 3648,
  "met": 3649,
  "\u5929": 3650,
  "\u2581\u9ad8\u304f": 3651,
  "\u3088\u3046\u306a": 3652,
  "Als": 3653,
  "\u2581besloten": 3654,
  "\u2581ge\u00efnspireerde": 3655,
  "\u2581enig": 3656,
  "\u2581regels": 3657,
  "begrip": 3658,
  "\u2581Sta": 3659,
  "\u2581gezinnen": 3660,
  "\u2581\u751f\u3058\u308b": 3661,
  "\u2581noemde": 3662,
  "\u2581\u5f85\u3063\u3066": 3663,
  "\u2581\u62b1\u304f": 3664,
  "\u2581\u6a29\u5229": 3665,
  "\u2581woont": 3666,
  "\u2581India": 3667,
  "\u2581rechts": 3668,
  "\u2581hoeven": 3669,
  "\u2581\u5927\u534a": 3670,
  "\u3084\u308b": 3671,
  "\u2581stel": 3672,
  "\u2581\u5f37\u8abf": 3673,
  "\u2581\u610f\u8b58": 3674,
  "id": 3675,
  "\u2581groei": 3676,
  "\u2581\u3075": 3677,
  "\u2581idee\u00ebn": 3678,
  "\u304b\u308c": 3679,
  "\u3069": 3680,
  "\u2581uzelf": 3681,
  "\u2581\u5c11\u5973": 3682,
  "\u2581\u544a\u3052": 3683,
  "\u2581\u98db\u884c": 3684,
  "\u2581\u5927\u3044\u306a\u308b": 3685,
  "\u2581daardoor": 3686,
  "\u2581levend": 3687,
  "\u2581vrucht": 3688,
  "\u2581brand": 3689,
  "da": 3690,
  "\u2581\u51fa\u30a8\u30b8\u30d7\u30c8": 3691,
  "\u2581\u53e4\u3044": 3692,
  "\u30ef": 3693,
  "\u2581X": 3694,
  "\u2581brood": 3695,
  "\u2581vervangen": 3696,
  "\u2581\u671f": 3697,
  "\u258138": 3698,
  "\u4f1a": 3699,
  "\u2581Jakobus": 3700,
  "\u2581aandeel": 3701,
  "\u2581gehoorzamen": 3702,
  "\u2581\u3059\u308b\u3068": 3703,
  "\u3092\u4f7f\u3063\u3066": 3704,
  "\u2581vliegtuig": 3705,
  "over": 3706,
  "\u306f\u305a\u3060": 3707,
  "\u2581wandelen": 3708,
  "\u2581bleven": 3709,
  "\u2581krachtig": 3710,
  "\u2581toekomstige": 3711,
  "\u2581\u751f\u5f92": 3712,
  "\u2581\u7a81\u7136": 3713,
  "\u2581blik": 3714,
  "\u2581mogelijkheid": 3715,
  "\u2581aanval": 3716,
  "\u2581moeilijke": 3717,
  "\u2581\u5922": 3718,
  "\u5927\u304d\u306a": 3719,
  "\u2581overleven": 3720,
  "\u2581tekenen": 3721,
  "\u2581universum": 3722,
  "\u2581\u6559\u8a13": 3723,
  "\u8239": 3724,
  "zen": 3725,
  "\u2581Wet": 3726,
  "\u2581diepe": 3727,
  "\u2581stappen": 3728,
  "\u706b": 3729,
  "\u306e\u4e2d\u306b": 3730,
  "\u2581baas": 3731,
  "\u2581rijkdom": 3732,
  "\u2581\u30d5\u30a3\u30ea\u30d4": 3733,
  "\u2581\u7f6e\u304b": 3734,
  "\u2581500": 3735,
  "\u2581\u5ba3\u3079\u4f1d\u3048": 3736,
  "\u2581\u8a18\u5ff5": 3737,
  "Y": 3738,
  "\u2581sociale": 3739,
  "\u2581\u30a2\u30eb": 3740,
  "\u2581\u8b19\u905c": 3741,
  "\u5f7c\u5973": 3742,
  "ry": 3743,
  "\u2581economische": 3744,
  "\u2581\u652f\u90e8": 3745,
  "\u2581blijken": 3746,
  "\u2581maal": 3747,
  "\u91cf": 3748,
  "\u2581voet": 3749,
  "\u6d41": 3750,
  "\u2581\u3053": 3751,
  "\u2581\u30a8\u30cd\u30eb\u30ae\u30fc": 3752,
  "\u2581behalve": 3753,
  "\u2581vrije": 3754,
  "\u2581vernietigd": 3755,
  "\u2581\u30ca": 3756,
  "\u2581\u52b1\u307e\u3057": 3757,
  "\u2581\u4f1d\u3048\u308b": 3758,
  "\u2581\u5148\u751f": 3759,
  "\u2581\u6e80\u3061": 3760,
  "\u2581bekijken": 3761,
  "\u307e\u3060": 3762,
  "\u3053\u3053\u306b": 3763,
  "ri": 3764,
  "\u2581t": 3765,
  "\u7d42\u308f\u308a": 3766,
  "\u2581lectuur": 3767,
  "\u306e\u304c": 3768,
  "\u2581rechtvaardig": 3769,
  "\u306a\u306e\u304b": 3770,
  "\u307e\u3057": 3771,
  "\u2581liever": 3772,
  "\u2581waaraan": 3773,
  "\u2581studenten": 3774,
  "\u5149": 3775,
  "\u2581getuige": 3776,
  "\u2581\u3057\u3070\u3089\u304f": 3777,
  "\u2581\u305f\u3044\u3066\u3044": 3778,
  "12": 3779,
  "\u2581kantoor": 3780,
  "\u2581opgedragen": 3781,
  "\u3067\u304d\u307e\u3059": 3782,
  "\u8a00\u3046": 3783,
  "\u2581geweldige": 3784,
  "\u2581veroorzaken": 3785,
  "\u2581vijand": 3786,
  "\u2581Drie": 3787,
  "\u62cd\u624b": 3788,
  "\u6765": 3789,
  "\u30de\u30fc": 3790,
  "\u2581maatstaven": 3791,
  "\u2581\u30af": 3792,
  "\u258165": 3793,
  "\u2581\u52d9\u3081": 3794,
  "\u2581bestond": 3795,
  "\u2581wisten": 3796,
  "\u2581Voetno": 3797,
  "\u2581huid": 3798,
  "\u2581\u6700\u5584": 3799,
  "\u2581kanker": 3800,
  "\u2581geestelijken": 3801,
  "\u2581\u58c1": 3802,
  "lijke": 3803,
  "\u3068\u8a00\u3063\u305f": 3804,
  "\u2581\u50e7\u8077": 3805,
  "\u2581tegenwoordig": 3806,
  "\u3067\u3042\u308a": 3807,
  ":\u201e": 3808,
  "\u2581klas": 3809,
  "\u85ac": 3810,
  "\u2581tegenstelling": 3811,
  "\u2581vliegen": 3812,
  "\u2581\u4e2d\u5fc3": 3813,
  "\u258139": 3814,
  "\u2581\u898f\u6a21": 3815,
  "\u2581\u8208\u5473\u6df1\u3044": 3816,
  "\u3044\u307e\u3057\u305f": 3817,
  "\u2581kijkt": 3818,
  "\u4e16": 3819,
  "\u2581bijeen": 3820,
  "\u2581\u5730\u65b9": 3821,
  "son": 3822,
  "\u2581getrouwd": 3823,
  "\u2581verlies": 3824,
  "\u3063\u3066\u3044\u308b": 3825,
  "loos": 3826,
  "\u2581pati\u00ebnten": 3827,
  "\u2581\u6ec5\u3073": 3828,
  "\u2581bijbelstudie": 3829,
  "\u2581opgemerkt": 3830,
  "\u2581bellen": 3831,
  "\u2581geldt": 3832,
  "\u2581\u533b\u7642": 3833,
  "bel": 3834,
  "\u4ed6\u306e": 3835,
  "\u8056\u66f8": 3836,
  "\u30ec\u30f3": 3837,
  "\u2581louter": 3838,
  "\u2581\u30a8\u30d0": 3839,
  "\u4ed8\u3051": 3840,
  "\u258148": 3841,
  "\u2581gelegd": 3842,
  "\u2581p": 3843,
  "\u2581\u30ac\u30e9\u30c6\u30a2": 3844,
  "\u2581\u4e00\u7dd2\u306b": 3845,
  "\u2581\u6c5a\u67d3": 3846,
  "\u2581\u6b7b\u4ea1": 3847,
  "\u2581\u9032\u5316": 3848,
  "\u2581onderwerpen": 3849,
  "\u2581\u306f\u3058\u3081": 3850,
  "\u2581materiaal": 3851,
  "\u2581ouderling": 3852,
  "\u2581\u4e0d\u5b89": 3853,
  "\u30c0\u30fc": 3854,
  "\u60c5\u5831": 3855,
  "\u2581kwijt": 3856,
  "\u5408\u3046": 3857,
  "\u2581priester": 3858,
  "\u2581tafel": 3859,
  "\u2581vriendin": 3860,
  "\u5f79": 3861,
  "\u2581\u3044\u308c": 3862,
  "\u2581Matth\u00e9\u00fcs": 3863,
  "\u2581rustig": 3864,
  "\u2581\u304a\u524d\u304c": 3865,
  "\u2581fouten": 3866,
  "\u2581\u3055\u307e\u3056\u307e": 3867,
  "\u2581\u75db\u307f": 3868,
  "\u2581verborgen": 3869,
  "\u2581\u65c5": 3870,
  "%": 3871,
  "\u2581publiek": 3872,
  "\u2581\u4eca\u3084": 3873,
  "\u2581prachtig": 3874,
  "\u2581vergeven": 3875,
  "\u2581\u305f\u3076\u3093": 3876,
  "Wij": 3877,
  "isch": 3878,
  "\u2581zoiets": 3879,
  "\u2581pad": 3880,
  "\u30ae": 3881,
  "\u306b\u3057\u3066": 3882,
  "\u2581\u5927\u4eba": 3883,
  "ro": 3884,
  "\u2581vlak": 3885,
  "\u2581bestand": 3886,
  "\u2581toewijding": 3887,
  "\u2581verschaffen": 3888,
  "\u2581Frankrijk": 3889,
  "\u2581Times": 3890,
  "\u2581waarvoor": 3891,
  "\u2581\u30d7\u30ed\u30b0\u30e9\u30e0": 3892,
  "\u2581\u8a66\u307f": 3893,
  "\u4e0a\u3052": 3894,
  "\u2581Gij": 3895,
  "\u2581klopt": 3896,
  "Jehovah": 3897,
  "\u2581\u98df\u3079\u308b": 3898,
  "\u2581VS": 3899,
  "\u2581\u3054\u304f": 3900,
  "\u2581\u8d64\u3061\u3083\u3093": 3901,
  "\u2581antwoordde": 3902,
  "\u2581lieten": 3903,
  "\u2581\u805e\u304d": 3904,
  "am": 3905,
  "\u258144": 3906,
  "\u306a\u3051\u308c\u3070": 3907,
  "\u308f\u3088": 3908,
  "\u2581bepalen": 3909,
  "ad": 3910,
  "\u2581vlucht": 3911,
  "\u2581\u6559\u6388": 3912,
  "\u2581\u9054\u3057": 3913,
  "ho": 3914,
  "\u2581ochtend": 3915,
  "\u2581DNA": 3916,
  "\u2581dagelijks": 3917,
  "\u2581merkt": 3918,
  "\u2581\u4ee5\u5916": 3919,
  "\u2581Jozef": 3920,
  "\u2581groepen": 3921,
  "\u5408\u3044": 3922,
  "\u7a7a": 3923,
  "\u2581christendom": 3924,
  "\u3057\u3066\u304f\u308c": 3925,
  "\u2581\u6975\u3081\u3066": 3926,
  "\u25a0": 3927,
  "\u258142": 3928,
  "\u2581noemt": 3929,
  "\u2581lijn": 3930,
  "\u2581\u611f\u67d3": 3931,
  "\u2581bijdragen": 3932,
  "\u2581\u307b\u3089": 3933,
  "\u306b\u884c\u304f": 3934,
  "\u6b73": 3935,
  "\u6728": 3936,
  "ol": 3937,
  "\u30b7\u30e5": 3938,
  "\u2581Probeer": 3939,
  "\u2581\u6751": 3940,
  "\u2581Koninkrijks": 3941,
  "\u2581artsen": 3942,
  "\u306a\u304c\u3089": 3943,
  "\u2581her": 3944,
  "\u2581verwerven": 3945,
  "\u2581\u3057\u308b\u3057": 3946,
  "\u2581\u5897\u3048": 3947,
  "\u2581Wilt": 3948,
  "\u2581toegang": 3949,
  "\u2581\u5354\u529b": 3950,
  "\u2581bad": 3951,
  "\u2581conclusie": 3952,
  "\u2581mogelijke": 3953,
  "\u591c": 3954,
  "Gij": 3955,
  "Z": 3956,
  "\u306e\u306d": 3957,
  "\u30b7\u30fc": 3958,
  "\u25817.": 3959,
  "\u2581behandeld": 3960,
  "\u2581richten": 3961,
  "\u2581Kunnen": 3962,
  "\u2581\u3058\u3083": 3963,
  "\u2581\u540c\u6642": 3964,
  "\u2581klinkt": 3965,
  "\u2581wou": 3966,
  "\u9054": 3967,
  "\u2581behoort": 3968,
  "\u2581bergen": 3969,
  "\u2581verboden": 3970,
  "\u2581\u7d50\u5c40": 3971,
  "\u4f55\u3082": 3972,
  "mate": 3973,
  "\u2581ernaar": 3974,
  "\u2581pogingen": 3975,
  "\u2581streven": 3976,
  "\u2581daarin": 3977,
  "go": 3978,
  "\u2581\u76f4\u63a5": 3979,
  "\u306a\u3044\u308f": 3980,
  "\u2581behoeve": 3981,
  "\u306f\u305a": 3982,
  "wel": 3983,
  "\u2581Engeland": 3984,
  "\u2581hoger": 3985,
  "\u2581\u5e2b": 3986,
  "\u2581\u3069\u3046\u305e": 3987,
  "\u2581\u5bcc": 3988,
  "\u2581\u6a29": 3989,
  "\u2581engel": 3990,
  "X": 3991,
  "ist": 3992,
  "\u2581\u4e8b\u52d9": 3993,
  "\u2581nergens": 3994,
  "\u2581\u30b3\u30ed\u30b5\u30a4": 3995,
  "\u3069\u3046": 3996,
  "\u2581Juda": 3997,
  "\u2581politiek": 3998,
  "\u3068\u3082": 3999,
  "\u2581gezet": 4000,
  "\u2581muur": 4001,
  "\u2581hel": 4002,
  "\u2581\u518a": 4003,
  "0": 4004,
  "\u2581\u4fdd\u8a3c": 4005,
  "\u2581\u8003\u3048\u65b9": 4006,
  "\u2581\u8a66\u7df4": 4007,
  "\u3082\u306e\u3067\u3059": 4008,
  "\u2581\u8868\u308f\u3059": 4009,
  "\u2581project": 4010,
  "\u3042\u306a\u305f\u304c": 4011,
  "\u90e8": 4012,
  "\u2581emotionele": 4013,
  "\u2581\u81ea\u52d5": 4014,
  "\u2581.": 4015,
  "\u2581zwarte": 4016,
  "\u2581\u89e3\u653e": 4017,
  "\u3059\u308c\u3070": 4018,
  "\u2581\u3089": 4019,
  "\u611f": 4020,
  "\u25812,": 4021,
  "\u2581draagt": 4022,
  "\u2581materi\u00eble": 4023,
  "\u2581min": 4024,
  "\u2581sterren": 4025,
  "\u2581communicatie": 4026,
  "\u2581\u52c9\u5f37": 4027,
  "\u2581\u79c1\u306b": 4028,
  "\u2581\u8ff0\u3079\u308b": 4029,
  "\u2581\u9055\u3044": 4030,
  "\u3068\u540c\u3058": 4031,
  "\u2581kaart": 4032,
  "\u2581\u6b63\u3057\u304f": 4033,
  "\u2581\u304a\u305d\u3089\u304f": 4034,
  "\u304b\u3063": 4035,
  "elijk": 4036,
  "\u2581\u56db": 4037,
  "\u2581vorige": 4038,
  "\u3048\u308b": 4039,
  "\u2581functie": 4040,
  "\u2581Duitse": 4041,
  "\u2581oefenen": 4042,
  "\u2581verdienen": 4043,
  "\u2581\u552f\u4e00": 4044,
  "\u2581\u5fdc\u3058": 4045,
  "\u97f3": 4046,
  "\u2581streng": 4047,
  "\u5f7c\u5973\u306f": 4048,
  "\u2581\u5049\u5927": 4049,
  "\u2581\u59ff": 4050,
  "\u2581\u8cdb\u7f8e": 4051,
  "\u25818.": 4052,
  "\u2581schoon": 4053,
  "\u2581\u30b3": 4054,
  "\u2581koningen": 4055,
  "\u2581ontmoet": 4056,
  "\u2581duizend": 4057,
  "\u2581\u8abf\u548c": 4058,
  "\u2581psalmist": 4059,
  "genootschap": 4060,
  "\u258112.": 4061,
  "\u2581militaire": 4062,
  "\u2581\u542b\u3081": 4063,
  "\u30bd": 4064,
  "\u2581\u6255\u3046": 4065,
  "\u2581\u3053\u308c\u3067": 4066,
  "\u2581\u601d\u3048\u308b": 4067,
  "\u2581\u8f38\u8840": 4068,
  "\u2581\u697d\u3057\u307f": 4069,
  "\u2581hond": 4070,
  "\u2581\u9593\u9055\u3044": 4071,
  "\u2581vanavond": 4072,
  "\u2581\u5065\u5168": 4073,
  "\u3059\u304e\u308b": 4074,
  "\u25819,10": 4075,
  "\u2581autoriteiten": 4076,
  "\u2581gelooft": 4077,
  "\u2581\u3061\u3087\u3046\u3069": 4078,
  "\u2581\u6368\u3066": 4079,
  "\u2581actie": 4080,
  "\u2581bezorgdheid": 4081,
  "\u2581boot": 4082,
  "\u2581schieten": 4083,
  "\u2581Help": 4084,
  "\u2581relatie": 4085,
  "\u2581maan": 4086,
  "\u2581\u52c7\u6c17": 4087,
  "\u3082\u306a\u3044": 4088,
  "\u2581bedankt": 4089,
  "\u2581\u623b\u3063": 4090,
  "\u2581droom": 4091,
  "\u2581\u6620\u753b": 4092,
  "\u2581\u826f\u304f": 4093,
  "\u2581\u7121\u8996": 4094,
  "\u258111.": 4095,
  "\u2581profetie\u00ebn": 4096,
  "\u2581\u671d": 4097,
  "\u2581vernietigen": 4098,
  "\u2581bijkantoor": 4099,
  "\u304b\u3057\u3089": 4100,
  "\u2581zaad": 4101,
  "\u2581\u2013": 4102,
  "\u2581\u5e83\u304f": 4103,
  "\u2581afhankelijk": 4104,
  "\u2581voorzichtig": 4105,
  "\u2581\u3059\u3050\u306b": 4106,
  "\u98a8": 4107,
  "\u2581vruchten": 4108,
  "\u2581\u30a2\u30f3": 4109,
  "\u3067\u306f\u306a\u304f": 4110,
  "\u2581\u5f79\u7acb\u3064": 4111,
  "\u2581\u3048": 4112,
  "\u2581\u5371\u6a5f": 4113,
  "\u2581\u6570\u591a\u304f": 4114,
  "\u2581behandelen": 4115,
  "\u2581\u305d\u306e\u3082\u306e": 4116,
  "\u304b\u308c\u3089\u306f": 4117,
  "\u2581Anderen": 4118,
  "\u2581Hebt": 4119,
  "\u2581\u53c2\u7167": 4120,
  "\u2581gerechtigheid": 4121,
  "\u2581dertig": 4122,
  "\u2581uitdaging": 4123,
  "\u2581demonen": 4124,
  "\u2581ge\u00efnteresseerd": 4125,
  "\u306a\u3057": 4126,
  "\u2581Even": 4127,
  "\u2581\u3053\u3053\u306f": 4128,
  "\u306b\u5bfe\u3057\u3066": 4129,
  "\u2581brachten": 4130,
  "ak": 4131,
  "\u25813,4": 4132,
  "\u2581beiden": 4133,
  "\u304b\u306d": 4134,
  "\u3057\u305f\u3089": 4135,
  "\u2581verwijderd": 4136,
  "di": 4137,
  "\u306e\u3053\u3068": 4138,
  "ke": 4139,
  "\u2581berichten": 4140,
  "\u2581ijs": 4141,
  "\u2581\u53d6\u308a\u6c7a\u3081": 4142,
  "\u77f3": 4143,
  "\u2581daarop": 4144,
  "\u2581\u904b\u8ee2": 4145,
  "\u2581jongere": 4146,
  "\u2581\u30d5\u30a1\u30a4\u30eb": 4147,
  "\u2581\u5c11\u5e74": 4148,
  "\u2581\u79fb\u52d5": 4149,
  "\u2581Degenen": 4150,
  "):": 4151,
  "heden": 4152,
  "\u2581\u5404": 4153,
  "\u3068\u3053\u308d": 4154,
  "\u2581rapport": 4155,
  "\u2581\u6559\u5e2b": 4156,
  "\u2581\u8a31\u3055": 4157,
  "\u2581\u591a\u6570": 4158,
  "\u2581gebleven": 4159,
  "\u6226": 4160,
  "\u2581Hem": 4161,
  "\u2581komende": 4162,
  "\u30b9\u30bf\u30fc": 4163,
  "\u2581uitgave": 4164,
  "\u2581\u9069\u5207": 4165,
  "ko": 4166,
  "15": 4167,
  "\u2581fijn": 4168,
  "\u2581Pas": 4169,
  "\u2581\u72ac": 4170,
  "\u2581overeenkomstig": 4171,
  "\u2581beperkt": 4172,
  "\u2581bezorgd": 4173,
  "\u2581wezen": 4174,
  "\u2581Tweede": 4175,
  "\u258114.": 4176,
  "\u2581tuin": 4177,
  "\u2581\u3084\u3059\u3044": 4178,
  "\u2581\u52dd\u5229": 4179,
  "\u2581\u6211": 4180,
  "\u2581regen": 4181,
  "\u2581\u624b\u672c": 4182,
  "\u2581\u30d6\u30e9\u30b8\u30eb": 4183,
  "\u2581schaal": 4184,
  "\u2581schare": 4185,
  "\u2581\u53f3": 4186,
  "\u2581Andere": 4187,
  "\u306a\u304d\u3083": 4188,
  "\u2581\u30d1": 4189,
  "\u3093\u3060\u3088": 4190,
  "\u50b7": 4191,
  "\u2581Niettemin": 4192,
  "\u2581bovendien": 4193,
  "\u2581\u5bb3": 4194,
  "\u2581\u79e9\u5e8f": 4195,
  "info": 4196,
  "\u2581\u6a5f\u95a2": 4197,
  "\u547d": 4198,
  "\u2581\u7de8": 4199,
  "\u2581\u8a2d\u3051": 4200,
  "\u2581genaamd": 4201,
  "\u2581\u6700\u7d42": 4202,
  "\u2581illustratie": 4203,
  "\u2581mede": 4204,
  "\u2581ondergaan": 4205,
  "\u2581wereldomvattend": 4206,
  "\u3089\u308c\u306a\u3044": 4207,
  "\u5973\u6027": 4208,
  "dat": 4209,
  "die": 4210,
  "\u2581Zonder": 4211,
  "\u2581\u63d0\u4f9b": 4212,
  "evenals": 4213,
  "\u2581\u56f0\u96e3": 4214,
  "\u2581plotseling": 4215,
  "\u2581\u611b\u60c5": 4216,
  "\u2581letterlijk": 4217,
  "\".": 4218,
  "\u2581getrouw": 4219,
  "\u2581\u901a\u4fe1": 4220,
  "\u2581openen": 4221,
  "\u2581zover": 4222,
  "\u2581\u3053\u308c\u3092": 4223,
  "\u54c1": 4224,
  "\u2581\u3044\u3063\u305d\u3046": 4225,
  "\u30ea\u30f3\u30b0": 4226,
  "ci": 4227,
  "ze": 4228,
  "\u2581eet": 4229,
  "\u2581\u3054\u5b58\u3058": 4230,
  "\u2581\u7a7a\u6c17": 4231,
  "\u5b66": 4232,
  "\u306a\u306e\u3067\u3059": 4233,
  "\u2581actief": 4234,
  "\u306b\u306a\u3063\u3066": 4235,
  "\u5c4b": 4236,
  "\u258115:": 4237,
  "\u2581troost": 4238,
  "\u306e\u3053\u3068\u3092": 4239,
  "\u738b": 4240,
  "\u2581\u5207\u308a": 4241,
  "\u2581\u6b6f": 4242,
  "\u2581snelheid": 4243,
  "\u2581regel": 4244,
  "\u2581\u5e73\u5747": 4245,
  "\u3064\u304f": 4246,
  "\u30ad\u30fc": 4247,
  "\u25819.": 4248,
  "\u2581bevel": 4249,
  "\u2581bedoeld": 4250,
  "\u2581laag": 4251,
  "\u2581%2": 4252,
  "\u2581beloofde": 4253,
  "\u2581\u9aa8": 4254,
  "ce": 4255,
  "loze": 4256,
  "\u2581\u8853": 4257,
  "\u3063\u3066\u308b": 4258,
  "\u2581dorp": 4259,
  "\u2581roepen": 4260,
  "\u2581\u660e\u78ba": 4261,
  "\u2581zendelingen": 4262,
  "\u2581Allah": 4263,
  "\u2581lezers": 4264,
  "\u2581volmaakte": 4265,
  "os": 4266,
  "\u2581volmaakt": 4267,
  "\u2581\u5efa\u3066": 4268,
  "we": 4269,
  "\u2581gedacht": 4270,
  "\u2581oprecht": 4271,
  "\u2581\u975e\u96e3": 4272,
  "\u2581gestuurd": 4273,
  "\u2581nauwkeurige": 4274,
  "\u2581\u4ee3\u8868": 4275,
  "\u2581\u533b\u5b66": 4276,
  "\u8fbc\u3093": 4277,
  "\u2581dachten": 4278,
  "\u2581genezen": 4279,
  "\u2581schrijver": 4280,
  "\u2581\u6669": 4281,
  "\u2581\u9593\u9055\u3063": 4282,
  "God": 4283,
  "\u2581bel": 4284,
  "\u30ac\u30f3": 4285,
  "\u3068\u4e00\u7dd2\u306b": 4286,
  "\u2581\u305a\u3063\u3068": 4287,
  "\u2581gedeelte": 4288,
  "\u2581maatschappij": 4289,
  "\u2581nationale": 4290,
  "\u2581\u578b": 4291,
  "\u2581\u3072\u3068\u3064": 4292,
  "\u2581houd": 4293,
  "\u2581las": 4294,
  "\u2581\u6b66\u5668": 4295,
  "\u2581\u5316\u5b66": 4296,
  "\u2581verschillen": 4297,
  "\u2581\u4e09\u3064": 4298,
  "\u7f6a": 4299,
  "\u2581hielp": 4300,
  "\u2581opgenomen": 4301,
  "\u2581\u304f": 4302,
  "\u2581\u30df": 4303,
  "\u2581\u547d\u3058": 4304,
  "\u901a\u308a": 4305,
  "\u2581vaste": 4306,
  "\u2581\u3044\u307e": 4307,
  "\u2581\u7d9a\u304f": 4308,
  "\u5b50\u4f9b": 4309,
  "\u2581bezittingen": 4310,
  "\u2581\u3046\u3093": 4311,
  "\u2581schijnen": 4312,
  "\u307e\u305f\u306f": 4313,
  "\u2581sch": 4314,
  "\u58f0": 4315,
  "\u9aa8": 4316,
  "\u6b7b\u306c": 4317,
  "\u2581\u53ce\u3081": 4318,
  "\u30dd": 4319,
  "\u2581\u5272\u308a\u5f53\u3066": 4320,
  "\u2581Verantwoording": 4321,
  "\u2581Man": 4322,
  "\u2581\u80f8": 4323,
  "\u2581afkomstig": 4324,
  "\u2581allebei": 4325,
  "\u2581inzicht": 4326,
  "ment": 4327,
  "\u2581\u6d2a\u6c34": 4328,
  "\u2581verkopen": 4329,
  "\u2581\u307f\u306a\u3055": 4330,
  "\u30cb\u30a2": 4331,
  "\u2581Ondanks": 4332,
  "\u2581keek": 4333,
  "\u2581kust": 4334,
  "\u304b\u3063\u305f": 4335,
  "\u2581eeuwige": 4336,
  "\u2581wens": 4337,
  "\u2581\u8aa0\u5b9f": 4338,
  "\u2581feest": 4339,
  "\u2581g": 4340,
  "\u2581uitspraak": 4341,
  "\u304b\u3089\u306e": 4342,
  "\u2581\u3054\u3068": 4343,
  "\u2581factoren": 4344,
  "\u2581\u914d\u5076": 4345,
  "\u65b9\u6cd5": 4346,
  "\u901a": 4347,
  "\u2581hout": 4348,
  "\u2581oorlogen": 4349,
  "ka": 4350,
  "ut": 4351,
  "\u2581barmhartigheid": 4352,
  "\u3055\u308c\u307e\u3059": 4353,
  "\u3093\u3067": 4354,
  "\u2581achtergrond": 4355,
  "\u2581voldoening": 4356,
  "\u2581\u5e1d\u56fd": 4357,
  "\u3060\u3051\u3069": 4358,
  "\u308c\u305f": 4359,
  "\u2581opgewekt": 4360,
  "\u2581\u3064\u308c": 4361,
  "\u2581alcohol": 4362,
  "\u2581noorden": 4363,
  "\u2581\u6bba\u4eba": 4364,
  "\u610f\u5473": 4365,
  "\u2581nogal": 4366,
  "\u2581\u5931\u6557": 4367,
  "\u306a\u3044\u3067": 4368,
  "\u2581tijdschriften": 4369,
  "\u2581\u3044\u3044\u304b": 4370,
  "\u2581\u5931\u3063": 4371,
  "\u2581betreffende": 4372,
  "\u2581ervaringen": 4373,
  "\u2581gesloten": 4374,
  "Er": 4375,
  "\u2581aangezicht": 4376,
  "\u2581top": 4377,
  "\u2581uitgegeven": 4378,
  "\u2581verdere": 4379,
  "\u2581\u8a55\u4fa1": 4380,
  "\u2581belangrijker": 4381,
  "\u2581zorgt": 4382,
  "\u2581\u6050\u3089\u304f": 4383,
  "\u2581\u71b1": 4384,
  "\u2581aanmoediging": 4385,
  "im": 4386,
  "\u2581ongeluk": 4387,
  "\u2581rechtstreeks": 4388,
  "tische": 4389,
  "pe": 4390,
  "\u2581\u5fe0\u8aa0": 4391,
  "\u2581\u8ca7\u3057\u3044": 4392,
  "\u2581geprobeerd": 4393,
  "\u2581gezonde": 4394,
  "geacht": 4395,
  "\u5f7c\u3089": 4396,
  "Comment": 4397,
  "\u2581China": 4398,
  "\u2581\u7533\u547d\u8a18": 4399,
  "\u2581zwaard": 4400,
  "\u2581\u304b\u3064": 4401,
  "\u2581\u30b7": 4402,
  "\u306b\u3068\u3063\u3066": 4403,
  "\u2581Gelukkig": 4404,
  "\u3068\u8a00\u3046": 4405,
  "\u2581hielden": 4406,
  "\u2581val": 4407,
  "\u2581verkrijgen": 4408,
  "\u2581\u96c6\u3081": 4409,
  "\u2581\u30d0\u30fc": 4410,
  "\u2581\u6709\u540d": 4411,
  "\u3042\u306e": 4412,
  "\u7236": 4413,
  "\u2581inwoners": 4414,
  "\u2581\u884c\u3051": 4415,
  "\u30ea\u30b9\u30c8": 4416,
  "\u2581\u50d5\u304c": 4417,
  "\u2581\u5fcd\u8010": 4418,
  "\u2581\u7f6e\u3044": 4419,
  "\u2581juli": 4420,
  "\u2581trachten": 4421,
  "\u2581\u3053\u3061\u3089": 4422,
  "\u2581\u5f53\u5c40": 4423,
  "\u2581\u5358\u306a\u308b": 4424,
  "\u2581\u5b9f\u73fe": 4425,
  "\u2581gunst": 4426,
  "\u2581soldaten": 4427,
  "\u2581wiens": 4428,
  "\u2581godvruchtige": 4429,
  "\u6b8b": 4430,
  "\u2581vooruit": 4431,
  "\u2581onderdeel": 4432,
  "\u2581and": 4433,
  "\u2581\u8ab0": 4434,
  "\u2581\u5ff5": 4435,
  "\u2581\u751f\u7523": 4436,
  "\u258121:": 4437,
  "\u2581punten": 4438,
  "\u2581toonde": 4439,
  "\u2581\u7ba1\u7406": 4440,
  "\u2581\u30ac\u30f3": 4441,
  "\u2581langzaam": 4442,
  "\u2581meesten": 4443,
  "\u2581\u6838": 4444,
  "\u2581boos": 4445,
  "\u2581verhalen": 4446,
  "\u258113.": 4447,
  "io": 4448,
  "\u2581krachten": 4449,
  "\u2581behagen": 4450,
  "\u2581\u5668": 4451,
  "\u7b54\u3048": 4452,
  "isme": 4453,
  "\u25816.": 4454,
  "\u2581normale": 4455,
  "\u2581positieve": 4456,
  "\u9ad8": 4457,
  "\u25815,": 4458,
  "\u2581Iets": 4459,
  "\u2581w": 4460,
  "\u306a\u308b": 4461,
  "up": 4462,
  "\u2581\u7acb\u3063": 4463,
  "\u2581\u898b\u8fbc\u307f": 4464,
  "\u2581\u99ac": 4465,
  "\u2581regeringen": 4466,
  "\u2581\u50cf": 4467,
  "\u2581\u266b": 4468,
  "\u2581\u307b\u307c": 4469,
  "\u2581\u4e00\u65e5": 4470,
  "\u2581St": 4471,
  "\u2581aanmerking": 4472,
  "\u2581bevindt": 4473,
  "\u2581operatie": 4474,
  "\u2581\u5f7c\u5973\u306e": 4475,
  "\u2581\u57fa\u3065\u304f": 4476,
  "\u2581daarbij": 4477,
  "\u2581\u30b5\u30e9": 4478,
  "\u2581zorgvuldig": 4479,
  "dag": 4480,
  "\u2581afval": 4481,
  "\u2581alstublieft": 4482,
  "programma": 4483,
  "\u2581\u30e8\u30bb\u30d5": 4484,
  "\u2581echtgenoot": 4485,
  "\u2581stam": 4486,
  "\u2581\u304a\u304b\u3052": 4487,
  "huis": 4488,
  "\u2581besteden": 4489,
  "\u2581\u4f5c\u8005": 4490,
  "\u2581\u8a00\u53ca": 4491,
  "\u2581getoond": 4492,
  "\u2581verzoek": 4493,
  "\u2581sneller": 4494,
  "\u2581\u3084\u306f\u308a": 4495,
  "waar": 4496,
  "\u2581\u4e00\u4f53": 4497,
  "\u2581\u5358\u306b": 4498,
  "\u4f4d": 4499,
  "\u2581schoonheid": 4500,
  "\u2581\u4e3b\u6a29": 4501,
  "\u30da": 4502,
  "\u2581\u697d\u3057\u3044": 4503,
  "\u8a2d\u5b9a": 4504,
  "\u2581onlangs": 4505,
  "\u2581bevatten": 4506,
  "\u2581waarover": 4507,
  "\u306f\u4f55": 4508,
  "ker": 4509,
  "\u2581vervuld": 4510,
  "\u2581\u76f8\u5f53": 4511,
  "\u2581\u305b\u3088": 4512,
  "\u2581gevolgd": 4513,
  "\u2581internet": 4514,
  "\u2581verdriet": 4515,
  "40": 4516,
  "eer": 4517,
  "\u2581kudde": 4518,
  "\u2581\u266a": 4519,
  "\u2581\u518d": 4520,
  "\u2581\u6c17\u5206": 4521,
  "\u2581\u3068\u308a\u308f\u3051": 4522,
  "\u2581\u6709\u76ca": 4523,
  "\u2581alsook": 4524,
  "\u2581nood": 4525,
  "\u2581\u6c38\u4e45": 4526,
  "\u25811970": 4527,
  "\u2581\u5352\u696d": 4528,
  "\u2581\u5916\u56fd": 4529,
  "\u2581\u8a95\u751f": 4530,
  "\u2581opstand": 4531,
  "\u2581behouden": 4532,
  "\u2581beproevingen": 4533,
  "\u2581milieu": 4534,
  "\u2581\u60a3\u96e3": 4535,
  "\u2581bedoeling": 4536,
  "\u9055\u3046": 4537,
  "\u2581slaven": 4538,
  "\u2581volken": 4539,
  "\u2581nabij": 4540,
  "\u2581\u5e7c\u3044": 4541,
  "\u2581financi\u00eble": 4542,
  "\u2581\u63cf\u5199": 4543,
  "\u304b\u3069\u3046\u304b": 4544,
  "\u2581slot": 4545,
  "\u2581\u30ed\u30b7\u30a2": 4546,
  "\u671f": 4547,
  "\u2581enorm": 4548,
  "\u2581\u547c\u3073": 4549,
  "\u81ea\u5206\u306e": 4550,
  "\u258116.": 4551,
  "\u2581\u8a18\u61b6": 4552,
  "\u2581onderhouden": 4553,
  "\u9854": 4554,
  "j": 4555,
  "\u2581Satans": 4556,
  "\u2581bank": 4557,
  "\u2581\u30c9": 4558,
  "\u2581\u534a": 4559,
  "\u2581\u60aa\u970a": 4560,
  "\u2581Sam": 4561,
  "\u2581\u50cd\u304b": 4562,
  "\u3053\u3053\u3067": 4563,
  "\u2581begrepen": 4564,
  "\u2581koffie": 4565,
  "\u2581sport": 4566,
  "\u2581\u52d5\u6a5f": 4567,
  "\u6b63": 4568,
  "\u2581poging": 4569,
  "\u2581\u9003\u3052": 4570,
  "ep": 4571,
  "\u2581\u52b4\u50cd": 4572,
  "\u2581camera": 4573,
  "\u2581familieleden": 4574,
  "\u2581\u7b56": 4575,
  "\u25816,": 4576,
  "\u2581geleerden": 4577,
  "\u304b\u3051": 4578,
  "\u2581noodzaak": 4579,
  "\u2581\u598a\u5a20": 4580,
  "\u2581\u5c0b\u306d\u308b": 4581,
  "\u2581plus": 4582,
  "\u2581rode": 4583,
  "\u2581begrijpt": 4584,
  "\u2581mevrouw": 4585,
  "\u2581pak": 4586,
  "\u2581gunstig": 4587,
  "\u2581\u81ea\u5206\u306e": 4588,
  "\u2581verdwenen": 4589,
  "\u2581\u30c6\u30b5\u30ed\u30cb\u30b1": 4590,
  "\u2581cellen": 4591,
  "\u2581\u3072\u3069\u304f": 4592,
  "\u2581Jack": 4593,
  "Hij": 4594,
  "\u2581kleuren": 4595,
  "\u2581\u304a\u4e0e\u3048": 4596,
  "\u2581\u8fd1\u3065\u3044": 4597,
  "\u60aa\u3044": 4598,
  "\u2581direct": 4599,
  "\u2581erkennen": 4600,
  "\u2581\u751f\u6daf": 4601,
  "\u306e\u305f\u3081": 4602,
  "\u5e74\u9593": 4603,
  "\u2581onderscheid": 4604,
  "\u2581\u4ef6": 4605,
  "\u2581tevoren": 4606,
  "\u2581terrein": 4607,
  "\u2581\u30ec\u30d3": 4608,
  "\u30a2\u30f3": 4609,
  "\u72ac": 4610,
  "\u2581bos": 4611,
  "\u2581\u77e5\u3089\u305b": 4612,
  "\u3079": 4613,
  "sel": 4614,
  "\u2581gedragen": 4615,
  "\u2581\u533b": 4616,
  "\u2581\u5bc4\u4ed8": 4617,
  "\u2581beloften": 4618,
  "\u2581overwinnen": 4619,
  "\u2581toon": 4620,
  "\u2581\u4e16\u4ee3": 4621,
  "\u635c\u67fb\u5b98": 4622,
  "\u2581Geschriften": 4623,
  "\u2581\u4f1d\u7d71": 4624,
  "\u2581Inzet": 4625,
  "\u2581geschonken": 4626,
  "\u2581moedig": 4627,
  "uw": 4628,
  "\u2581\u4f7f\u3044": 4629,
  "\u3057\u3066\u304f\u3060\u3055\u3044": 4630,
  "\u306e\u70ba\u306b": 4631,
  "\u258115.": 4632,
  "\u2581oorsprong": 4633,
  "\u2581verkocht": 4634,
  "\u2581raakt": 4635,
  "tenschappelijke": 4636,
  "\u2581moordenaar": 4637,
  "\u30b8\u30e3": 4638,
  "\u2581Australi\u00eb": 4639,
  "\u25819,": 4640,
  "\u2581machine": 4641,
  "\u2581\u307e\u308b\u3067": 4642,
  "\u30d3\u30fc": 4643,
  "\u2581\u3042\u3093\u305f": 4644,
  "\u2581\u500b": 4645,
  "\u30e9\u30f3\u30c9": 4646,
  "ling": 4647,
  "\u2581Geloof": 4648,
  "\u8089": 4649,
  "\u258117.": 4650,
  "\u2581fysieke": 4651,
  "\u5dde": 4652,
  "\u2581\u30ed\u30f3\u30c9\u30f3": 4653,
  "\u2581\u5211\u52d9": 4654,
  "\u307e\u308a": 4655,
  "\u30b3\u30f3": 4656,
  "kt": 4657,
  "\u2581Sinds": 4658,
  "\u2581beurt": 4659,
  "\u25814,": 4660,
  "\u2581gave": 4661,
  "60": 4662,
  "\u2581Eerste": 4663,
  "\u2581\u3054\u308d": 4664,
  "\u2581\u5730\u9707": 4665,
  "\u2581Enkele": 4666,
  "\u2581links": 4667,
  "\u2581\u3042\u3041": 4668,
  "\u2581\u5224\u65ad": 4669,
  "\u2581\u96e8": 4670,
  "un": 4671,
  "\u2581\u4f4f\u6c11": 4672,
  "\u2581volwassen": 4673,
  "\u2581400": 4674,
  "\u2581volwassenen": 4675,
  "\u2581\u30e1\u30ad\u30b7\u30b3": 4676,
  "schap": 4677,
  "\u2581gratis": 4678,
  "\u2581\u4f5c\u308a": 4679,
  "\u306a\u308a": 4680,
  "\u3092\u6301\u3063\u3066": 4681,
  "\u2581bekende": 4682,
  "\u2581erachter": 4683,
  "\u2581ontwikkeld": 4684,
  "\u2581beweren": 4685,
  "\u2581\u81ea\u6bba": 4686,
  "\u2581\u8f09\u305b": 4687,
  "\u2581hopen": 4688,
  "\u2581\u5f79": 4689,
  "\u3042\u306a\u305f\u304c\u305f\u306f": 4690,
  "\u2581zul": 4691,
  "\u2581\u897f": 4692,
  "\u2581Mo": 4693,
  "\u2581vooruitzicht": 4694,
  "\u5ba4": 4695,
  "\u2581eeuwse": 4696,
  "\u2581\u9069\u7528": 4697,
  "weg": 4698,
  "\u3055\u305b\u305f": 4699,
  "\u2581fundamentele": 4700,
  "\u2581\u4f34\u3046": 4701,
  "\u2581wereldse": 4702,
  "\u4ee3": 4703,
  "\u2581dode": 4704,
  "\u2581inlichtingen": 4705,
  "\u2581overvloed": 4706,
  "\u2581gaten": 4707,
  "\u3093\u3058\u3083\u306a\u3044": 4708,
  "\u2581gekozen": 4709,
  "\u2581\u3064\u304d": 4710,
  "\u3059\u3079\u3066\u306e": 4711,
  "\u30b7\u30a2": 4712,
  "\u2581\u305f\u3044\u3078\u3093": 4713,
  "\u2581\u4f55\u3089\u304b": 4714,
  "\u3066\u304d\u305f": 4715,
  "\u2581\u30b9\u30c8\u30ec\u30b9": 4716,
  "\u2581\u4f4d\u7f6e": 4717,
  "\u2581Zulke": 4718,
  "\u3068\u601d\u3044\u307e\u3059": 4719,
  "\u2581waarden": 4720,
  "\u2581\u30b3\u30f3\u30d4\u30e5\u30fc\u30bf\u30fc": 4721,
  "\u2581\u5ba2": 4722,
  "\u304c\u5fc5\u8981\u3060": 4723,
  "\u8cea": 4724,
  "\u2581steen": 4725,
  "\u2581\u8d77\u304d\u308b": 4726,
  "\u3092\u4f7f\u3046": 4727,
  "\u2581zoekt": 4728,
  "\u2581\u6ce8\u610f\u6df1\u304f": 4729,
  "\u2581nadenken": 4730,
  "\u2581\u306a\u304a": 4731,
  "\u3068\u3044\u3046\u3053\u3068\u3067\u3059": 4732,
  "\u53f0": 4733,
  "\u5fc5\u8981": 4734,
  "\u2581\u4e0d\u8db3": 4735,
  "\u30d9\u30eb": 4736,
  "\u2581Vind": 4737,
  "\u2581duidelijke": 4738,
  "\u2581kende": 4739,
  "\u306a\u3093\u304b": 4740,
  "\u25811,000": 4741,
  "\u2581rijke": 4742,
  "\u2581welzijn": 4743,
  "\u2581\u4eba\u7a2e": 4744,
  "\u2581\u8a3c\u3057": 4745,
  "\u2581herstellen": 4746,
  "\u2581\u985e": 4747,
  "\u304f\u3089\u3044": 4748,
  "\u2581eenvoudige": 4749,
  "\u3053\u305d": 4750,
  "\u8ecd": 4751,
  "\u2581troon": 4752,
  "sa": 4753,
  "\u2581\u671b\u3093": 4754,
  "\u2581gelegenheden": 4755,
  "\u2581\u304b\u304b\u308b": 4756,
  "()": 4757,
  "\u2581\u5b50\u5b6b": 4758,
  "\u4e0b\u3055\u3044": 4759,
  "\u3092\u6bba\u3057\u305f": 4760,
  "\u2581biedt": 4761,
  "\u2581\u305f\u304f": 4762,
  "\u2581\u6094\u3044\u6539\u3081": 4763,
  "\u5668": 4764,
  "\u2581wijs": 4765,
  "\u2581\u9858\u3063": 4766,
  "\u2581gewerkt": 4767,
  "\u2581\u53ca\u307c\u3057": 4768,
  "\u308b\u3093\u3060": 4769,
  "con": 4770,
  "\u2581Zorg": 4771,
  "\u2581recente": 4772,
  "\u2581\u4f5c\u696d": 4773,
  "\u6765\u308b": 4774,
  "\u2581blad": 4775,
  "\u2581nauwkeurig": 4776,
  "\u2581\u30c0": 4777,
  "\u2581\u6587\u5316": 4778,
  "\u30ec\u30b9": 4779,
  "\u2581\u4e00\u5c64": 4780,
  "\u2581\u4f55\u304c": 4781,
  "\u30d5\u30a3": 4782,
  "\u3057\u3066\u306a\u3044": 4783,
  "em": 4784,
  "\u2581toewijzing": 4785,
  "\u4e2d\u306b": 4786,
  "\u2581gelegen": 4787,
  "\u2581witte": 4788,
  "\u2581\u3076\u3069\u3046": 4789,
  "\u2581\u53d7\u3051\u5165\u308c\u308b": 4790,
  "\u3067\u304d\u307e\u305b\u3093": 4791,
  "ion": 4792,
  "\u2581eindelijk": 4793,
  "\u30d6\u30eb": 4794,
  "\u2581stress": 4795,
  "\u2581verandert": 4796,
  "\u30ec\u30fc": 4797,
  "\u77e5\u3089\u306a\u3044": 4798,
  "\u2581lot": 4799,
  "\u2581\u305f\u3068\u3048\u3070": 4800,
  "\u2581lekker": 4801,
  "\u2581\u30d9\u30c6\u30eb": 4802,
  "\u2581\u53ca\u307c\u3059": 4803,
  "\u2581\u9023\u7d61": 4804,
  "\u5c11\u3057": 4805,
  "ale": 4806,
  "\u3067\u3042\u308d\u3046": 4807,
  "\u75c5": 4808,
  "\u2581levenswijze": 4809,
  "\u2581150": 4810,
  "\u2581Ezechi\u00ebl": 4811,
  "\u2581meester": 4812,
  "\u2581instelling": 4813,
  "\u2581\u59cb\u3081\u308b": 4814,
  "\u2581\u9001\u3063": 4815,
  "\u3093\u3060\u308d": 4816,
  "\u2581besefte": 4817,
  "\u2581vogel": 4818,
  "\u2581\u30cf\u30a4": 4819,
  "\u3067\u3057\u3087\u3046\u304b": 4820,
  "\u2581\u5927\u7d71\u9818": 4821,
  "\u3089\u3057\u3044": 4822,
  "\u2581\u6211\u3005\u306e": 4823,
  "\u2581\u8cc7\u683c": 4824,
  "\u2581steek": 4825,
  "\u3084\u3063\u305f": 4826,
  "\u2581hoogste": 4827,
  "\u2581\u306a\u3093\u3067": 4828,
  "\u2581\u3008": 4829,
  "\u2581verdwijnen": 4830,
  "\u2581\u661f": 4831,
  "\u2581\u8ab0\u304b\u304c": 4832,
  "\u2581\u6b21\u3044": 4833,
  "\u2581zomer": 4834,
  "\u2581\u58eb": 4835,
  "\u2581\u5168\u5730": 4836,
  "\u2581San": 4837,
  "\u2581Zeker": 4838,
  "\u2581mogelijkheden": 4839,
  "\u2581\u6025": 4840,
  "\u591a\u304f\u306e": 4841,
  "sh": 4842,
  "\u2581Franse": 4843,
  "\u2581Uiteindelijk": 4844,
  "\u2581juni": 4845,
  "\u2581keus": 4846,
  "\u2581prima": 4847,
  "\u2581\u30d9": 4848,
  "\u2581\u7948\u308b": 4849,
  "\u9803": 4850,
  "\u2581besproken": 4851,
  "\u2581duisternis": 4852,
  "\u3058\u3083\u306a\u3044\u304b": 4853,
  "--": 4854,
  "\u2581El": 4855,
  "\u2581\u308f": 4856,
  "\u2581\u65cf": 4857,
  "\u2581\u9577\u304f": 4858,
  "\u2581religies": 4859,
  "\u2581Pa": 4860,
  "\u2581daarentegen": 4861,
  "\u2581toestemming": 4862,
  "\u2581\u30aa\u30fc": 4863,
  "\u2581\u8a9e\u308b": 4864,
  "\u3064\u304d": 4865,
  "\u3060\u306d": 4866,
  "\u2581armoede": 4867,
  "\u2581woede": 4868,
  "\u2581\u4e0d\u601d\u8b70": 4869,
  "\u2581\u6642\u3005": 4870,
  "\u2581praktische": 4871,
  "\u2581evolutie": 4872,
  "\u2581gemiddelde": 4873,
  "\u660e": 4874,
  "\u2581Le": 4875,
  "\u2581\u6bba\u3057": 4876,
  "\u2581soortgelijke": 4877,
  "aar": 4878,
  "\u30b8\u30fc": 4879,
  "\u2581Ni": 4880,
  "\u540c\u3058": 4881,
  "\u2581Vraag": 4882,
  "\u2581\u88c5\u7f6e": 4883,
  "\u3009": 4884,
  "\u8a00\u8449": 4885,
  "Dit": 4886,
  "\u72b6": 4887,
  "\u2581Elk": 4888,
  "\u2581nauwelijks": 4889,
  "\u2581reizen": 4890,
  "\u2581verbeteren": 4891,
  "\u306e\u3060": 4892,
  "vi": 4893,
  "\u2581redelijk": 4894,
  "\u2581gevangen": 4895,
  "\u2581september": 4896,
  "\u2581\u307b\u3093\u306e": 4897,
  "\u2581stenen": 4898,
  "\u2581vastbesloten": 4899,
  "\u2581\u660e\u65e5": 4900,
  "\u2581bedenken": 4901,
  "\u2581radio": 4902,
  "\u2581\u771f\u5263": 4903,
  "\u2581bedrijven": 4904,
  "ica": 4905,
  "\u2581beloofd": 4906,
  "\u2581papier": 4907,
  "\u2581zaten": 4908,
  "\u2581d": 4909,
  "\u3081\u308b": 4910,
  "\u2581kleren": 4911,
  "\u3055\u305b": 4912,
  "\u2581\u904e\u304e": 4913,
  "\u2581minst": 4914,
  "\u2581seconden": 4915,
  "\u6bcd": 4916,
  "\u7fa9": 4917,
  "\u6b21": 4918,
  "\u3092\u898b\u3064\u3051\u305f": 4919,
  "\u2581Canada": 4920,
  "\u2581ex": 4921,
  "\u2581\u4ed8\u3051": 4922,
  "\u2581\u5de6": 4923,
  "\u2581\u304a\u3088\u305d": 4924,
  "\u305f\u3093\u3060": 4925,
  "\u2581\u59d4\u54e1": 4926,
  "\u2581\u308a\u3063\u3071": 4927,
  "\u2581beloning": 4928,
  "\u2581lof": 4929,
  "\u2581\u30b2\u30fc\u30e0": 4930,
  "\u2581\u4e0a\u3052": 4931,
  "\u2581\u9060\u304f": 4932,
  "\u8a08\u753b": 4933,
  "\u2581\u5168\u3066": 4934,
  "\u306e\u3042\u308b": 4935,
  "\u2581verloop": 4936,
  "\u77e5\u3063\u3066\u308b": 4937,
  "\u2581lezing": 4938,
  "ent": 4939,
  "\u2581\u4ea4\u308f\u308a": 4940,
  "\u751f\u6d3b": 4941,
  "!\"": 4942,
  "\u2581merken": 4943,
  "\u2581voorzegd": 4944,
  "\u2581vreemde": 4945,
  "\u30d5\u30a1": 4946,
  "\u2581=": 4947,
  "\u2581Vaak": 4948,
  "\u2581augustus": 4949,
  "\u2581zette": 4950,
  "\u2581\u30b5\u30f3": 4951,
  "\u2581\u6b32\u671b": 4952,
  "\u2581\u8907\u96d1": 4953,
  "\u2581Ta": 4954,
  "\u2581\u8a98\u60d1": 4955,
  "\u2581december": 4956,
  "\u3082\u3063\u3068": 4957,
  "\u2581\u4fdd\u3061": 4958,
  "\u2581gewicht": 4959,
  "\u2581\u30cb\u30e5\u30fc\u30b9": 4960,
  "\u2581\u30eb": 4961,
  "\u2581\u98df\u7ce7": 4962,
  "\u3082\u306e\u3092": 4963,
  "\u2581voornamelijk": 4964,
  "\u2581vissen": 4965,
  "\u2581\u4eba\u683c": 4966,
  "\u2581\u6cb9": 4967,
  "\u8868": 4968,
  "\u2581universiteit": 4969,
  "\u2581\u59cb\u307e\u3063": 4970,
  "\u2581\u79c1\u3092": 4971,
  "\u756a": 4972,
  "eg": 4973,
  "zijn": 4974,
  "\u2581leeg": 4975,
  "\u2581\u4eba\u7269": 4976,
  "\u2581\u6771": 4977,
  "\u2581komst": 4978,
  "\u306a\u3089\u3070": 4979,
  "\u2581ie": 4980,
  "\u2581paus": 4981,
  "\u2581\u3069\u3046\u3082": 4982,
  "\u5143": 4983,
  "\u2581Zee": 4984,
  "\u2581details": 4985,
  "\u2581onderscheiden": 4986,
  "\u2581\u6c17\u3065\u304d": 4987,
  "rechtschapenheid": 4988,
  "\u2581Vanaf": 4989,
  "\u2581oktober": 4990,
  "\u3067\u3059\u3088": 4991,
  "\u2581Peter": 4992,
  "\u2581\u73fe\u308f\u308c": 4993,
  "\u3093\u3067\u3059\u304b": 4994,
  "\u2581\u3060\u308a": 4995,
  "\u30ed\u30f3": 4996,
  "\u2581genegenheid": 4997,
  "\u3060\u3051\u3067": 4998,
  "\u2581\u4f1a\u8a71": 4999,
  "\u2581\u8d85": 5000,
  "\u2581speelt": 5001,
  "\u2581West": 5002,
  "\u2581collega": 5003,
  "\u2581rij": 5004,
  "\u2581harde": 5005,
  "\u2581\u5e78\u3044": 5006,
  "\u2581\u898b\u3066": 5007,
  "\u2581goedkeuring": 5008,
  "\u8fbc\u307e": 5009,
  "\u25811950": 5010,
  "\u2581vooruitgang": 5011,
  "\u2581\u542b\u3080": 5012,
  "\u2581\u6fc0\u3057\u3044": 5013,
  "\u3055\u308c\u307e\u3057\u305f": 5014,
  "\u2581januari": 5015,
  "\u2581Jouw": 5016,
  "\u2581\u5f15\u7528": 5017,
  "\u3001\"": 5018,
  "\u258146": 5019,
  "\u2581Voetnoot": 5020,
  "\u2581Mexico": 5021,
  "\u2581\u4e8b\u5178": 5022,
  "\u30b5\u30f3": 5023,
  "\u2581april": 5024,
  "\u2581heer": 5025,
  "\u2581Engels": 5026,
  "\u2581kwaliteit": 5027,
  "\u2581tevreden": 5028,
  "\u2581\u4f5c\u3063": 5029,
  "\u661f": 5030,
  "\u2581mei": 5031,
  "\u2581\u7570\u306a\u308b": 5032,
  "\u51fa\u6765\u308b": 5033,
  "elijke": 5034,
  "\u2581Voordat": 5035,
  "\u2581oplossen": 5036,
  "\u3070\u304b\u308a": 5037,
  "\u2581\u6050\u308c\u308b": 5038,
  ">": 5039,
  "zelfde": 5040,
  "\u2581vertaling": 5041,
  "\u2581Breng": 5042,
  "\u2581\u4f55\u3060": 5043,
  "\u2581\u679c\u305f\u3059": 5044,
  "\u3053\u3068\u3060": 5045,
  "\u3088\u3046\u3060": 5046,
  "\u2581gevormd": 5047,
  "\u2581to": 5048,
  "\u2581\u30a2\u30b8\u30a2": 5049,
  "\u2581\u3082\u3063\u3068\u3082": 5050,
  "\u3066\u305f": 5051,
  "\u2581verdomme": 5052,
  "\u2581\u305d\u3046\u304b": 5053,
  "\u2581\u30bb": 5054,
  "\u2581\u904e": 5055,
  "\u2581uren": 5056,
  "\u2581\u306e\u307f": 5057,
  "\u2581\u53f0": 5058,
  "\u2581Zet": 5059,
  "\u2581\u6b8b\u5ff5": 5060,
  "\u306f\u307e\u3060": 5061,
  "\u2581Saul": 5062,
  "\u2581hoek": 5063,
  "\u2581\u6d99": 5064,
  "\u2581\u7d42\u308f\u308b": 5065,
  "\u6700\u3082": 5066,
  "\u2581Degene": 5067,
  "\u2581optie": 5068,
  "\u2581televisie": 5069,
  "\u898b\u308b": 5070,
  "ij": 5071,
  "\u2581\u30c8": 5072,
  "\u2581\u4f55\u3067": 5073,
  "\u2581kern": 5074,
  "\u2581\u306d\u3048": 5075,
  "achtige": 5076,
  "\u2581streek": 5077,
  "\u308f\u308c": 5078,
  "\u2581vergeleken": 5079,
  "\u2581\u63d0\u6848": 5080,
  "\u2581\u7387": 5081,
  "\u3053\u308c\u3092": 5082,
  "\u30c3\u30c9": 5083,
  "\u2581Neen": 5084,
  "\u2581binnenkort": 5085,
  "\u2581\u767a\u5c55": 5086,
  "\u2581\u89b3\u5bdf": 5087,
  "\u2581\u6804\u990a": 5088,
  "\u7acb": 5089,
  "\u2581\u6050\u308d\u3057\u3044": 5090,
  "\u3092\u898b\u305f": 5091,
  "aat": 5092,
  "ler": 5093,
  "\u2581tegenstand": 5094,
  "\u308d\u3046": 5095,
  "\u2581bewoners": 5096,
  "\u2581\u30da": 5097,
  "\u2581\u5076\u50cf": 5098,
  "\u7406\u7531": 5099,
  "\u2581breken": 5100,
  "\u2581effect": 5101,
  "\u2581bestuur": 5102,
  "\u2581lossen": 5103,
  "\u2581sterft": 5104,
  "\u2581\u307f\u8a00\u8449": 5105,
  "\u2581specifieke": 5106,
  "\u2581toepassen": 5107,
  "\u2581zingen": 5108,
  "\u2581\u591a\u5206": 5109,
  "\u2581\u5206\u91ce": 5110,
  "\u305f\u304f\u306a\u3044": 5111,
  "\u4fe1\u4ef0": 5112,
  "\u2581Britse": 5113,
  "\u2581gebeurtenis": 5114,
  "\u2581profetisch": 5115,
  "\u305f\u3061": 5116,
  "\u258141": 5117,
  "\u2581zelfmoord": 5118,
  "\u2581\u5175\u58eb": 5119,
  "\u2581\u5e97": 5120,
  "\u2581geneigd": 5121,
  "\u2581heilig": 5122,
  "\u30b7\u30e3": 5123,
  "\u611f\u3058": 5124,
  "\u95a2\u4fc2": 5125,
  "\u2581absoluut": 5126,
  "\u2581grootte": 5127,
  "\u2581\u8abf\u6574": 5128,
  "\u2581aardig": 5129,
  "\u2581Sch": 5130,
  "\u2581gedwongen": 5131,
  "\u2581leerlingen": 5132,
  "\u3053\u3053": 5133,
  "\u2581broers": 5134,
  "\u2581\u4f9b\u7d66": 5135,
  "\u2581\u5909\u308f\u308a": 5136,
  "\u2581niveau": 5137,
  "\u2581\u62bc\u3057": 5138,
  "\u5c71": 5139,
  "\u2581verschijnen": 5140,
  "\u3055\u305b\u3066": 5141,
  "\u3066\u4e0b\u3055\u3044": 5142,
  "\u535a\u58eb": 5143,
  "\u2581Eerst": 5144,
  "\u2581betekende": 5145,
  "\u2581verklaren": 5146,
  "\u2581\u5f93\u3044": 5147,
  "\u2581wensen": 5148,
  "\u2581\u7cfb": 5149,
  "\u7d50\u679c": 5150,
  "\u3075": 5151,
  "\u2581slag": 5152,
  "\u2581\u55ab\u7159": 5153,
  "\u2581\u65bd\u8a2d": 5154,
  "\u2581\u795e\u7d4c": 5155,
  "\u25811990": 5156,
  "\u2581h": 5157,
  "\u2581waarheden": 5158,
  "\u2581\u9006": 5159,
  "\u5165\u308c": 5160,
  "\u2581\u53ce\u5bb9": 5161,
  "\u2581\u540c\u610f": 5162,
  "\u305f\u306e": 5163,
  "\u2581Heilige": 5164,
  "\u2581Jo": 5165,
  "\u2581vertel": 5166,
  "\u306a\u305c": 5167,
  "\u2581beantwoorden": 5168,
  "\u2581percent": 5169,
  "\u2581wetenschappers": 5170,
  "\u9283": 5171,
  "\u2581\u6839\u62e0": 5172,
  "\u2581Efezi\u00ebrs": 5173,
  "Je": 5174,
  "\u2581\u8a8d\u3081\u308b": 5175,
  "\u2581belangen": 5176,
  "\u2581medicijnen": 5177,
  "\u2581zulk": 5178,
  "\u258118:": 5179,
  "\u2581stroom": 5180,
  "ft": 5181,
  "\u2581breng": 5182,
  "\u2581overtuiging": 5183,
  "\u610f": 5184,
  "\u7acb\u3061": 5185,
  "vol": 5186,
  "\u2581overblijfsel": 5187,
  "\u2581regeren": 5188,
  "\u2581duur": 5189,
  "\u2581vijftig": 5190,
  "\u52a9\u3051": 5191,
  "ber": 5192,
  "\u30bf\u30f3": 5193,
  "\u30ea\u30b9": 5194,
  "\u5c0f\u3055\u306a": 5195,
  "\u2581nederig": 5196,
  "\u2581\u7d76\u5bfe": 5197,
  "\u3057\u305f\u306e": 5198,
  "\u5974": 5199,
  "ir": 5200,
  "\u2581Markus": 5201,
  "\u2581Rustig": 5202,
  "\u2581zamen": 5203,
  "\u2581\u90e8\u65cf": 5204,
  "verantwoording": 5205,
  "\u2581Hand": 5206,
  "\u2581vriendschap": 5207,
  "\u305a\u3063\u3068": 5208,
  "\u2581Groot": 5209,
  "\u2581Vertel": 5210,
  "\u2581\u6559\u7406": 5211,
  "\u3067\u306e": 5212,
  "\u2581vroegen": 5213,
  "\u2581\u5909\u3048\u308b": 5214,
  "\u2581proef": 5215,
  "\u30b2\u30fc\u30e0": 5216,
  "\u2581Afrikaanse": 5217,
  "\u2581\u5468\u56f2": 5218,
  "\u2581\u8d08\u308a\u7269": 5219,
  "\u2581maart": 5220,
  "\u2581duurde": 5221,
  "\u2581schriftuurlijke": 5222,
  "\u2581\u6253\u3061": 5223,
  "\u2581\u9053\u8def": 5224,
  "\u306a\u304f\u3066": 5225,
  "\u2581aangelegenheden": 5226,
  "\u2581verslagen": 5227,
  "\u2581\u6587\u5b57": 5228,
  "\u2581\u662f\u8a8d": 5229,
  "\u2581\u9078\u3076": 5230,
  "\u2581geduld": 5231,
  "\u82e5\u3044": 5232,
  "\u2581bestaande": 5233,
  "\u5165": 5234,
  "\u2581bloemen": 5235,
  "\u2581\u6c5a\u308c": 5236,
  "\u2581\u8179": 5237,
  "\u2581\u6839": 5238,
  "\u2581dak": 5239,
  "\u2581\u898b\u305b": 5240,
  "\u306b\u5bfe\u3059\u308b": 5241,
  "ba": 5242,
  "\u2581godsdienst": 5243,
  "\u2581serieus": 5244,
  "\u2581y": 5245,
  "\u2581\u4ee3\u308f\u308a": 5246,
  "\u2581\u547c\u3093": 5247,
  "\u3059\u308b\u305f\u3081\u306b": 5248,
  "\u670d": 5249,
  "\u2581Y": 5250,
  "\u2581melk": 5251,
  "\u2581situaties": 5252,
  "\u2581\u571f": 5253,
  "\u2581\u8010\u3048": 5254,
  "\u2581Kunt": 5255,
  "19": 5256,
  "\u2581vereist": 5257,
  "\u306b\u3088\u308b": 5258,
  "\u2581\u5ba3\u8a00": 5259,
  "\u2581\u96c6\u307e\u308a": 5260,
  "\u2581Waarschijnlijk": 5261,
  "\u2581\u8abf\u3079\u308b": 5262,
  "\u2581bevestigd": 5263,
  "\u2581oren": 5264,
  "\u2581treden": 5265,
  "\u2581veeleer": 5266,
  "\u2581\u79d8\u5bc6": 5267,
  "\u2581Brazili\u00eb": 5268,
  "\u2581naartoe": 5269,
  "\u2581\u3082\u3089\u3046": 5270,
  "\u2581neiging": 5271,
  "\u2581zuiden": 5272,
  "\u2581\u6027\u7684": 5273,
  "\u2581\u6a5f\u80fd": 5274,
  "\u2581\u767e\u79d1": 5275,
  "\u2581getal": 5276,
  "\u2581moe": 5277,
  "\u5024": 5278,
  "\u8ab0\u304b": 5279,
  "\u2581stemmen": 5280,
  "\u2581\u4ee5\u4e0b": 5281,
  "\u2581\u5230\u6765": 5282,
  "\u7d04": 5283,
  "\u2581tong": 5284,
  "ner": 5285,
  "\u2581ontdekken": 5286,
  "\u2581\u30bf": 5287,
  "\u258147": 5288,
  "\u2581\u4e57\u3063": 5289,
  "Ja": 5290,
  "\u2581methode": 5291,
  "\u2581tranen": 5292,
  "\u2581\u5264": 5293,
  "\u71b1": 5294,
  "\u2581dichter": 5295,
  "\u2581hiermee": 5296,
  "\u2581Bel": 5297,
  "\u2581gevaren": 5298,
  "\u2581zolang": 5299,
  "\u3055\u308c\u3066\u3044\u307e\u3059": 5300,
  "\u2581\u5f7c\u3092": 5301,
  "\u2581\u6b63\u5f53": 5302,
  "\u2581\u6d41\u308c": 5303,
  "\u2581Leg": 5304,
  "\u2581Red": 5305,
  "\u2581geslagen": 5306,
  "\u2581uiting": 5307,
  "\u2581\u50d5\u306e": 5308,
  "\u7814\u7a76": 5309,
  "\u3092\u898b\u308b": 5310,
  "\u30ac\u30fc": 5311,
  "\u2581gehoorzaamheid": 5312,
  "\u2581\u898b\u3044\u3060\u3059": 5313,
  "\u2581herinner": 5314,
  "\u2581\u8868": 5315,
  "\u2581profeten": 5316,
  "\u2581veertig": 5317,
  "\u2581\u305f\u3063": 5318,
  "\u4eca\u65e5": 5319,
  "\u2581\u304b\u304b\u308a": 5320,
  "\u9078\u629e": 5321,
  "\u2581algemene": 5322,
  "\u2581\u6709\u5bb3": 5323,
  "\u307e\u308b": 5324,
  "\u30d0\u30f3": 5325,
  "\u4f8b": 5326,
  "\u2581hangt": 5327,
  "\u2581\u52d5\u304b\u3055": 5328,
  "isten": 5329,
  "\u2581opnemen": 5330,
  "\u2581\u7dda": 5331,
  "\u3092\u3059\u308b": 5332,
  "\u30c3\u30af\u30b9": 5333,
  "\u2581daad": 5334,
  "\u2581veranderde": 5335,
  "\u304b\u3089\u3060": 5336,
  "\u5148\u751f": 5337,
  "J": 5338,
  "We": 5339,
  "\u2581markt": 5340,
  "\u4eba\u3092": 5341,
  "\u2581\u30e2": 5342,
  "\u2581\u6b8b\u3063": 5343,
  "\u3053\u3068\u304c\u3067\u304d\u307e\u3059": 5344,
  "\u4e00\u7dd2\u306b": 5345,
  "\u2581treffen": 5346,
  "\u4ef2\u9593": 5347,
  "\u2581totale": 5348,
  "\u3069\u3093\u306a": 5349,
  "\u5473": 5350,
  "\u2581cultuur": 5351,
  "\u2581gestolen": 5352,
  "\u2581\u3082\u305f\u3089\u3055": 5353,
  "\u2581ophouden": 5354,
  "\u2581\u62b5\u6297": 5355,
  "\u2581\u6c7a\u3081": 5356,
  "\u2581naaste": 5357,
  "\u2581\u958b\u767a": 5358,
  "\u3066\u304f\u3060\u3055\u3044": 5359,
  "\u2581vorderingen": 5360,
  "\u2581\u4e2d\u6bd2": 5361,
  "\u2581\u9b45\u529b": 5362,
  "\u308f\u308c\u306f": 5363,
  "\u6226\u4e89": 5364,
  "tra": 5365,
  "\u2581Haal": 5366,
  "\u2581geopend": 5367,
  "\u2581luidt": 5368,
  "\u2581nadruk": 5369,
  "\u2581trok": 5370,
  "\u2581\u4e8b\u304c\u3089": 5371,
  "\u2581hierover": 5372,
  "\u2581verklaard": 5373,
  "\u2581overwinning": 5374,
  "\u2581\u5f15\u304d\u7d9a\u304d": 5375,
  "\u866b": 5376,
  "\u2581harte": 5377,
  "\u2581schrijf": 5378,
  "\u2581\u5e7e\u3089\u304b": 5379,
  "\u30e1\u30fc\u30eb": 5380,
  "\u5206\u306e": 5381,
  "sp": 5382,
  "\u2581immoraliteit": 5383,
  "\u2581stevig": 5384,
  "\u2581\u902e\u6355": 5385,
  "\u3089\u308c": 5386,
  "door": 5387,
  "\u2581beschrijving": 5388,
  "\u2581\u4fe1\u3058\u308b": 5389,
  "\u4eba\u306b": 5390,
  "\u2581moeders": 5391,
  "\u25816,7": 5392,
  "\u2581arme": 5393,
  "\u2581\u8cdc\u7269": 5394,
  "\u2581overeen": 5395,
  "\u3082\u3042\u308b": 5396,
  "\u4eba\u3005": 5397,
  "\u2581\u6a5f\u68b0": 5398,
  "\u3042\u306a\u305f\u306b": 5399,
  "\u4e00\u4eba": 5400,
  "\u5f7c\u5973\u306e": 5401,
  "\u2581grens": 5402,
  "\u2581trein": 5403,
  "\u2581\u4e86\u89e3": 5404,
  "\u2581\u5712": 5405,
  "\u2581\u5e02\u6c11": 5406,
  "\u6559": 5407,
  "\u2581\u63a2\u3057": 5408,
  "\u2581\u767a\u8868": 5409,
  "\u2581\u9001\u308a": 5410,
  "\u304d\u305f": 5411,
  "\u2581con": 5412,
  "\u2581Kon": 5413,
  "\u2581generatie": 5414,
  "\u2581tijdje": 5415,
  "\u2581waaronder": 5416,
  "\u2581\u30d5": 5417,
  "\u5cf6": 5418,
  "ering": 5419,
  "\u2581scholen": 5420,
  "\u2581\u30c9\u30a2": 5421,
  "\u30d2": 5422,
  "\u2581voorkeur": 5423,
  "\u7686": 5424,
  "\u2581beroep": 5425,
  "\u2581schepselen": 5426,
  "\u2581\u6e56": 5427,
  "\u30d4": 5428,
  "\u2581post": 5429,
  "\u2581gewoonten": 5430,
  "\u2581Bent": 5431,
  "\u2581uitnodiging": 5432,
  "\u2581\u7e70\u308a\u8fd4\u3057": 5433,
  "\u2581\u8fd1\u3065\u304f": 5434,
  "ium": 5435,
  "\u30c3\u30d7": 5436,
  "\u2581opgetekend": 5437,
  "\u2581\u904e\u3054\u3057": 5438,
  "\u2581sporen": 5439,
  "\u2581snelle": 5440,
  "\u2581visioen": 5441,
  "\u2581negatieve": 5442,
  "\u2581betaald": 5443,
  "\u2581\u6bba\u3055": 5444,
  "\u2581schenkt": 5445,
  "\u3064\u304b": 5446,
  "tegenwoordigheid": 5447,
  "\u2581\u61f2\u3089\u3057\u3081": 5448,
  "\u30d3\u30eb": 5449,
  "\u2581as": 5450,
  "\u2581besef": 5451,
  "\u2581bevrijd": 5452,
  "\u591a\u304f": 5453,
  "bo": 5454,
  "\u2581\u69d8\u5b50": 5455,
  "\u59bb": 5456,
  "\u696d": 5457,
  "\u9055\u3044": 5458,
  "if": 5459,
  "\u2581Con": 5460,
  "\u2581afbeelding": 5461,
  "\u2581\u8650\u5f85": 5462,
  "\u304b\u3082\u3057\u308c\u307e\u305b\u3093": 5463,
  "\u2581\u884c\u304b": 5464,
  "ont": 5465,
  "\u2581bevrijden": 5466,
  "\u2581\u984c\u3059\u308b": 5467,
  "\u2581kostbare": 5468,
  "\u2581\u30b3\u30f3": 5469,
  "\u2581\u8aed\u3057": 5470,
  "\u2581geplaatst": 5471,
  "\u2581vertrekken": 5472,
  "\u2581\u3084\u3081\u308d": 5473,
  "\u2581waaruit": 5474,
  "\u3061\u3087\u3063\u3068": 5475,
  "\u898b\u305f": 5476,
  "li": 5477,
  "\u2581Itali\u00eb": 5478,
  "\u2581\u3081": 5479,
  "\u2581\u8a2a\u308c": 5480,
  "\u2581spoedig": 5481,
  "\u2581\u671b\u307f": 5482,
  "\u2581\u6c17\u3065\u3044": 5483,
  "\u3067\u304d\u305f": 5484,
  "\u30b7\u30b9\u30c6\u30e0": 5485,
  "\u4f5c": 5486,
  "\u2581centimeter": 5487,
  "\u2581dagelijkse": 5488,
  "\u2581\u304a\u5b50\u3055\u3093": 5489,
  "\u2581\u30d2": 5490,
  "\u2581\u5b89\u5b9a": 5491,
  "13": 5492,
  "ger": 5493,
  "\u2581Af": 5494,
  "\u2581duurt": 5495,
  "\u3059\u308b\u3093\u3060": 5496,
  "\u7a2e": 5497,
  "ging": 5498,
  "niet": 5499,
  "\u2581\u6bb5\u968e": 5500,
  "\u2581\u5230\u7740": 5501,
  "\u25817,": 5502,
  "\u2581Beschouw": 5503,
  "Hoe": 5504,
  "toe": 5505,
  "\u2581aanvallen": 5506,
  "\u2581ontwerp": 5507,
  "\u2581\u7a4d\u6975": 5508,
  "\u258127:": 5509,
  "\u2581\u88ab\u5bb3": 5510,
  "\u2581woonde": 5511,
  "\u306a\u3093\u3067\u3059": 5512,
  "\u7b49": 5513,
  "\u898b\u3066": 5514,
  "\u2581\u5730\u4f4d": 5515,
  "\u2581\u8a2d\u8a08": 5516,
  "ant": 5517,
  "\u2581verdient": 5518,
  "\u2581\u4f1a\u8b70": 5519,
  "\u30c6\u30a3\u30fc": 5520,
  "kamer": 5521,
  "\u2581droeg": 5522,
  "\u2581theorie": 5523,
  "\u3056": 5524,
  "\u307e\u3063": 5525,
  "\u2581\u7a2e\u3005": 5526,
  "\u2581oogst": 5527,
  "\u2581toorn": 5528,
  "\u2581\u5bfe\u8c61": 5529,
  "\u2581\u898b\u89e3": 5530,
  "ah": 5531,
  "\u2581\u30d3\u30eb": 5532,
  "\u2581\u5143\u6c17": 5533,
  "\u2581\u5e74\u9f62": 5534,
  "\u3060\u3068\u601d\u3046": 5535,
  "\u3042\u308a": 5536,
  "\u601d\u3044": 5537,
  "\u2581stammen": 5538,
  "\u2581\u5f79\u7acb\u3061": 5539,
  "\u2581\u6b63\u5f0f": 5540,
  "\u2581Belgi\u00eb": 5541,
  "\u2581\u3054\u3081\u3093\u306a\u3055\u3044": 5542,
  "\u2581\u610f\u56f3": 5543,
  "\u2581\u30a8\u30a4\u30ba": 5544,
  "\u2581\u4e00\u6642": 5545,
  "\u72b6\u6cc1": 5546,
  "\u2581volharding": 5547,
  "\u2581\u4f5c\u3089": 5548,
  "\u2581\u30de\u30bf": 5549,
  "\u2581Verdomme": 5550,
  "\u2581praktijken": 5551,
  "\u2581\u25c6": 5552,
  "\u2581\u304b\u305f": 5553,
  "\u3055\u3048": 5554,
  "\u306b\u884c\u3063\u3066": 5555,
  "11": 5556,
  "\u2581factor": 5557,
  "\u2581onderweg": 5558,
  "\u2581\u540c\u60c5": 5559,
  "\u2581\u89aa\u65cf": 5560,
  "\u258118.": 5561,
  "\u2581Samu\u00ebl": 5562,
  "\u2581herinnert": 5563,
  "\u2581vent": 5564,
  "\u2581\u5185\u5bb9": 5565,
  "\u2581verbergen": 5566,
  "\u2581\u6301\u305f": 5567,
  "\u2581\u9280\u884c": 5568,
  "\u5165\u308a": 5569,
  "\u2581\u30bf\u30a4\u30e0\u30ba": 5570,
  "\u2581begaan": 5571,
  "\u2581Had": 5572,
  "\u2581\u514b\u670d": 5573,
  "\u3059\u308b\u306e": 5574,
  "\u2581rein": 5575,
  "\u2581\u53ca\u3076": 5576,
  "\u307f\u305f\u3044\u306b": 5577,
  "ab": 5578,
  "\u2581\u8a9e\u3089": 5579,
  "\u258120.": 5580,
  "\u2581graf": 5581,
  "\u2581ijverig": 5582,
  "\u2581\u5f1f": 5583,
  "\u2581\u62b1\u3048": 5584,
  "\u3068\u601d\u3063\u305f": 5585,
  "\u2581Mooi": 5586,
  "\u2581\u8155": 5587,
  "\u2581\u5144": 5588,
  "\u2581\u5375": 5589,
  "\u653b\u6483": 5590,
  "\u2581machtige": 5591,
  "\u2581sterker": 5592,
  "\u2581\u8d16\u3044": 5593,
  "\u2581hoedanigheden": 5594,
  "\u2581optreden": 5595,
  "\u2581\u307b\u3093\u3068\u3046": 5596,
  "\u2581\u307e\u3059\u307e\u3059": 5597,
  "\u306e\u8a71": 5598,
  "\u2581\u795e\u3005": 5599,
  "\u2581heidense": 5600,
  "\u2581\u707d\u3044": 5601,
  "\u6575": 5602,
  "\u258175": 5603,
  "\u2581\u30c8\u30f3": 5604,
  "\u6765\u305f": 5605,
  "\u2581\u3044\u3051": 5606,
  "\u2581\u30a2\u30fc": 5607,
  "\u2581gezegend": 5608,
  "\u2581paard": 5609,
  "\u2581\u6bba\u3059": 5610,
  "\u51fa\u3055": 5611,
  "\u2581toename": 5612,
  "\u2581uitgenodigd": 5613,
  "\u2581warm": 5614,
  "\u3066\u3082": 5615,
  "\u2581Ken": 5616,
  "\u2581herinnering": 5617,
  "\u516c": 5618,
  "\u5207\u308c": 5619,
  "ek": 5620,
  "\u2581destijds": 5621,
  "\u5c0f": 5622,
  "\u8a33": 5623,
  "\u2581vierde": 5624,
  "\u2581\u5927\u91cf": 5625,
  "\u306f\u3082\u3046": 5626,
  "\u4e8c": 5627,
  "\u7d19": 5628,
  "\u2581offer": 5629,
  "\u2581ogenblik": 5630,
  "\u2581\u6271\u3046": 5631,
  "\u8ab0": 5632,
  "\u2581adem": 5633,
  "\u2581bevrijding": 5634,
  "\u2581rechten": 5635,
  "\u2581\u60b2\u3057\u307f": 5636,
  "\u304c\u3042\u308a": 5637,
  "\u307f\u3093\u306a": 5638,
  "\u5931": 5639,
  "\u3079\u304d": 5640,
  "\u2581\u50be\u3051": 5641,
  "lijkheden": 5642,
  "\u2581emoties": 5643,
  "\u2581\u5f37\u3081": 5644,
  "\u2581\u96a3\u4eba": 5645,
  "\u77e5\u3063\u3066\u3044\u308b": 5646,
  "\u2581donker": 5647,
  "\u2581\u5468\u308a": 5648,
  "\u2581\u6df1\u523b": 5649,
  "\u30a8\u30eb": 5650,
  "\u2581grenzen": 5651,
  "\u2581\u56fd\u9023": 5652,
  "\u305d\u308c\u304c": 5653,
  "\u793a": 5654,
  "=": 5655,
  "\u2581KDE": 5656,
  "\u2581eilanden": 5657,
  "\u2581snap": 5658,
  "\u2581\u5e78\u305b": 5659,
  "\u2581\u606f": 5660,
  "\u2581\u79c1\u9054\u306f": 5661,
  "\u2581duren": 5662,
  "\u2581uitleggen": 5663,
  "\u2581\u5730\u56f3": 5664,
  "gel": 5665,
  "Dat": 5666,
  "ER": 5667,
  "\u2581pioniers": 5668,
  "\u2581\u5206\u88c2": 5669,
  "\u2581\u5974\u306f": 5670,
  "\u2581\u670d": 5671,
  "\u3092\u6bba\u3059": 5672,
  "Wie": 5673,
  "\u2581waarschuwde": 5674,
  "\u2581wonderen": 5675,
  "\u2581\u3064\u304f": 5676,
  "\u2581\u5de5\u5834": 5677,
  "\u2581He": 5678,
  "\u2581\u5f7c\u306b": 5679,
  "\u2581\u6700": 5680,
  "\u2581\u8449": 5681,
  "\u5175": 5682,
  "\u2581onderzoekers": 5683,
  "\u2581\u3069\u3046\u3057\u305f": 5684,
  "\u3084\u3063\u3066": 5685,
  "\u2581beschrijft": 5686,
  "\u2581riep": 5687,
  "80": 5688,
  "\u2581luister": 5689,
  "\u2581\u4e0d\u53ef\u80fd": 5690,
  "\u2581\u601d\u3044\u3084\u308a": 5691,
  "\u76f4": 5692,
  "\u2581onderwezen": 5693,
  "\u2581standaard": 5694,
  "\u2581\u5e7b": 5695,
  "\u3057\u307e\u3057\u3087\u3046": 5696,
  "\u2581Co": 5697,
  "\u30b5\u30fc": 5698,
  "\u2581\u5165\u308c\u308b": 5699,
  "\u306f\u3069\u3053": 5700,
  "\u7523": 5701,
  "\u25815,000": 5702,
  "\u2581\u5b9f\u306f": 5703,
  "\u2581\u7279\u5fb4": 5704,
  "\u5922": 5705,
  "\u72b6\u614b": 5706,
  "\u2581stukken": 5707,
  "\u2581verbaasd": 5708,
  "\u2581\u98df\u3079\u7269": 5709,
  "systeem": 5710,
  "\u2581gevangenen": 5711,
  "\u2581ijver": 5712,
  "\u2581veroordeeld": 5713,
  "\u6a29": 5714,
  "\u7a0b": 5715,
  "\u2581\u679c\u305f\u3057": 5716,
  "\u6c11": 5717,
  "\u2581\u6211\u3005\u304c": 5718,
  "\u2581\u75c7\u72b6": 5719,
  "\u308b\u3068": 5720,
  "\u30aa\u30f3": 5721,
  "\u2581meegemaakt": 5722,
  "\u2581\u3042\u306a\u305f\u306b": 5723,
  "\u2581GE": 5724,
  "\u2581Tim": 5725,
  "\u2581Welnu": 5726,
  "\u2581\u7d75": 5727,
  "\u2581instructies": 5728,
  "\u2581stop": 5729,
  "\u2581velddienst": 5730,
  "\u2581\u541b\u306b": 5731,
  "\u306f\u3069\u3046": 5732,
  "\u2581\u7acb\u6d3e": 5733,
  "\u5a18": 5734,
  "\u2581Kor": 5735,
  "\u2581\u7121\u7406": 5736,
  "\u2581\u843d\u3061": 5737,
  "\u2581\u6bdb": 5738,
  "\u2581\u5171\u540c": 5739,
  "\u2581\u518a\u5b50": 5740,
  "\u306b\u3088\u308a": 5741,
  "\u2581smaak": 5742,
  "\u2581\u30b7\u30b9\u30c6\u30e0": 5743,
  "\u5f37\u3044": 5744,
  "\u65e9\u304f": 5745,
  "\u2581buren": 5746,
  "\u2581\u5229\u5df1": 5747,
  "\u3015": 5748,
  "\u25812,000": 5749,
  "\u258121.": 5750,
  "\u2581gezag": 5751,
  "\u2581verre": 5752,
  "\u2581wagen": 5753,
  "\u2581\u4eca\u5ea6": 5754,
  "\u8a00": 5755,
  "0.000": 5756,
  "\u2581doeleinden": 5757,
  "\u2581missie": 5758,
  "\u2581\u5408\u308f\u305b": 5759,
  "\u2581\u7740": 5760,
  "\u2581\u7d9a\u3044": 5761,
  "uren": 5762,
  "\u2581Merk": 5763,
  "\u2581lichamelijke": 5764,
  "\u2581\u79c1\u306b\u306f": 5765,
  "\u2581\u9020\u3089": 5766,
  "\u30c7\u30f3": 5767,
  "\u9ce5": 5768,
  "\u2581Ar": 5769,
  "\u2581\u30d4": 5770,
  "\u7acb\u3066": 5771,
  "\u258110,": 5772,
  "\u2581Spanje": 5773,
  "\u578b": 5774,
  "\u2581Gebruik": 5775,
  "\u2581moogt": 5776,
  "\u3059\u304e": 5777,
  "\u7121\u3044": 5778,
  "\u7b2c": 5779,
  "\u2581bewaard": 5780,
  "\u2581\u3084\u3081\u3066": 5781,
  "\u2581\u610f\u5fd7": 5782,
  "\u2581\u6210\u3057\u9042\u3052": 5783,
  "\u2581erdoor": 5784,
  "\u2581verzekering": 5785,
  "\u2581\u4f9d\u7136": 5786,
  "\u2581\u6ce2": 5787,
  "\u2581\u8857": 5788,
  "\u25818,": 5789,
  "\u2581omgaan": 5790,
  "\u2581\u30ae\u30ec\u30a2\u30c7": 5791,
  "\u2581schatting": 5792,
  "\u2581\u5236\u5fa1": 5793,
  "\u30c3\u30af": 5794,
  "\u2581studeren": 5795,
  "\u2581\u96c6\u4e2d": 5796,
  "\u2581\u30a6": 5797,
  "\u2581\u52d5\u304d": 5798,
  "\u968a": 5799,
  "Mijn": 5800,
  "\u2581Let": 5801,
  "\u2581burgers": 5802,
  "\u2581gebroken": 5803,
  "\u2581rechtvaardigen": 5804,
  "\u2581ton": 5805,
  "\u2581\u767d": 5806,
  "\u2581Ter": 5807,
  "\u2581anti": 5808,
  "\u2581\u50b7": 5809,
  "\u3089\u306a\u3044": 5810,
  "\u2581Dag": 5811,
  "\u2581gezonden": 5812,
  "\u2581voegt": 5813,
  "\u2581\u53b3\u3057\u3044": 5814,
  "\u2581\u59b9": 5815,
  "\u2581\u5b88\u308a": 5816,
  "\u306c": 5817,
  "\u968e": 5818,
  "\u2581\u5217\u738b": 5819,
  "\u2581\u8cc7\u6599": 5820,
  "\u2581Verder": 5821,
  "\u5207\u308a": 5822,
  "\u5f37": 5823,
  "\u258119.": 5824,
  "\u2581\u81ea": 5825,
  "\u5f7c\u304c": 5826,
  "\u2581\u8208\u5473": 5827,
  "\u2581\u623b\u308b": 5828,
  "\u767e\u4e07": 5829,
  "bestand": 5830,
  "\u2581ontdekte": 5831,
  "\u2581zand": 5832,
  "\u2581\u5263": 5833,
  "\u2581\u65b9\u5411": 5834,
  "ina": 5835,
  "org": 5836,
  "ti": 5837,
  "\u2581Kort": 5838,
  "\u2581\u3064\u3065\u3051": 5839,
  "\u2581\u3069\u3046\u304b": 5840,
  "\u2581\u308f\u305f\u308b": 5841,
  "\u2581\u4e88\u5b9a": 5842,
  "\u5168\u90e8": 5843,
  "\u5fc3\u914d": 5844,
  "\u2581loyaliteit": 5845,
  "\u2581vergelijking": 5846,
  "\u2581\u53eb\u3073": 5847,
  "\u306e\u4e8b": 5848,
  "\u30c1\u30e3": 5849,
  "\u2581zak": 5850,
  "\u2581\u898b\u3044\u3060\u3057": 5851,
  "ai": 5852,
  "\u2581\u305d\u3046\u306d": 5853,
  "\u2581\u30d0\u30b9": 5854,
  "\u4e0a\u306e": 5855,
  "\u2581Azi\u00eb": 5856,
  "\u2581gebouwen": 5857,
  "\u3092\u6301\u3064": 5858,
  "En": 5859,
  "za": 5860,
  "\u2581sprake": 5861,
  "\u2581\u6307": 5862,
  "\u2581serie": 5863,
  "\u2581thema": 5864,
  "\u66dc": 5865,
  "\u258155": 5866,
  "\u2581\u3042\u305a\u304b\u308b": 5867,
  "\u2581\u3057\u3082\u3079": 5868,
  "\u2581\u9577\u5e74": 5869,
  "\u5225\u306e": 5870,
  "\u2581Zullen": 5871,
  "\u2581behulp": 5872,
  "\u2581prijzen": 5873,
  "\u2581vluchten": 5874,
  "\u4e00\u3064": 5875,
  "\u2581missen": 5876,
  "\u2581\u3086\u3048": 5877,
  "\u2581\u7570": 5878,
  "meer": 5879,
  "\u2581Jakob": 5880,
  "\u2581massa": 5881,
  "\u2581\u3068\u306b\u304b\u304f": 5882,
  "\u306f\u3042\u308b": 5883,
  "\u6280\u8853": 5884,
  "\u2581geschenk": 5885,
  "\u2581onrecht": 5886,
  "tel": 5887,
  "\u2581Kinderen": 5888,
  "\u2581\u6e1b\u5c11": 5889,
  "cu": 5890,
  "\u2581bladzijden": 5891,
  "\u2581\u30d9\u30f3": 5892,
  "\u306f\u3042\u308a\u307e\u305b\u3093": 5893,
  "\u2581geleidelijk": 5894,
  "\u2581hogere": 5895,
  "\u2581verplicht": 5896,
  "\u2581regeling": 5897,
  "\u2581soevereiniteit": 5898,
  "\u2581Ps": 5899,
  "\u2581\u30af\u30ea\u30b9\u30de\u30b9": 5900,
  "\u2581\u5931\u308f": 5901,
  "\u30e2\u30f3": 5902,
  "\u2581\u3044\u304f": 5903,
  "\u2581Tim\u00f3the\u00fcs": 5904,
  "\u2581beginsel": 5905,
  "\u2581kamp": 5906,
  "\u2581\u4f9d\u5b58": 5907,
  "\u2581Naties": 5908,
  "\u2581geloofde": 5909,
  "\u2581voldoen": 5910,
  "\u2581\u6210\u308b": 5911,
  "\u2581bezoekers": 5912,
  "\u2581\u307f\u306a\u3057": 5913,
  "val": 5914,
  "\u2581World": 5915,
  "\u2581adres": 5916,
  "\u2581naderen": 5917,
  "\u2581stelen": 5918,
  "\u2581zwart": 5919,
  "\u2581\u3055\u3089\u3055": 5920,
  "\u2581\u5e8a": 5921,
  "\u6587": 5922,
  "\u2581Europese": 5923,
  "\u2581beproeving": 5924,
  "\u2581onthouden": 5925,
  "\u2581\u540c\u6027": 5926,
  "\u2581\u7d42\u308f\u3063": 5927,
  "\u2581wit": 5928,
  "\u2581\u795e\u5b66": 5929,
  "\u2581\u8ecd\u968a": 5930,
  "\u305d\u3053\u306b": 5931,
  "\u5168": 5932,
  "\u2581Jane": 5933,
  "\u2581koningin": 5934,
  "\u5727": 5935,
  "25": 5936,
  "\u2581gesprekken": 5937,
  "\u2581\u3055\u3055\u3052\u308b": 5938,
  "\u2581\u30b9\u30dd\u30fc\u30c4": 5939,
  "\u2581\u4e00\u751f": 5940,
  "pa": 5941,
  "zal": 5942,
  "\u2581ontworpen": 5943,
  "\u2581\u6599\u7406": 5944,
  "\u3055\u308c\u3066\u308b": 5945,
  "ly": 5946,
  "\u2581middelbare": 5947,
  "\u2581passend": 5948,
  "\u2581\u7537\u5973": 5949,
  "\u2581Oost": 5950,
  "\u2581dikwijls": 5951,
  "\u2581vrezen": 5952,
  "\u2581\u96fb\u6c17": 5953,
  "\u8005\u304c": 5954,
  "\u2581kerel": 5955,
  "\u3057\u305f\u3093\u3060": 5956,
  "\u793e\u4f1a": 5957,
  "\u2581\u78ba\u8a8d": 5958,
  "\u5e2d": 5959,
  "\u2581BE": 5960,
  "\u2581leider": 5961,
  "\u2581terugkeren": 5962,
  "\u2581wijst": 5963,
  "\u2581zomaar": 5964,
  "\u2581lengte": 5965,
  "\u2581sp": 5966,
  "\u2581\u5206\u304b\u3063\u3066\u308b": 5967,
  "\u308f\u304b\u308b": 5968,
  "\u30af\u30b9": 5969,
  "\u2581leraren": 5970,
  "\u7d20\u6674\u3089\u3057\u3044": 5971,
  "\u2581aangesteld": 5972,
  "\u2581zelfbeheersing": 5973,
  "\u2581\u54f2\u5b66": 5974,
  "\u2581\u5f81\u670d": 5975,
  "\u25811980": 5976,
  "\u2581\u6a2a": 5977,
  "\u5f7c\u3089\u306f": 5978,
  "\u2581(...)": 5979,
  "\u25814,000": 5980,
  "\u2581bodem": 5981,
  "\u2581gebruikten": 5982,
  "\u2581\u7d9a\u304d": 5983,
  "\u65b9\u304c": 5984,
  "\u2581bladzijde": 5985,
  "\u2581ondersteunen": 5986,
  "\u2581\u7248": 5987,
  "\u3059\u3079\u304d": 5988,
  "\u884c\u52d5": 5989,
  "\u2581Mar": 5990,
  "\u2581leefde": 5991,
  "\u2581\u30bb\u30f3\u30c1": 5992,
  "mon": 5993,
  "\u2581schiet": 5994,
  "\u2581\u8868\u308f\u308c": 5995,
  "\u3042\u306a\u305f\u304c\u305f": 5996,
  "\u540c": 5997,
  "\u2581gearresteerd": 5998,
  "\u2581steken": 5999,
  "\u2581\u306e\u3061": 6000,
  "\u2581\u30ad": 6001,
  "\u2581\u7528\u610f": 6002,
  "\u2581beest": 6003,
  "\u2581inhoud": 6004,
  "\u2581\u4e8b\u60c5": 6005,
  "\u2581\u7206\u767a": 6006,
  "\u3068\u306a\u308b": 6007,
  "\u2581\u53ce\u7a6b": 6008,
  "IN": 6009,
  "\u2581echtpaar": 6010,
  "\u2581voegde": 6011,
  "\u2581\u7dca\u6025": 6012,
  "\u2581Japanse": 6013,
  "\u2581Zoek": 6014,
  "\u2581spullen": 6015,
  "\u30c6\u30f3": 6016,
  "si": 6017,
  "\u2581aangemoedigd": 6018,
  "\u2581nachts": 6019,
  "\u2581oor": 6020,
  "\u2581\u306a\u3093": 6021,
  "\u2581\u4e21\u65b9": 6022,
  "\u2581\u6c11\u65cf": 6023,
  "\u5206\u304b\u308b": 6024,
  "\u53d6\u308b": 6025,
  "\u201c": 6026,
  "\u2581\u8a89\u308c": 6027,
  "\u306e\u540d\u524d": 6028,
  "\u308b\u306e": 6029,
  "Q": 6030,
  "\u2581volgde": 6031,
  "\u2581\u51fa\u3059": 6032,
  "\u2581\u7bb4": 6033,
  "\u2581Midden": 6034,
  "\u2581praktisch": 6035,
  "\u2581tientallen": 6036,
  "\u2581\u30b8\u30e3\u30c3\u30af": 6037,
  "\u3093\u3060\u3051\u3069": 6038,
  "\u2581gehoor": 6039,
  "\u2581hangen": 6040,
  "\u2581negeren": 6041,
  "\u2581\u30b3\u30fc\u30d2\u30fc": 6042,
  "leven": 6043,
  "\u25815,6": 6044,
  "\u2581echtscheiding": 6045,
  "\u5144\u5f1f": 6046,
  "\u2581\u7acb\u3064": 6047,
  "\u2581directeur": 6048,
  "\u2581\u7d50\u3070": 6049,
  "\u2581VOOR": 6050,
  "\u2581gezelschap": 6051,
  "\u2581\u3046\u3048": 6052,
  "\u2581\u601d\u3044\u51fa\u3057": 6053,
  "\u2581\u6df7\u4e71": 6054,
  "\u2581\u8077": 6055,
  "\u4e8b\u304c": 6056,
  "\u96fb\u8a71": 6057,
  "\u2581evenwicht": 6058,
  "\u2581tevens": 6059,
  "\u2581wereldwijd": 6060,
  "\u2581\u884c\u304f\u305e": 6061,
  "\u2581\u98db\u3073": 6062,
  "\u3066\u306a\u3044": 6063,
  "\u77e5": 6064,
  "\u2581dromen": 6065,
  "\u4e8b\u4ef6": 6066,
  "\u2581geschikt": 6067,
  "\u2581\u968a": 6068,
  "\u30a4\u30a8\u30b9": 6069,
  "\u2581uiterst": 6070,
  "\u2581\u5909\u308f\u3063": 6071,
  "\u2581\u6539\u5584": 6072,
  "\u5f0f": 6073,
  "naam": 6074,
  "\u2581\u5de8\u5927": 6075,
  "\u3092\u53d6\u308a": 6076,
  "\u6b32\u3057\u3044": 6077,
  "\u2581Engelse": 6078,
  "\u2581leraar": 6079,
  "\u2581\u78ba\u304b\u306b": 6080,
  "\u2581\u901a": 6081,
  "\u307f\u305f\u3044\u306a": 6082,
  "\u540d\u524d": 6083,
  "lin": 6084,
  "\u2581uiteen": 6085,
  "\u2581\u30e8\u30b7\u30e5\u30a2": 6086,
  "\u5074": 6087,
  "\u2581\u5f37\u5236": 6088,
  "\u2581\u4ed8\u304d": 6089,
  "\u2581\u4f5c\u7528": 6090,
  "\u2581\u671b\u3080": 6091,
  "\u2581\u9000\u3051": 6092,
  "punt": 6093,
  "\u2581commentaar": 6094,
  "\u2581\u308f\u304b\u3089\u306a\u3044": 6095,
  "\u2581\u539f": 6096,
  "\u2581\u6255\u3063": 6097,
  "\u2581\u7a74": 6098,
  "\u306e\u307f": 6099,
  "\u5c40": 6100,
  "\u6709": 6101,
  "\u25814,5": 6102,
  "\u2581samenleving": 6103,
  "\u2581\u5343": 6104,
  "\u2581\u8a71\u3057\u5408\u3044": 6105,
  "\u2581dom": 6106,
  "\u2581titel": 6107,
  "\u2581\u30b5\u30e0": 6108,
  "\u2581\u62db\u5f85": 6109,
  "\u2581Joh": 6110,
  "\u2581\u805e\u3053\u3048": 6111,
  "\u30d8": 6112,
  "\u30db": 6113,
  "\u8ca0": 6114,
  "vo": 6115,
  "\u25811000": 6116,
  "\u2581bedoelde": 6117,
  "\u2581symbool": 6118,
  "\u2581zuurstof": 6119,
  "\u2581\u4eca\u5f8c": 6120,
  "\u2581toegevoegd": 6121,
  "\u2581\u5730\u7344": 6122,
  "\u2581\u5c40": 6123,
  "\u2581\u767a": 6124,
  "\u5b9f": 6125,
  "\u6307": 6126,
  "the": 6127,
  "\u2581Her": 6128,
  "\u2581sloeg": 6129,
  "\u2581\u7537\u5b50": 6130,
  "\u2581kennelijk": 6131,
  "\u2581predikingswerk": 6132,
  "\u306b\u884c\u3063\u305f": 6133,
  "\u2581\u4ed6\u306b": 6134,
  "\u2581\u53f8\u4f1a": 6135,
  "\u2581\u7267\u5e2b": 6136,
  "\u2581\u9928": 6137,
  "\u30bf\u30eb": 6138,
  "\u2581\u9a5a\u304d": 6139,
  "\u8a71\u3057": 6140,
  "\u8fd4\u3057": 6141,
  "\u25812,3": 6142,
  "\u2581vijftien": 6143,
  "\u5217": 6144,
  "\u2581identiteit": 6145,
  "\u2581slavernij": 6146,
  "\u2581\u3053\u3089": 6147,
  "\u2581\u6050\u6016": 6148,
  "\u2581bijzondere": 6149,
  "\u2581tenminste": 6150,
  "\u30c1\u30fc\u30e0": 6151,
  "\u5f15\u304d": 6152,
  "\u9996": 6153,
  "\u2581cijfers": 6154,
  "\u2581\u30d8\u30d6": 6155,
  "\u2581be\u00efnvloed": 6156,
  "\u2581ontving": 6157,
  "\u2581\u5bfe\u7167": 6158,
  "\u2581\u5f53\u305f\u308a": 6159,
  "\u3057\u306a\u3044\u3068": 6160,
  "\u2581Tijd": 6161,
  "\u2581\u6e05\u3044": 6162,
  "\u2581\u82e6\u75db": 6163,
  "\u30fc\u30eb": 6164,
  "\u6a5f\u80fd": 6165,
  "\u2581bewezen": 6166,
  "\u2581\u30d7\u30ed": 6167,
  "\u2581\u805e\u304b": 6168,
  "\u2581minstens": 6169,
  "\u2581november": 6170,
  "\u2581\u5236\u9650": 6171,
  "\u2581neus": 6172,
  "\u2581leveren": 6173,
  "\u3059\u308b\u306e\u306f": 6174,
  "\u305f\u304f": 6175,
  "min": 6176,
  "\u2581kilo": 6177,
  "\u2581klootzak": 6178,
  "\u304a\u524d": 6179,
  "\u884c\u3063\u305f": 6180,
  "kel": 6181,
  "\u258119,20": 6182,
  "\u2581VER": 6183,
  "\u2581inspanningen": 6184,
  "\u2581vet": 6185,
  "\u2581aangetroffen": 6186,
  "\u2581praktijk": 6187,
  "\u2581voeden": 6188,
  "\u2581\u30cb": 6189,
  "\u2581Openb": 6190,
  "\u2581verkeren": 6191,
  "\u2581woonden": 6192,
  "\u30b8\u30a7": 6193,
  "les": 6194,
  "\u2581\u30cd": 6195,
  "\u2581\u30d1\u30e9\u30c0\u30a4\u30b9": 6196,
  "\u2581\u8cbb\u7528": 6197,
  "\u30a2\u30e1\u30ea\u30ab": 6198,
  "\u5730\u7403": 6199,
  "del": 6200,
  "\u2581gewaarschuwd": 6201,
  "bij": 6202,
  "\u2581congressen": 6203,
  "\u2581liegen": 6204,
  "\u2581\u3053\u3063\u3061": 6205,
  "\u2581\u79c1\u9054": 6206,
  "\u304c\u3042\u3063\u3066": 6207,
  "\u2581Londen": 6208,
  "\u2581februari": 6209,
  "\u2581kinder": 6210,
  "\u2581\u6b8b\u3057": 6211,
  "\u2581\u8b66\u5b98": 6212,
  "\u2581Frank": 6213,
  "\u2581jarige": 6214,
  "\u3057\u3066\u3044\u306a\u3044": 6215,
  "\u6559\u3048": 6216,
  "\u8ad6": 6217,
  "\u2581Ka": 6218,
  "\u306b\u3059\u308b": 6219,
  "ty": 6220,
  "\u2581been": 6221,
  "\u2581zwak": 6222,
  "ck": 6223,
  "\u2581loyaal": 6224,
  "\u5f15": 6225,
  "\u771f": 6226,
  "\u2581bevonden": 6227,
  "\u2581code": 6228,
  "\u2581belasting": 6229,
  "\u2581bus": 6230,
  "\u2581toevoegen": 6231,
  "\u2581type": 6232,
  "\u2581\u8cea": 6233,
  "bi": 6234,
  "\u2581Bible": 6235,
  "gebied": 6236,
  "\u258116,17": 6237,
  "\u2581Almachtige": 6238,
  "\u2581Grieks": 6239,
  "\u2581Nieuw": 6240,
  "\u2581gevaarlijke": 6241,
  "\u2581\u77e5\u3063\u3066\u308b": 6242,
  "\u306b\u306a\u308a": 6243,
  "\u2581reeks": 6244,
  "\u3042\u306a\u305f\u65b9": 6245,
  "\u2581Begrepen": 6246,
  "\u2581OP": 6247,
  "\u2581\u3068\u3044\u3046\u306e\u306f": 6248,
  "jo": 6249,
  "\u25811919": 6250,
  "\u2581Se": 6251,
  "\u6df1\u3044": 6252,
  "\u2581Vooral": 6253,
  "\u2581\u30c1\u30fc\u30e0": 6254,
  "\u3042\u308a\u307e\u3059": 6255,
  "\u5fa1": 6256,
  "\u9650\u308a": 6257,
  "\u2581Mark": 6258,
  "\u2581maaltijd": 6259,
  "\u5371\u967a": 6260,
  "\u2581draaien": 6261,
  "\u2581\u901a\u5e38": 6262,
  "\u2581blijvende": 6263,
  "\u2581pro": 6264,
  "\u3044\u3084": 6265,
  "\u2581handel": 6266,
  "\u2581koud": 6267,
  "\u2581\u60aa\u884c": 6268,
  "\u2581\u7dad\u6301": 6269,
  "\u3057\u304b\u306a\u3044": 6270,
  "\u305d\u3093\u306a": 6271,
  "\u2581slagen": 6272,
  "\u2581vergeving": 6273,
  "\u2581\u98df": 6274,
  "\u592b": 6275,
  "\u2581glas": 6276,
  "\u8d77": 6277,
  "ert": 6278,
  "\u2581Daardoor": 6279,
  "\u2581EN": 6280,
  "\u2581\u5f8c\u308d": 6281,
  "\u305f\u308f": 6282,
  "\uff5e": 6283,
  "aire": 6284,
  "zin": 6285,
  "\u2581halve": 6286,
  "\u2581nut": 6287,
  "lijn": 6288,
  "\u2581Gilead": 6289,
  "\u2581sneeuw": 6290,
  "\u975e\u5e38\u306b": 6291,
  "rij": 6292,
  "\u2581\u5bdd": 6293,
  "\u3092\u6301\u3063\u3066\u3044\u308b": 6294,
  "\u5199\u771f": 6295,
  "\u2581\u30e1\u30c3\u30bb\u30fc\u30b8": 6296,
  "licht": 6297,
  "rit": 6298,
  "\u2581afzonderlijke": 6299,
  "\u2581\u5206\u304b\u3089\u306a\u3044": 6300,
  "\u2581\u5b9f\u9a13": 6301,
  "\u7136": 6302,
  "\u2581reputatie": 6303,
  "\u2581\u4eba\u6c17": 6304,
  "\u3060\u3057": 6305,
  "\u89b3": 6306,
  "\u91cd": 6307,
  "eur": 6308,
  "\u2581\u305d\u306e\u307e\u307e": 6309,
  "\u3055\u308c\u3066": 6310,
  "\u25811945": 6311,
  "\u2581geliefde": 6312,
  "\u2581pa": 6313,
  "\u2581\u4eab\u53d7": 6314,
  "\u2581\u56e3\u4f53": 6315,
  "\u2581\u5b66\u751f": 6316,
  "\u3072": 6317,
  "\u30bb\u30c3\u30c8": 6318,
  "\u30e9\u30b9": 6319,
  "\u8056": 6320,
  "\u2581\u3086\u3063\u304f\u308a": 6321,
  "\u2581\u30a4\u30f3": 6322,
  "\u2581\u5b89\u5fc3": 6323,
  "\u2581\u8a73\u3057\u304f": 6324,
  "*": 6325,
  "\u2581chemische": 6326,
  "\u2581versterken": 6327,
  "\u307e\u3059\u304b": 6328,
  "\u30ab\u30f3": 6329,
  "\u2581\u9054\u6210": 6330,
  "\u6211\u3005": 6331,
  "DE": 6332,
  "\u30d5\u30a7": 6333,
  "\u82b1": 6334,
  "\u2581geduldig": 6335,
  "\u2581stukje": 6336,
  "\u2581vereisten": 6337,
  "\u2581verlangens": 6338,
  "\u2581\u30db": 6339,
  "\u2581\u9996": 6340,
  "\u305d\u308c\u3067": 6341,
  "\u2581hiervoor": 6342,
  "\u2581hoofdstad": 6343,
  "\u2581vasthouden": 6344,
  "\u2581\u30ed\u30de": 6345,
  "\u2581\u6b20\u3051": 6346,
  "\u304b\u308c\u306f": 6347,
  "\u2581\u3055\u3093": 6348,
  "\u2581\u30ab\u30fc": 6349,
  "\u2581\u5404\u5730": 6350,
  "\u2581\u69cb\u6210": 6351,
  "\u2581\u8fce\u3048": 6352,
  "\u53cb\u4eba": 6353,
  "100": 6354,
  "\u2581verluidt": 6355,
  "\u2581volharden": 6356,
  "\u2581winkel": 6357,
  "16": 6358,
  "\u2581heerlijk": 6359,
  "\u2581lastig": 6360,
  "\u2581tanden": 6361,
  "\u2581Meneer": 6362,
  "\u2581boord": 6363,
  "\u2581\u5927\u4e08\u592b\u3060": 6364,
  "\u3088\u3046\u3068": 6365,
  "\u2581getrokken": 6366,
  "\u2581onbe": 6367,
  "\u2581\u53cd\u6620": 6368,
  "\u2581\u5927\u304d\u3044": 6369,
  "\u2581\u6b69\u3080": 6370,
  "\u4ffa": 6371,
  "maal": 6372,
  "\u306e\u4e00\u90e8": 6373,
  "\u5408": 6374,
  "\u2581James": 6375,
  "\u2581Nederland": 6376,
  "\u2581kampen": 6377,
  "\u2581\u5168\u3066\u306e": 6378,
  "\u89d2": 6379,
  "\u25811975": 6380,
  "\u2581opgelost": 6381,
  "\u2581\u4eca\u65e5\u306f": 6382,
  "\u2581\u898b\u3064\u3051\u308b": 6383,
  "\u3082\u306e\u3060": 6384,
  "\u30aa\u30fc": 6385,
  "\u884c\u3063\u3066": 6386,
  "ru": 6387,
  "\u2581Anders": 6388,
  "\u2581herstel": 6389,
  "\u30b8\u30e7\u30f3": 6390,
  "\u4e57": 6391,
  "\u89aa": 6392,
  "\u2581dochters": 6393,
  "\u2581\u304a\u7236\u3055\u3093": 6394,
  "\u2581\u30ac\u30b9": 6395,
  "\u2581\u5426\u5b9a": 6396,
  "\u2581\u5730\u9762": 6397,
  "\u2581\u618e\u3057\u307f": 6398,
  "\u2581\u8d64": 6399,
  "\u30b9\u30bf": 6400,
  "\u99ac": 6401,
  "ong": 6402,
  "\u2581afvragen": 6403,
  "\u2581carri\u00e8re": 6404,
  "\u2581rook": 6405,
  "\u2581oordelen": 6406,
  "\u2581\u308f\u304b\u3063\u3066\u308b": 6407,
  "\u2581Helaas": 6408,
  "\u2581Ongeveer": 6409,
  "\u2581bedreiging": 6410,
  "\u2581\u975e\u5e38\u306b": 6411,
  "\u304b\u304b\u308b": 6412,
  "\u5b89\u5168": 6413,
  "\u8005\u306e": 6414,
  "\u2581blijkbaar": 6415,
  "\u2581\u3056\u308b": 6416,
  "\u2581\u77e5\u3089\u306a\u3044": 6417,
  "\u2581slim": 6418,
  "\u2581\u5f85\u3066": 6419,
  "\u2581\u6570\u3005": 6420,
  "\u5168\u54e1": 6421,
  "\u6d3e": 6422,
  "\u2581Behalve": 6423,
  "\u2581Luk": 6424,
  "\u2581gewond": 6425,
  "\u90e8\u5c4b": 6426,
  "\u2581katholieken": 6427,
  "\u2581\u5927\u304d\u3055": 6428,
  "\u2581\u691c\u67fb": 6429,
  "\u2581\u6d3b\u7528": 6430,
  "\u2581\u8d77\u3053\u3057": 6431,
  "\u30c7\u30fc\u30bf": 6432,
  "\u2581Katholieke": 6433,
  "\u2581bevorderen": 6434,
  "\u2581\u6551\u51fa": 6435,
  "\u2581\u7dca\u5f35": 6436,
  "\u79d2": 6437,
  "\u2581verloor": 6438,
  "\u2581voorzieningen": 6439,
  "\u304b\u308c\u3089": 6440,
  "\u79c1\u306b": 6441,
  "\u81ea": 6442,
  "\u2581brieven": 6443,
  "\u2581geheugen": 6444,
  "\u2581gewonnen": 6445,
  "\u2581\u53d6\u308c": 6446,
  "\u304b\u308a": 6447,
  "\u5c45": 6448,
  "\u8857": 6449,
  "che": 6450,
  "\u2581kwesties": 6451,
  "aars": 6452,
  "ef": 6453,
  "\u2581ondersteuning": 6454,
  "\u2581\u30a8\u30eb": 6455,
  "\u2581\u611b\u3055": 6456,
  "\u2581\u7a93": 6457,
  "\u30cd\u30c3\u30c8": 6458,
  "teken": 6459,
  "\u2581Inderdaad": 6460,
  "\u2581uiterlijk": 6461,
  "\u304f\u308b": 6462,
  "\u4ea4": 6463,
  "\u4eba\u3067": 6464,
  "\u52d9": 6465,
  "\u2581ramp": 6466,
  "\u2581\u6255\u3044": 6467,
  "\u2581\u7fbd": 6468,
  "\u2581\u98f2\u307f": 6469,
  "\u4eba\u7269": 6470,
  "\u7834": 6471,
  "\u2581\u30c7\u30a3": 6472,
  "\u2581\u5ca9": 6473,
  "\u306d\u3048": 6474,
  "\u5b98": 6475,
  "\u2581Gen": 6476,
  "\u2581muren": 6477,
  "\u2581publicatie": 6478,
  "\u6642\u306f": 6479,
  "\u8996": 6480,
  "\u2581aspecten": 6481,
  "\u2581geconfronteerd": 6482,
  "\u2581verdeeld": 6483,
  "\u2581winter": 6484,
  "\u2581\u30b1": 6485,
  "\u2581\u5100\u5f0f": 6486,
  "\u2581\u53f2": 6487,
  "\u2581\u8a31\u53ef": 6488,
  "\u6b4c": 6489,
  "\u2581Welkom": 6490,
  "\u2581advocaat": 6491,
  "\u2581cre\u00ebren": 6492,
  "\u2581\u80cc": 6493,
  "\u2581rood": 6494,
  "\u2581\u590f": 6495,
  "\u8005\u3092": 6496,
  "\u8a3c\u62e0": 6497,
  "\u258111,": 6498,
  "\u2581onderworpen": 6499,
  "\u2581\u5c11\u306a\u3044": 6500,
  "\u7d44\u7e54": 6501,
  "\u2581Toe": 6502,
  "\u2581advies": 6503,
  "\u2581diverse": 6504,
  "\u2581losprijs": 6505,
  "\u541b\u306f": 6506,
  "\u2581diensten": 6507,
  "\u2581\u305d\u3046\u3060\u306a": 6508,
  "\u2581\u884c\u3053\u3046": 6509,
  "\u30c7\u30a3\u30fc": 6510,
  "\u606f\u5b50": 6511,
  "ron": 6512,
  "straat": 6513,
  "\u2581past": 6514,
  "\u2581\u5ba4": 6515,
  "\u2581genoegen": 6516,
  "\u2581overheid": 6517,
  "\u2581\u3080": 6518,
  "\u2581\u9650\u3089": 6519,
  "\u3057\u306a\u304b\u3063\u305f": 6520,
  "200": 6521,
  "\u25811985": 6522,
  "\u2581borst": 6523,
  "\u2581klasse": 6524,
  "\u53cb\u9054": 6525,
  "\u9031\u9593": 6526,
  "\u2581Messias": 6527,
  "\u2581gekocht": 6528,
  "18": 6529,
  "rie": 6530,
  "\u2581waardevol": 6531,
  "\u2581wraak": 6532,
  "\u2581\u7b54\u3048\u308b": 6533,
  "\u4fe1": 6534,
  "\u2581datum": 6535,
  "\u2581gediend": 6536,
  "\u2581\u3084\u3042": 6537,
  "\u306e\u306a\u3044": 6538,
  "\u30a2\u30fc": 6539,
  "\u2581Robert": 6540,
  "\u2581haal": 6541,
  "\u2581\u611f\u52d5": 6542,
  "\u2581\u88cf": 6543,
  "\u308f\u3051": 6544,
  "\u914d": 6545,
  "\u2581onbepaalde": 6546,
  "\u2581\u3042\u3044\u3060": 6547,
  "\u2581\u8b1b\u6f14": 6548,
  "\u3057\u3066\u304d\u305f": 6549,
  "\u30d1\u30fc": 6550,
  "\u5e74\u306b": 6551,
  "\u2581Bedenk": 6552,
  "\u2581Moeder": 6553,
  "\u2581hoorden": 6554,
  "\u2581\u6761\u4ef6": 6555,
  "\u3060\u3051\u3067\u3059": 6556,
  "\u5730\u57df": 6557,
  "\u2581voortreffelijk": 6558,
  "\u2581\u30b8\u30e3": 6559,
  "ley": 6560,
  "\u2581beheersen": 6561,
  "\u2581thee": 6562,
  "\u2581\u53cd\u9006": 6563,
  "\u66b4": 6564,
  "\u2581super": 6565,
  "\u2581\u4fe1\u6761": 6566,
  "\u2581waarna": 6567,
  "\u2581\u305d\u3070": 6568,
  "\u2581\u793c\u62dd": 6569,
  "\u76f8\u624b": 6570,
  "\u2581bureau": 6571,
  "\u2581menigte": 6572,
  "\u2581vrijwel": 6573,
  "\u2581\u52b1\u307f": 6574,
  "\u2581\u77f3\u6cb9": 6575,
  "\u74b0\u5883": 6576,
  "ies": 6577,
  "\u2581;": 6578,
  "\u2581\u5f90\u3005": 6579,
  "\u2581No": 6580,
  "\u2581meerdere": 6581,
  "\u2581virus": 6582,
  "\u6b7b\u3093\u3060": 6583,
  "\u2500": 6584,
  "\u2581Bo": 6585,
  "\u2581\u4ed8\u3044": 6586,
  "\u2581bal": 6587,
  "\u2581\u30c6": 6588,
  "ings": 6589,
  "\u2581plant": 6590,
  "\u2581\u3064\u304b": 6591,
  "\u2581\u9078\u3070": 6592,
  "\u2581Agent": 6593,
  "\u2581\u308f\u304b\u308b": 6594,
  "\u2581\u56f3\u7248": 6595,
  "\u2581\u79c1\u305f\u3061\u304c": 6596,
  "\u2581gast": 6597,
  "\u2581\u65e5\u66dc": 6598,
  "\u306e\u305f\u3081\u306e": 6599,
  "\u4ee5\u4e0a": 6600,
  "\u00e1": 6601,
  "\u2581Sa": 6602,
  "\u2581model": 6603,
  "\u2581\u6bd4\u3079": 6604,
  "\u3063\u3068": 6605,
  "\u5e97": 6606,
  "har": 6607,
  "ring": 6608,
  "\u2581Michael": 6609,
  "\u2581geesten": 6610,
  "\u2581gehoorzaam": 6611,
  "\u2581hoef": 6612,
  "\u2581\u30ac": 6613,
  "\u2581\u8868\u660e": 6614,
  "\u8cea\u554f": 6615,
  "\u2581gelukkige": 6616,
  "\u2581\u91cd": 6617,
  "\u30b0\u30eb\u30fc\u30d7": 6618,
  "70": 6619,
  "\u2581oppervlakte": 6620,
  "\u2581voormalige": 6621,
  "\u2581zocht": 6622,
  "\u3051\u308b": 6623,
  "\u30cc": 6624,
  "\u6211\u3005\u306f": 6625,
  "\u2581Schiet": 6626,
  "\u2581lachen": 6627,
  "\u7406\u89e3": 6628,
  "\u2581schadelijke": 6629,
  "\u2581\u3042\u3052": 6630,
  "\u304b\u308c\u3089\u306e": 6631,
  "\u5411": 6632,
  "\u00b7": 6633,
  "\u2581vertaald": 6634,
  "\u2581\u5dee\u3057\u4f38\u3079": 6635,
  "\u3092\u9078\u629e": 6636,
  "ard": 6637,
  "\u2581Bethel": 6638,
  "\u2581ontmoette": 6639,
  "\u2581patroon": 6640,
  "\u2581spoor": 6641,
  "\u2581werpen": 6642,
  "\u2581aanvaard": 6643,
  "\u2581begraven": 6644,
  "\u2581bestanden": 6645,
  "\u2581\u5931\u3044": 6646,
  "\u2581waardevolle": 6647,
  "\u3057\u3066\u3082": 6648,
  "\u2581gelijkenis": 6649,
  "\u2581\u5e73\u8861": 6650,
  "dy": 6651,
  "\u2581Juist": 6652,
  "\u2581opzichten": 6653,
  "\u2581oudste": 6654,
  "\u2581schepen": 6655,
  "\u2581\u63a8\u5b9a": 6656,
  "\u305f\u308a": 6657,
  "\u306a\u3044\u3088": 6658,
  "\u2581unieke": 6659,
  "\u2581\u4e2d\u592e": 6660,
  "\u2581\u4e73": 6661,
  "\u3053\u3068\u304c\u3067\u304d\u308b": 6662,
  "\u30e1\u30c3\u30bb\u30fc\u30b8": 6663,
  "\u89e3": 6664,
  "\u2581AIDS": 6665,
  "\u2581hierdoor": 6666,
  "\u2581\u304b\u306d": 6667,
  "\u2581\u6b21\u306e": 6668,
  "\u305f\u3061\u306f": 6669,
  "\u30d7\u30ed\u30b0\u30e9\u30e0": 6670,
  "\u8a18\u9332": 6671,
  "\u2581trekt": 6672,
  "\u2581\u697d\u3057\u3080": 6673,
  "\u3057\u304b\u3057": 6674,
  "\u541b\u306e": 6675,
  "\u2581dichtbij": 6676,
  "\u2581diende": 6677,
  "\u2581tenzij": 6678,
  "\u2581\u4e21": 6679,
  "\u3092\u3057\u305f": 6680,
  "\u8fba": 6681,
  "\u2581dansen": 6682,
  "\u2581dienaren": 6683,
  "\u2581trek": 6684,
  "\u2581\u5f7c\u3089\u304c": 6685,
  "\u304c\u3044\u3044": 6686,
  "\u2581Da": 6687,
  "\u2581media": 6688,
  "\u2581opzichte": 6689,
  "\u2581storm": 6690,
  "\u2581\u591a": 6691,
  "\u2581\u98f2\u3080": 6692,
  "ang": 6693,
  "\u2581Jozua": 6694,
  "\u2581luistert": 6695,
  "\u2581\u3044\u308f\u3086\u308b": 6696,
  "\u2581\u5b9f\u884c": 6697,
  "\u2581goddelozen": 6698,
  "\u2581herhaaldelijk": 6699,
  "\u2581traditionele": 6700,
  "\u2581verlichting": 6701,
  "\u2581verscheen": 6702,
  "\u2581\u89b3": 6703,
  "\u30d9\u30f3": 6704,
  "\u5f3e": 6705,
  "\u2581Binnen": 6706,
  "\u2581interessante": 6707,
  "\u2581regelingen": 6708,
  "\u2581\u5348\u5f8c": 6709,
  "\u58f2": 6710,
  "\u81ea\u7531": 6711,
  "\u2581dronken": 6712,
  "\u2581genoten": 6713,
  "\u2581weigeren": 6714,
  "\u3053\u3068\u3082": 6715,
  "\u2581films": 6716,
  "\u2581hetzij": 6717,
  "\u306f\u7121\u3044": 6718,
  "\u2581elementen": 6719,
  "\u2581onge": 6720,
  "\u2581zout": 6721,
  "\u2581\u767a\u751f": 6722,
  "\u2581vervullen": 6723,
  "\u2581\u0192": 6724,
  "\u2581\u8150\u6557": 6725,
  "\u2581\u305d": 6726,
  "\u2581\u809d\u8981": 6727,
  "\u65ad": 6728,
  "dig": 6729,
  "\u2581Paul": 6730,
  "\u2581leugen": 6731,
  "\u2581\u7f6e\u304f": 6732,
  "\u8aac\u660e": 6733,
  "\u30ec\u30d9\u30eb": 6734,
  "by": 6735,
  "\u2581verwoesting": 6736,
  "\u2581\u3059\u307f\u307e\u305b\u3093": 6737,
  "\u3053\u3093\u306a": 6738,
  "\u30b2": 6739,
  "\u7aef": 6740,
  "\u9650": 6741,
  "ius": 6742,
  "i\u00eb": 6743,
  "\u2581Gedurende": 6744,
  "\u2581papa": 6745,
  "\u2581waarderen": 6746,
  "\u2581\u8d85\u3048\u308b": 6747,
  "\u2581hierheen": 6748,
  "\u2581\u304a\u6bcd\u3055\u3093": 6749,
  "achtig": 6750,
  "\u2581help": 6751,
  "\u2581\u4eca\u307e\u3067": 6752,
  "\u2581\u81ea\u5206\u3067": 6753,
  "\u2581\u8a73\u7d30": 6754,
  "\u2581\u8caa\u6b32": 6755,
  "\u2581\u9023\u90a6": 6756,
  "\u3044\u3064\u3082": 6757,
  "oor": 6758,
  "\u2581\u9577\u3055": 6759,
  "\u2581Open": 6760,
  "\u2581Walter": 6761,
  "\u2581bar": 6762,
  "\u2581gisteren": 6763,
  "\u2581\u5584\u826f": 6764,
  "\u2581\u9023\u5408": 6765,
  "\u30d3\u30f3": 6766,
  "\u2581huilen": 6767,
  "\u2581seksueel": 6768,
  "\u2581vieren": 6769,
  "\u2581\u7269\u8a9e": 6770,
  "\u2581bloedtransfusie": 6771,
  "\u2581eigenaar": 6772,
  "\u2581exemplaren": 6773,
  "\u2581hoererij": 6774,
  "\u2581\u901a\u3063": 6775,
  "\u884c\u304d": 6776,
  "\u2581Ho": 6777,
  "\u2581brein": 6778,
  "\u2581\u8089\u4f53": 6779,
  "boek": 6780,
  "\u258114,": 6781,
  "\u25811989": 6782,
  "\u2581\u3084\u3059\u304f": 6783,
  "\u2581\u7206\u5f3e": 6784,
  "\u305a\u306b": 6785,
  "\u30ad\u30ea\u30b9\u30c8": 6786,
  "\u2581slang": 6787,
  "\u2581verbinding": 6788,
  "\u2581\u51ac": 6789,
  "\u2581\u6628\u5e74": 6790,
  "\u3061\u3083\u3093": 6791,
  "\u2581Land": 6792,
  "\u2581voorwerpen": 6793,
  "\u2581\u85ac\u7269": 6794,
  "\u306e\u4e0a\u306b": 6795,
  "\u258116,": 6796,
  "\u2581Bijna": 6797,
  "\u2581elf": 6798,
  "\u2581gelovigen": 6799,
  "\u2581\u30d3": 6800,
  "\u2581\u80cc\u666f": 6801,
  "\u30df\u30f3": 6802,
  "\u50d5": 6803,
  "\u5225": 6804,
  "\u258112,": 6805,
  "\u3059\u308b\u304b": 6806,
  "\u66f2": 6807,
  "chi": 6808,
  "\u2581harmonie": 6809,
  "\u2581pionier": 6810,
  "\u2581test": 6811,
  "\u2581trouwens": 6812,
  "\u2581\u6a29\u529b": 6813,
  "\u2581\u7121\u6599": 6814,
  "\u3082\u306e\u306f": 6815,
  "erd": 6816,
  "\u2581Sp": 6817,
  "\u2581overkomen": 6818,
  "14": 6819,
  "\u2581Wereld": 6820,
  "\u2581gescheiden": 6821,
  "\u2581\u5171\u901a": 6822,
  "\u2581\u5931\u3046": 6823,
  "\u306f\u3069\u3053\u3060": 6824,
  "vers": 6825,
  "\u2581Geweldig": 6826,
  "\u2581Rijk": 6827,
  "\u2581\u5c02\u5fc3": 6828,
  "\u2581\u7570\u6559": 6829,
  "\u2581\u77ed\u3044": 6830,
  "\u70ba\u306b": 6831,
  "\u738b\u56fd": 6832,
  "\u2581aangenomen": 6833,
  "\u2581nauw": 6834,
  "\u2581\u30c8\u30e9\u30c3\u30af": 6835,
  "\u2581\u8a87\u308a": 6836,
  "\u52d5\u7269": 6837,
  "\u2581120": 6838,
  "\u2581Amerikanen": 6839,
  "\u2581temperatuur": 6840,
  "\u2581\u304a\u304d\u3066": 6841,
  "\u2581\u305d\u3053\u306b": 6842,
  "\u2581\u754c": 6843,
  "\u8a00\u3063\u3066": 6844,
  "\u2581beperkingen": 6845,
  "\u2581gehaald": 6846,
  "\u2581\u30d4\u30fc\u30bf\u30fc": 6847,
  "\u2581\u7bb1": 6848,
  "\u2581\u9053\u7406": 6849,
  "\u30d0\u30eb": 6850,
  "\u2581belde": 6851,
  "\u2581exemplaar": 6852,
  "\u88c5\u7f6e": 6853,
  "\u2581drank": 6854,
  "\u2581leringen": 6855,
  "\u2581\u81ea\u554f": 6856,
  "\u2581eisen": 6857,
  "\u30d1\u30f3": 6858,
  "\u2581schatten": 6859,
  "\u2581vaker": 6860,
  "\u2581\u53f8\u6559": 6861,
  "\u2581\u820c": 6862,
  "\u2581voorbereid": 6863,
  "\u2581\u307b\u3057\u3044": 6864,
  "\u2581\u725b": 6865,
  "\u304c\u3042\u308c\u3070": 6866,
  "\u306f\u3057\u306a\u3044": 6867,
  "\u753a": 6868,
  "\u2581apparaat": 6869,
  "\u2581centrum": 6870,
  "\u2581historische": 6871,
  "\u304b\u3059": 6872,
  "\u2581bevond": 6873,
  "\u2581bom": 6874,
  "\u2581ontspanning": 6875,
  "\u3057\u3066\u304f\u308c\u308b": 6876,
  "\u258114,15": 6877,
  "\u2581gepubliceerd": 6878,
  "\u2581slaat": 6879,
  "\u2581vullen": 6880,
  "\u2581\u53d6\u3089": 6881,
  "\u2581Genootschap": 6882,
  "\u2581gelaten": 6883,
  "\u2581toegepast": 6884,
  "\u2581zelden": 6885,
  "\u2581\u6190\u308c\u307f": 6886,
  "\u2581\u907f\u96e3": 6887,
  "\u305d\u3046\u3067\u3059": 6888,
  "\u2581\u51e6\u7406": 6889,
  "\u2581\u5730\u4e0b": 6890,
  "\u2581\u5e30\u308b": 6891,
  "ator": 6892,
  "\u2581\u66ae\u3089\u3057": 6893,
  "\u308c\u306a\u3044": 6894,
  "\u5e73\u548c": 6895,
  "\u2581onafhankelijk": 6896,
  "\u2581\u9ad8\u3055": 6897,
  "\u7d50\u5a5a": 6898,
  "water": 6899,
  "\u2581schaduw": 6900,
  "\u2581\u306a\u3093\u3066": 6901,
  "\u795e\u6a29": 6902,
  "\u2581OK": 6903,
  "\u2581nakomelingen": 6904,
  "\u2581ruzie": 6905,
  "\u2581stoffen": 6906,
  "\u2581\u308f\u3056": 6907,
  "\u2581\u30b7\u30e5": 6908,
  "\u2581\u53cd": 6909,
  "\u2581aangetoond": 6910,
  "\u2581opgericht": 6911,
  "\u2581WAT": 6912,
  "\u2581agenten": 6913,
  "\u2581doorgaan": 6914,
  "\u2581melding": 6915,
  "\u2581wild": 6916,
  "\u2581zodra": 6917,
  "\u2581\u51fa\u3055": 6918,
  "hal": 6919,
  "\u2581crisis": 6920,
  "\u2581produceren": 6921,
  "\u2581\u80b2\u3066": 6922,
  "\u30fc\u30f3": 6923,
  "pel": 6924,
  "ug": 6925,
  "\u2581uitzien": 6926,
  "\u2581\u304d\u308c\u3044": 6927,
  "\u2581\u5225\u306e": 6928,
  "\u2581\u540c\u3058\u304f": 6929,
  "\u2581maatschappelijk": 6930,
  "\u2581eentje": 6931,
  "\u2581gebleken": 6932,
  "\u2581offici\u00eble": 6933,
  "\u2581tiener": 6934,
  "\u2581\u901a\u3058": 6935,
  "\u2581DOOR": 6936,
  "\u2581drukken": 6937,
  "\u2581\u5370\u8c61": 6938,
  "\u2581\u6575\u5bfe": 6939,
  "\u5b66\u6821": 6940,
  "ON": 6941,
  "\u2581\u3069\u304a\u308a": 6942,
  "\u2581\u30e4": 6943,
  "\u2581\u4e94": 6944,
  "\u2581\u958b\u3051": 6945,
  "\u901f": 6946,
  "he": 6947,
  "spel": 6948,
  "\u2581Testament": 6949,
  "\u2581oceaan": 6950,
  "\u2581realiteit": 6951,
  "\u2581\u8ddd\u96e2": 6952,
  "com": 6953,
  "\u2581Ne": 6954,
  "\u2581aanwezigheid": 6955,
  "\u2581keuken": 6956,
  "\u2581vaders": 6957,
  "\u2581\u6b8b\u3055": 6958,
  "\u6620\u753b": 6959,
  "\u25811973": 6960,
  "\u2581Rom": 6961,
  "\u2581\u3044\u304b\u304c": 6962,
  "\u2581\u6cd5\u738b": 6963,
  "\u3059\u3050": 6964,
  "\u6587\u5b57": 6965,
  "\u2581beslissen": 6966,
  "\u2581probeerden": 6967,
  "\u2581\u91cd\u3044": 6968,
  "eerden": 6969,
  "\u2581\u5893": 6970,
  "\u2581Pak": 6971,
  "\u2581\u3042\u3093\u305f\u306f": 6972,
  "\u2581\u4e0d\u6b63": 6973,
  "\u53f3": 6974,
  "onder": 6975,
  "\u2581logisch": 6976,
  "\u2581uitvoer": 6977,
  "\u306f\u3044": 6978,
  "\u58c1": 6979,
  "ast": 6980,
  "lijst": 6981,
  "rijk": 6982,
  "\u25811991": 6983,
  "\u258122.": 6984,
  "\u258152": 6985,
  "\u2581\u3082\u3089\u3044": 6986,
  "\u2581\u81ea\u5236": 6987,
  "\u964d": 6988,
  "\u2581aanwezigen": 6989,
  "\u2581\u3059\u3079\u3066\u306e": 6990,
  "\u304c\u7121\u3044": 6991,
  "\u3089\u3093": 6992,
  "\u2581\u3059\u3054\u3044": 6993,
  "\u2581\u72ec\u8eab": 6994,
  "\u306e\u3082": 6995,
  "\u2581kenmerken": 6996,
  "\u2581ma": 6997,
  "\u306b\u304a\u3044\u3066": 6998,
  "\u8ee2": 6999,
  "\u2581be\u00efnvloeden": 7000,
  "\u2581noodzakelijke": 7001,
  "\u2581taken": 7002,
  "\u2581toevlucht": 7003,
  "\u2581\u4ed8\u3051\u52a0\u3048": 7004,
  "\u2581\u8a34\u3048": 7005,
  "\u3063\u3066\u3053\u3068": 7006,
  "\u30b8\u30e3\u30fc": 7007,
  "\u30ec\u30a4": 7008,
  "\u4f7f\u7528": 7009,
  "\u8a00\u3044": 7010,
  "\u2581groene": 7011,
  "\u2581\u304b\u3051\u308b": 7012,
  "\u970a": 7013,
  "\u25811972": 7014,
  "\u2581leerstellingen": 7015,
  "\u2581mochten": 7016,
  "\u2581\u304a\u304d": 7017,
  "\u304b\u3051\u308b": 7018,
  "\u30a2\u30eb": 7019,
  "\u9aea": 7020,
  "\u2581berichtte": 7021,
  "\u2581pistool": 7022,
  "\u2581talloze": 7023,
  "\u2581waarschuwen": 7024,
  "\u2581\u30d0\u30ab": 7025,
  "\u6765\u3066": 7026,
  "\u2581119": 7027,
  "\u2581waartoe": 7028,
  "\u2581weigerde": 7029,
  "ING": 7030,
  "\u3068\u3066\u3082": 7031,
  "\u30a8\u30f3": 7032,
  "vis": 7033,
  "\u2581Nooit": 7034,
  "\u2581\u76ae\u819a": 7035,
  "age": 7036,
  "zij": 7037,
  "\u2581liefdevol": 7038,
  "\u2581\u3053\u3046\u3044\u3046": 7039,
  "\u2581\u5b8c\u6210": 7040,
  "\u7406": 7041,
  "\u2581genoemde": 7042,
  "\u2581lagen": 7043,
  "\u2581spraken": 7044,
  "\u2581\u30d8": 7045,
  "\u2581honden": 7046,
  "\u30d5\u30a9\u30eb\u30c0": 7047,
  "\u2581gewelddadige": 7048,
  "\u2581\u3053\u3081": 7049,
  "\u3064\u3082\u308a": 7050,
  "\u91ce\u90ce": 7051,
  "\u2581pre": 7052,
  "\u2581rijst": 7053,
  "\u2581wenden": 7054,
  "\u304b\u3089\u306a": 7055,
  "\u2581\u96c6\u307e\u3063": 7056,
  "\u3093\u3060\u308d\u3046": 7057,
  "tu": 7058,
  "\u00ebn": 7059,
  "\u258131:": 7060,
  "\u2581\u5b9d": 7061,
  "\u2581\u75b2\u308c": 7062,
  "\u30c3\u30b7\u30e5": 7063,
  "\u2581beroemde": 7064,
  "\u30b8\u30e5": 7065,
  "\u751f\u304d": 7066,
  "\u2581evangelie": 7067,
  "\u2581herkennen": 7068,
  "\u2581tieners": 7069,
  "\u2581\u5199\u672c": 7070,
  "\u2581\u884c\u306a\u3048\u308b": 7071,
  "\u2581beschermd": 7072,
  "\u2581loyale": 7073,
  "\u2581populair": 7074,
  "\u2581zichtbaar": 7075,
  "\u2581\u3068\u3044\u3046": 7076,
  "\u2581\u8ca1\u7523": 7077,
  "90": 7078,
  "\u2581brochure": 7079,
  "\u2581mes": 7080,
  "\u2581voren": 7081,
  "\u2581Vergeet": 7082,
  "\u2581bewogen": 7083,
  "\u2581symptomen": 7084,
  "\u2581\u6b63": 7085,
  "\u2581\u6d88\u3048": 7086,
  "\u3069\u3046\u3057\u3066": 7087,
  "AR": 7088,
  "\u2581betonen": 7089,
  "\u2581regelmatig": 7090,
  "\u2581verscheidenheid": 7091,
  "\u2581\u6b7b\u4f53": 7092,
  "jarige": 7093,
  "\u2581Komt": 7094,
  "\u2581\u3082\u3046\u4e00\u5ea6": 7095,
  "\u6ce2": 7096,
  "\u81ea\u7136": 7097,
  "\u8a71\u3057\u305f": 7098,
  "\u2581verduren": 7099,
  "\u2581waarschuwt": 7100,
  "\u2581\u3042\u308c\u306f": 7101,
  "\u2581\u547c\u5438": 7102,
  "\u2581\u5d29\u58ca": 7103,
  "\u2581\u672a": 7104,
  "\u3059\u308b\u306a": 7105,
  "\u306b\u95a2\u3059\u308b": 7106,
  "\u8aad": 7107,
  "\u2581grootse": 7108,
  "\u2581\u8a69\u7bc7": 7109,
  "\u2581\u8ca7\u56f0": 7110,
  "\u3058\u3083\u306a\u3044\u308f": 7111,
  "\u2581bronnen": 7112,
  "\u2581gemakkelijker": 7113,
  "\u2581leest": 7114,
  "\u2581positief": 7115,
  "\u2581succesvol": 7116,
  "\u2581\u539f\u5b50": 7117,
  "tal": 7118,
  "uur": 7119,
  "\u2581plaatsvinden": 7120,
  "\u2581\u65e5\u3005": 7121,
  "\u2581\u8ad6\u4e89": 7122,
  "\u843d": 7123,
  "pro": 7124,
  "\u25811986": 7125,
  "\u2581Gewoon": 7126,
  "\u2581ontdekking": 7127,
  "\u2581overleden": 7128,
  "\u308b\u304b": 7129,
  "\u5fc5\u8981\u304c\u3042\u308b": 7130,
  "\u75c5\u6c17": 7131,
  "\u2581600": 7132,
  "\u2581beweegt": 7133,
  "\u2581constant": 7134,
  "\u2581\u5e02\u5834": 7135,
  "bal": 7136,
  "\u25811992": 7137,
  "\u2581Ont": 7138,
  "\u2581boeren": 7139,
  "\u2581herinneringen": 7140,
  "\u2581liefderijk": 7141,
  "\u2581verenigd": 7142,
  "\u2581verwoest": 7143,
  "\u2581werking": 7144,
  ",(": 7145,
  "\u2581verspreid": 7146,
  "\u2581\u30bd\u9023": 7147,
  "\u2581\u6311\u6226": 7148,
  "\u2581\u898f\u5247": 7149,
  "\u4e0a\u304c\u308a": 7150,
  "\u2581Sovjet": 7151,
  "\u2581belooft": 7152,
  "\u2581gras": 7153,
  "\u2581scheiden": 7154,
  "\u2581stuurde": 7155,
  "\u2581Parijs": 7156,
  "\u2581pagina": 7157,
  "\u2581\u30b0": 7158,
  "\u2581\u5fc5\u305a\u3057\u3082": 7159,
  "\u4eba\u3060": 7160,
  "uk": 7161,
  "\u2581hierin": 7162,
  "\u2581\u307e\u3053\u3068": 7163,
  "\u2581\u9001\u308b": 7164,
  "\u304c\u3042\u308b\u306e": 7165,
  "\u30b6\u30fc": 7166,
  "\u2581beoefenen": 7167,
  "\u2581\u57f9\u3046": 7168,
  "\u3044\u307e\u305b\u3093": 7169,
  "\u3059\u308b\u3053\u3068": 7170,
  "\u2581Lam": 7171,
  "\u2581Tom": 7172,
  "\u2581kapot": 7173,
  "\u2581rots": 7174,
  "\u2581\u3053\u308c\u304b\u3089": 7175,
  "\u3042\u308a\u307e\u305b\u3093": 7176,
  "\u2581Eigenlijk": 7177,
  "\u2581Filippenzen": 7178,
  "\u2581overspel": 7179,
  "\u2581\u304d\u3061\u3093\u3068": 7180,
  "staat": 7181,
  "\u2581partij": 7182,
  "IJ": 7183,
  "tre": 7184,
  "\u2581\u305d\u306e\u5f8c": 7185,
  "\u2581\u751f\u304d\u6b8b\u308b": 7186,
  "\u2581grappig": 7187,
  "\u2581\u76f8\u7d9a": 7188,
  "\u2581\u7740\u3051": 7189,
  "\u307e\u305b\u3093\u3067\u3057\u305f": 7190,
  "\u3089\u305b": 7191,
  "\u2581uiten": 7192,
  "\u2581\u3044\u3064\u304b": 7193,
  "\u2581\u5408\u8a08": 7194,
  "\u534a": 7195,
  "\u5909\u5316": 7196,
  "\u2581bedoelt": 7197,
  "\u2581\u3068\u3053\u3057\u3048": 7198,
  "\u2581\u5efa\u7bc9": 7199,
  "\u3044\u3063\u305f": 7200,
  "tisch": 7201,
  "\u00eb": 7202,
  "\u2581nederigheid": 7203,
  "\u2581\u3044\u3089": 7204,
  "\u2581\u4e03": 7205,
  "\u306e\u5bb6": 7206,
  "\u5ea7": 7207,
  "dienst": 7208,
  "net": 7209,
  "\u2581la": 7210,
  "\u2581vriendelijke": 7211,
  "\u2581\u4e00\u4f8b": 7212,
  "\u2581\u9244": 7213,
  "\u2581map": 7214,
  "\u2581vreselijk": 7215,
  "\u2581\u5206\u304b\u3089": 7216,
  "\u2581\u5c64": 7217,
  "\u2581\u78ba\u5b9f": 7218,
  "\u304b\u3089\u306d": 7219,
  "\u3082\u306a\u304f": 7220,
  "\u2581moreel": 7221,
  "\u2581verzamelen": 7222,
  "\u2581\u8cb7\u3046": 7223,
  "\u904e\u304e": 7224,
  "elen": 7225,
  "\u2581bood": 7226,
  "\u2581onrechtvaardig": 7227,
  "\u2581\u4ffa\u306b": 7228,
  "\u2581\u958b\u3044": 7229,
  "\u304c\u5fc5\u8981": 7230,
  "\u306a\u3051\u308c\u3070\u306a\u3089\u306a\u3044": 7231,
  "\u5b87\u5b99": 7232,
  "\u78ba\u8a8d": 7233,
  "\u2581heidenen": 7234,
  "\u2581\u534a\u5206": 7235,
  "\u2581\u5c5e\u3059\u308b": 7236,
  "\u2581afdeling": 7237,
  "\u2581moeilijker": 7238,
  "\u2581\u30cf\u30eb\u30de\u30b2\u30c9\u30f3": 7239,
  "\u2581\u6551\u308f": 7240,
  "\u2581\u707d\u5bb3": 7241,
  "\u3066\u304f\u308c\u308b": 7242,
  "\u2581Jonge": 7243,
  "\u2581onzichtbare": 7244,
  "\u306a\u306e\u3088": 7245,
  "\u2581ellende": 7246,
  "\u2581generaal": 7247,
  "\u2581\u52aa\u3081": 7248,
  "\u2581\u5c0e\u304f": 7249,
  "\u2581aanleiding": 7250,
  "\u2581bedacht": 7251,
  "\u2581lessen": 7252,
  "\u2581\u305f\u3060\u306e": 7253,
  "\u2581\u559c\u3070": 7254,
  "\u7559": 7255,
  "\u793e": 7256,
  "\u7d04\u675f": 7257,
  "\u2581ingesteld": 7258,
  "\u2581opmerkelijke": 7259,
  "\u2581uitmaken": 7260,
  "\u6bba": 7261,
  "\u8077": 7262,
  "\u2581gasten": 7263,
  "\u2581kanten": 7264,
  "\u2581zeventig": 7265,
  "\u2581\u3084\u3081\u308b": 7266,
  "\u2581\u6a19\u6e96": 7267,
  "\u2581\u6b74\u4ee3": 7268,
  "\u2581\u7b4b\u8089": 7269,
  "\u306a\u304f\u306a\u308b": 7270,
  "\u30ea\u30c3\u30af": 7271,
  "\u2581Har": 7272,
  "\u2581uitge": 7273,
  "\u2581\u5e74\u9593": 7274,
  "\u601d\u3046": 7275,
  "\u2581\u3084\u308a": 7276,
  "\u2581\u30af\u30bd": 7277,
  "\u2581\u30ed\u30fc": 7278,
  "\u2581\u5bc4\u305b": 7279,
  "\u2581\u611a\u304b": 7280,
  "\u2581\u30cf\u30fc": 7281,
  "\u2581afspraak": 7282,
  "\u2581benen": 7283,
  "\u2581bijbels": 7284,
  "\u2581\u7236\u3055\u3093": 7285,
  "\u2581\u7d1a": 7286,
  "\u30bc": 7287,
  "\u771f\u7406": 7288,
  "\u805e\u3044\u305f": 7289,
  "kracht": 7290,
  "\u2581gevecht": 7291,
  "\u2581schoot": 7292,
  "\u2581\u5a2f\u697d": 7293,
  "\u3053\u3068\u3067": 7294,
  "\u258172": 7295,
  "\u2581netwerk": 7296,
  "\u2581oorlogs": 7297,
  "\u2581\u523a\u6fc0": 7298,
  "\u2581\u533a\u57df": 7299,
  "\u2581\u5b9f\u8a3c": 7300,
  "\u2581\u65e5\u5e38": 7301,
  "\u30ac\u30b9": 7302,
  "\u51fa\u6765\u306a\u3044": 7303,
  "\u6e21": 7304,
  "\u3092\u4f5c\u308b": 7305,
  "\u2581Precies": 7306,
  "\u2581\u5909": 7307,
  "\u30c1\u30e3\u30fc": 7308,
  "\u30b7\u30f3": 7309,
  "au": 7310,
  "\u258113,14": 7311,
  "\u2581geroepen": 7312,
  "\u2581schoenen": 7313,
  "\u2581zuiver": 7314,
  "\u2581George": 7315,
  "\u2581dodelijke": 7316,
  "\u2581gepredikt": 7317,
  "\u2581graden": 7318,
  "\u2581hersteld": 7319,
  "\u2581oorzaken": 7320,
  "\u2581\u6551\u3046": 7321,
  "\u3064\u307e\u308a": 7322,
  "\u258123.": 7323,
  "\u258137:": 7324,
  "\u2581betrekkelijk": 7325,
  "\u2581kritiek": 7326,
  "\u2581zelfde": 7327,
  "\u2581\u30e9\u30f3": 7328,
  "\u2581\u623b\u308a": 7329,
  "\u2581\u6279\u5224": 7330,
  "\u2581\u82e6\u96e3": 7331,
  "\u5c64": 7332,
  "\u2581\u9375": 7333,
  "\u30ce\u30fc": 7334,
  "\u6301\u3061": 7335,
  "her": 7336,
  "\u2581\u5bfe": 7337,
  "\u2581\u6b7b\u3093\u3060": 7338,
  "\u2581\u7b87\u6240": 7339,
  "\u2581\u7f8a\u98fc\u3044": 7340,
  "\u2581\u9ed2": 7341,
  "\u258166": 7342,
  "\u2581bescheiden": 7343,
  "\u2581rand": 7344,
  "\u2581\u3053\u3093\u306b\u3061\u306f": 7345,
  "\u2581\u7559\u3081": 7346,
  "\u2581\u8208\u596e": 7347,
  "\u2581\u9858\u3046": 7348,
  "\u72af\u7f6a": 7349,
  "\u2581opgesloten": 7350,
  "\u2581straten": 7351,
  "\u2581tijdperk": 7352,
  "\u2581\u30dc": 7353,
  "\u2581\u8af8\u56fd": 7354,
  "\u2581aangenaam": 7355,
  "\u2581behoorlijk": 7356,
  "\u2581schadelijk": 7357,
  "\u2581zegenen": 7358,
  "\u2581\u6570\u5b57": 7359,
  "\u30ed\u30c3\u30af": 7360,
  "\u7d4c\u9a13": 7361,
  "\u96e2": 7362,
  "plaats": 7363,
  "\u2581nazi": 7364,
  "\u2581\u4ea4\u901a": 7365,
  "\u306f\u3068\u3066\u3082": 7366,
  "\u30c0\u30f3": 7367,
  "\u2581jaarlijks": 7368,
  "\u2581\u30d3\u30c7\u30aa": 7369,
  "\u2581\u5de3": 7370,
  "\u2581\u95d8\u3044": 7371,
  "\u25811971": 7372,
  "\u25811993": 7373,
  "\u2581Spr": 7374,
  "\u2581gereed": 7375,
  "\u2581\u4f55\u5343": 7376,
  "\u2581\u63b2\u8f09": 7377,
  "\u2581\u796d\u308a": 7378,
  "\u2581\u8aac": 7379,
  "\u30a6\u30b9": 7380,
  "\u25811974": 7381,
  "\u2581ras": 7382,
  "\u2581schitterend": 7383,
  "\u2581\u30d9\u30c3\u30c9": 7384,
  "\u2581\u4eca\u591c": 7385,
  "ip": 7386,
  "\u02b9": 7387,
  "\u2581\u4f4e\u3044": 7388,
  "\u2581\u5275\u4e16": 7389,
  "\u2581\u6e80\u305f\u3059": 7390,
  "\u2581\u7802": 7391,
  "17": 7392,
  "\u2581\u30a2\u30c9\u30d0\u30a4\u30b9": 7393,
  "mp": 7394,
  "que": 7395,
  "\u2581\u30aa\u30e9\u30f3\u30c0": 7396,
  "\u2581\u89e6\u308c": 7397,
  "\u3042\u306a\u305f\u304c\u305f\u306e": 7398,
  "\u2581Mess\u00edas": 7399,
  "\u2581doeltreffend": 7400,
  "\u2581ontwikkelde": 7401,
  "\u304c\u3063": 7402,
  "\u3057\u307e\u305b\u3093": 7403,
  "\u30d0\u30a4": 7404,
  "huwelijkspartner": 7405,
  "\u2581\u679a": 7406,
  "Nee": 7407,
  "\u258126:": 7408,
  "\u2581\u5168\u80fd": 7409,
  "\u2581\u5f7c\u5973\u3092": 7410,
  "\u306e\u4e8b\u3092": 7411,
  "\u5834\u5408\u306f": 7412,
  "\u2581verontschuldig": 7413,
  "\u2581\u30bd": 7414,
  "\u30d6\u30e9": 7415,
  "\u6d3b\u52d5": 7416,
  "\u884c\u70ba": 7417,
  "\u985e": 7418,
  "\u2581beslag": 7419,
  "\u2581meerderheid": 7420,
  "\u2581uitgevoerd": 7421,
  "\u2581vloer": 7422,
  "\u2581voorkomt": 7423,
  "\u2581\u30d7\u30ed\u30c6\u30b9\u30bf\u30f3\u30c8": 7424,
  "\u2581\u5b66\u3079": 7425,
  "\u30a2\u30c3\u30d7": 7426,
  "\u5408\u3063": 7427,
  "\u2581start": 7428,
  "\u2581\u306a\u305c\u304b": 7429,
  "\u2581\u3084\u3063\u3068": 7430,
  "\u2581\u308a": 7431,
  "\u2581\u8b58\u5225": 7432,
  "\u79d1\u5b66": 7433,
  "\u2581Ex": 7434,
  "\u2581opgebouwd": 7435,
  "\u2581\u30e1\u30fc\u30eb": 7436,
  "\u5b58\u5728": 7437,
  "\u6025": 7438,
  "ph": 7439,
  "\u25811995": 7440,
  "\u2581Eden": 7441,
  "\u2581lied": 7442,
  "\u2581onvolmaakte": 7443,
  "\u2581\u9078\u3073": 7444,
  "\u2581bedanken": 7445,
  "\u2581veilige": 7446,
  "\u2581vermeld": 7447,
  "\u2581\u8ffd\u3044": 7448,
  "\u8a71\u3059": 7449,
  "\u2581gemist": 7450,
  "\u2581kruis": 7451,
  "\u2581laatst": 7452,
  "\u2581stelsel": 7453,
  "\u2581\u30de\u30eb": 7454,
  "\u2581\u4fdd\u3063": 7455,
  "\u2581\u60aa\u304f": 7456,
  "\u547d\u4ee4": 7457,
  "\u826f\u304b\u3063\u305f": 7458,
  "\u8abf": 7459,
  "\u9662": 7460,
  "\u2581Prediker": 7461,
  "\u2581danken": 7462,
  "\u2581motor": 7463,
  "\u2581\u4f55\u6545": 7464,
  "\u30a8\u30cd\u30eb\u30ae\u30fc": 7465,
  "RA": 7466,
  "lig": 7467,
  "\u2581\u307e\u3063\u305f\u304f": 7468,
  "\u2581\u5dfb": 7469,
  "\u2581\u6e80\u305f\u3055": 7470,
  "\u653e": 7471,
  "\u97f3\u697d": 7472,
  "\u2581Slechts": 7473,
  "\u2581locatie": 7474,
  "\u2581zonne": 7475,
  "\u2581\u4ee5\u964d": 7476,
  "\u2581\u5e30\u3063": 7477,
  "\u2581\u6b7b\u5f8c": 7478,
  "po": 7479,
  "\u2581automatisch": 7480,
  "\u2581toegewezen": 7481,
  "\u521d\u3081\u3066": 7482,
  "\u70ba": 7483,
  "\u2581eindigen": 7484,
  "\u2581heren": 7485,
  "\u2581instellen": 7486,
  "\u2581\u91ce\u751f": 7487,
  "\u754c": 7488,
  "\u2581+": 7489,
  "\u2581Chinese": 7490,
  "\u2581samenwerken": 7491,
  "\u2581\u9752": 7492,
  "\u5e03": 7493,
  "\u8133": 7494,
  "\u2581betrekkingen": 7495,
  "\u2581herder": 7496,
  "\u2581\u504f\u898b": 7497,
  "\u2581\u6271\u3044": 7498,
  "\u3059\u308b\u308f": 7499,
  "\u500b": 7500,
  "\u5229": 7501,
  "\u2581Pardon": 7502,
  "\u2581blauwe": 7503,
  "\u2581\u5c11\u6570": 7504,
  "\u2581\u5de1\u56de": 7505,
  "\u2581\u697d": 7506,
  "\u4f1a\u793e": 7507,
  "oc": 7508,
  "\u2581zogenaamde": 7509,
  "\u2581\u88fd\u54c1": 7510,
  "\u2581\u8a08\u7b97": 7511,
  "\u2581navolgen": 7512,
  "\u2581\u51e6\u7f6e": 7513,
  "\u2581\u8cc7\u91d1": 7514,
  "fic": 7515,
  "\u2581aspect": 7516,
  "\u2581deskundigen": 7517,
  "\u2581opzieners": 7518,
  "\u2581vormde": 7519,
  "\u2581\u306a\u304f\u306a\u308b": 7520,
  "\u5e30\u308b": 7521,
  "\u5e74\u524d": 7522,
  "iek": 7523,
  "\u25811960": 7524,
  "\u2581Maakt": 7525,
  "\u2581donkere": 7526,
  "\u2581moedigen": 7527,
  "\u2581stuur": 7528,
  "\u2581enzovoort": 7529,
  "\u2581scheppen": 7530,
  "\u2581\u3044\u304b\u306b": 7531,
  "\u2581\u307c\u304f": 7532,
  "\u2581\u30d6": 7533,
  "\u2581\u95a2\u5fc3\u4e8b": 7534,
  "\u30b5\u30a4": 7535,
  "ag": 7536,
  "\u258124.": 7537,
  "\u2581Oceaan": 7538,
  "\u2581Rusland": 7539,
  "\u2581fysiek": 7540,
  "\u307f\u305f\u3044\u3060": 7541,
  "\u3084\u3064": 7542,
  "\u4e8c\u4eba": 7543,
  "\u2581afgebeeld": 7544,
  "\u2581metgezellen": 7545,
  "\u2581tegenstanders": 7546,
  "\u2581\u30ab\u30ea\u30d5\u30a9\u30eb\u30cb\u30a2": 7547,
  "\u2581\u30de\u30f3": 7548,
  "\u2581identificeren": 7549,
  "\u4eba\u751f": 7550,
  "\u2581\u3069\u3046\u3057\u305f\u306e": 7551,
  "\u2581\u8fd1\u6240": 7552,
  "\u4ed8\u304d": 7553,
  "\u2581methoden": 7554,
  "\u2581opmerkelijk": 7555,
  "\u2581\u3059\u3054\u304f": 7556,
  "\u3053\u3053\u306b\u3044\u308b": 7557,
  "\u3058\u3083\u306a\u304b\u3063\u305f": 7558,
  "\u5ddd": 7559,
  "\u90e8\u5206": 7560,
  "\u2581verspreiden": 7561,
  "\u2581\u3053\u308c\u3089\u306e": 7562,
  "\u2581\u9752\u5e74": 7563,
  "\u76ee\u306b": 7564,
  "\u2581opgegeven": 7565,
  "\u2581\u4e57\u308a": 7566,
  "\u2581\u6628\u65e5": 7567,
  "\u3042\u308a\u304c\u3068\u3046": 7568,
  "\u4ffa\u306e": 7569,
  "\u5f7c\u3092": 7570,
  "\u8b66\u5b98": 7571,
  "wetenschappelijk": 7572,
  "\u2581Tegenwoordig": 7573,
  "\u2581\u30df\u30ab": 7574,
  "\u306e\u4e2d": 7575,
  "jaar": 7576,
  "sche": 7577,
  "\u2581Aldus": 7578,
  "\u2581Val": 7579,
  "\u2581aannemen": 7580,
  "\u2581bedekt": 7581,
  "\u2581bedreigd": 7582,
  "\u2581stelden": 7583,
  "\u3084\u3063\u3066\u308b": 7584,
  "\u771f\u5b9f": 7585,
  "\u2581gepaard": 7586,
  "\u2581haten": 7587,
  "\u2581makkelijker": 7588,
  "\u2581\u64c1\u8b77": 7589,
  "\u30a2\u30c3\u30e9\u30fc\u306f": 7590,
  "\u8ab0\u3082": 7591,
  "\u2581Messiaanse": 7592,
  "\u2581rusten": 7593,
  "\u2581\u8a2d\u7acb": 7594,
  "\u8ff0": 7595,
  "\u2581Weer": 7596,
  "\u2581concentreren": 7597,
  "\u2581emotioneel": 7598,
  "\u2581opziener": 7599,
  "\u2581\u3042\u3075\u308c": 7600,
  "\u2581\u30b8\u30a7\u30fc\u30f3": 7601,
  "\u2581\u907a\u4f1d\u5b50": 7602,
  "\u30de\u30de": 7603,
  "ding": 7604,
  "\u2581Meester": 7605,
  "\u2581lijdt": 7606,
  "\u2581\u5f85\u3064": 7607,
  "\u2581kostbaar": 7608,
  "\u2581\u30cb\u30e5\u30fc": 7609,
  "\u2581\u5bcc\u3093": 7610,
  "\u4ed5\u4e8b\u3092": 7611,
  "Be": 7612,
  "\u25818,9": 7613,
  "\u2581Ma": 7614,
  "\u2581Me": 7615,
  "\u2581toegeven": 7616,
  "\u2581\u6271\u3063": 7617,
  "\u3061\u3083": 7618,
  "\u3066\u3044\u307e\u3057\u305f": 7619,
  "\u5bfe": 7620,
  "\u60aa\u9b54": 7621,
  "\u2581begreep": 7622,
  "\u2581dringend": 7623,
  "\u2581vergeet": 7624,
  "\u2581\u6d77\u5cb8": 7625,
  "\u2581\u904e\u7a0b": 7626,
  "\u2581Alex": 7627,
  "\u2581haalde": 7628,
  "\u2581\u3044\u304d": 7629,
  "\u2581\u5927\u4e08\u592b\u304b": 7630,
  "\u2581\u5f3e": 7631,
  "\u2581\u7642\u6cd5": 7632,
  "\u2581\u81ea\u4f53": 7633,
  "\u3084\u304b": 7634,
  "\u30a2\u30c3\u30e9\u30fc": 7635,
  "\u79c1\u305f\u3061\u306f": 7636,
  "\u2581Spaanse": 7637,
  "\u2581klaarblijkelijk": 7638,
  "\u2581vakantie": 7639,
  "\u2581\u304b\u304e": 7640,
  "\u2581\u5927\u6c17": 7641,
  "\u2581\u68ee": 7642,
  "\u4fdd": 7643,
  "\u2581openlijk": 7644,
  "\u2581religieus": 7645,
  "\u2581verplaatsen": 7646,
  "\u2581\u61f8\u547d": 7647,
  "\u30bb\u30f3": 7648,
  "middel": 7649,
  "\u2581An": 7650,
  "\u2581besteed": 7651,
  "\u2581spraak": 7652,
  "\u2581vermenigvuldig": 7653,
  "\u5343": 7654,
  "\u8def": 7655,
  "\u2581Hierdoor": 7656,
  "\u2581Per": 7657,
  "\u2581gemiddeld": 7658,
  "\u2581\u30ec\u30a4": 7659,
  "\u2581\u5869": 7660,
  "\u2581\u7387\u76f4": 7661,
  "\u2581\u9020\u308a": 7662,
  "\u2581\u91d1\u92ad": 7663,
  "\u2581Armageddon": 7664,
  "\u2581Volg": 7665,
  "\u2581offers": 7666,
  "\u2581\u6b7b\u306b": 7667,
  "\u30c1\u30f3": 7668,
  "\u5b9a": 7669,
  "laat": 7670,
  "mail": 7671,
  "\u2581Vier": 7672,
  "\u2581gouden": 7673,
  "\u2581reageerde": 7674,
  "\u2581verwachting": 7675,
  "\u2581\u59e6\u6deb": 7676,
  "\u307e\u308c": 7677,
  "\u30c8\u30eb": 7678,
  "\u4f5c\u308a": 7679,
  "\u8b66\u5bdf": 7680,
  "ow": 7681,
  "\u2581\u305a\u3064": 7682,
  "\u2581\u7948\u3063": 7683,
  "\u2581Deuteronomium": 7684,
  "\u2581atmosfeer": 7685,
  "\u2581\u5831\u9053": 7686,
  "\u2581\u6c37": 7687,
  "\u2581\u8105\u5a01": 7688,
  "\u30df\u30fc": 7689,
  "\u5168\u3066\u306e": 7690,
  "\u51e6\u7406": 7691,
  "\u2581Lo": 7692,
  "\u2581gebeld": 7693,
  "\u2581symbolische": 7694,
  "\u2581\u4e00\u4eba": 7695,
  "\u2581\u6075\u307f": 7696,
  "\u2581\u6255\u308f": 7697,
  "\u58eb": 7698,
  "OR": 7699,
  "\u2581Hetzelfde": 7700,
  "\u2581haast": 7701,
  "\u2581regelen": 7702,
  "\u2581uiterste": 7703,
  "\u2581verdedigen": 7704,
  "\u2581\u91ce\u5916": 7705,
  "\u751f\u7269": 7706,
  "\u25817,8": 7707,
  "\u2581Vijf": 7708,
  "\u2581priv\u00e9": 7709,
  "\u2581Selecteer": 7710,
  "\u2581professor": 7711,
  "\u258113,": 7712,
  "\u2581Ruth": 7713,
  "\u2581Sara": 7714,
  "\u2581momenteel": 7715,
  "\u2581onverdiend": 7716,
  "\u2581toestanden": 7717,
  "\u2581\u751f\u307e\u308c": 7718,
  "\u25c6": 7719,
  "\u8abf\u67fb": 7720,
  "\u2581instellingen": 7721,
  "\u2581\u3053\u3053\u304b\u3089": 7722,
  "\u2581\u30de\u30fc": 7723,
  "\u2581\u4f1a\u3044": 7724,
  "\u5317": 7725,
  "\u8005\u306b": 7726,
  "\u2581nietwaar": 7727,
  "\u2581scherp": 7728,
  "\u2581\u3046\u305d": 7729,
  "\u2581Russische": 7730,
  "\u2581onderzocht": 7731,
  "\u2581welkom": 7732,
  "\u2581\u5236\u5ea6": 7733,
  "\u2581\u71b1\u610f": 7734,
  "\u6b63\u3057\u3044": 7735,
  "\u2581\u7de8\u96c6": 7736,
  "\u2581\u984d": 7737,
  "\u305f\u3060": 7738,
  "\u30d0\u30b9": 7739,
  "\u2581grondig": 7740,
  "\u2581voorzei": 7741,
  "\u2581\u611f\u899a": 7742,
  "\u4efb": 7743,
  "\u7a81": 7744,
  "\u826f\u304f": 7745,
  "\u2581koesteren": 7746,
  "\u2581\u5f85\u3063": 7747,
  "\u2581controleren": 7748,
  "\u2581hoeveelheden": 7749,
  "\u2581vriendelijkheid": 7750,
  "\u2581\u5ba3\u4f1d": 7751,
  "\u2581\u68ee\u6797": 7752,
  "\u2581\u7d39\u4ecb": 7753,
  "\u3068\u304d\u306b": 7754,
  "\u308b\u308f": 7755,
  "\u4ffa\u306f": 7756,
  "\u2581Wordt": 7757,
  "\u2581leerden": 7758,
  "\u2581opstaan": 7759,
  "\u2581raar": 7760,
  "\u9032": 7761,
  "+": 7762,
  "sinspanningen": 7763,
  "\u2581heden": 7764,
  "\u2581\u9053\u5177": 7765,
  "\u3067\u3042\u3063\u305f": 7766,
  "\u2581\u30c6\u30a3": 7767,
  "\u2581\u4f53\u91cd": 7768,
  "\u2581\u751f\u5b58": 7769,
  "\u2581eeuwigheid": 7770,
  "\u4e2d\u306e": 7771,
  "\u2581gas": 7772,
  "\u2581hebzucht": 7773,
  "\u2581\u6587": 7774,
  "\u2581\u6d41\u884c": 7775,
  "\u597d\u304d": 7776,
  "\u8a71\u3092": 7777,
  "\u2581koninklijke": 7778,
  "\u2581oogsten": 7779,
  "\u2581toegenomen": 7780,
  "\u306e\u6570": 7781,
  "\u5f35": 7782,
  "Ver": 7783,
  "hi": 7784,
  "\u2581Anna": 7785,
  "\u2581ergste": 7786,
[...]
