{
  "</s>": 0,
  "<unk>": 1,
  ".": 2,
  ",": 3,
  "\u2581the": 4,
  "\u2581de": 5,
  "\u2581van": 6,
  "\u2581in": 7,
  "\u2581of": 8,
  "s": 9,
  "\u2581to": 10,
  "'": 11,
  "\u2581is": 12,
  "\u2581het": 13,
  "\u2581and": 14,
  "\u2581en": 15,
  "\u2581": 16,
  "?": 17,
  "\u2581een": 18,
  "\u2581a": 19,
  "\u2581-": 20,
  "-": 21,
  "\u2581I": 22,
  "\u2581you": 23,
  "\u2581(": 24,
  "e": 25,
  "\u2581dat": 26,
  "\u2581te": 27,
  "t": 28,
  "\u2581op": 29,
  "\u2581voor": 30,
  ":": 31,
  "\u2581for": 32,
  "\u2581that": 33,
  "\u2581met": 34,
  "\u2581je": 35,
  "\u2581on": 36,
  ")": 37,
  "\u2581be": 38,
  "en": 39,
  "\u2581niet": 40,
  "\u2581zijn": 41,
  "\u2581die": 42,
  "\u2581with": 43,
  "\u2581it": 44,
  "\u2581The": 45,
  "\u2581was": 46,
  "\u2581we": 47,
  "\u2581Ik": 48,
  "\u2581De": 49,
  "\u2581ik": 50,
  "\u2581aan": 51,
  "d": 52,
  "n": 53,
  "!": 54,
  "\u2581om": 55,
  "\u2581are": 56,
  "\u2581this": 57,
  "ing": 58,
  "\u2581me": 59,
  "\u2581by": 60,
  "\u2581not": 61,
  "\u2581as": 62,
  "\u2581have": 63,
  "\u2581\"": 64,
  "\u2581worden": 65,
  ";": 66,
  "\u2581over": 67,
  "\u2581or": 68,
  "y": 69,
  "\u2581Het": 70,
  "m": 71,
  "\u2581In": 72,
  "\u2581als": 73,
  "er": 74,
  "\u2581We": 75,
  "\u2581door": 76,
  "\u2581from": 77,
  "\u2581er": 78,
  "\u2581your": 79,
  "\u2581You": 80,
  "\u2581at": 81,
  "\u2581bij": 82,
  "\u2581can": 83,
  "\u2581A": 84,
  "a": 85,
  "\u2581tot": 86,
  "\u2581S": 87,
  "\u2581deze": 88,
  "\u2581heeft": 89,
  "\u2581an": 90,
  "\u2581naar": 91,
  "\u2581uit": 92,
  "\u2581u": 93,
  "\u2581all": 94,
  "\u2581will": 95,
  "\u2581O": 96,
  "re": 97,
  "\u2581which": 98,
  "\u2581dan": 99,
  "\u2581maar": 100,
  "\u2581It": 101,
  "\u2581'": 102,
  "\u2581wordt": 103,
  "\u2581dit": 104,
  "ed": 105,
  "\u2581ook": 106,
  "\u2581B": 107,
  "\u2581hebben": 108,
  "\u2581C": 109,
  "\u2581kan": 110,
  "\u2581L": 111,
  "\u2581do": 112,
  "de": 113,
  "/": 114,
  "\u2581he": 115,
  "\u2581has": 116,
  "h": 117,
  "\u2581ze": 118,
  "\u2581wat": 119,
  "\u2581No": 120,
  "\u2581my": 121,
  "in": 122,
  "\u2581moet": 123,
  "\u2581out": 124,
  "\u2581hij": 125,
  "\u2581know": 126,
  "\u25811": 127,
  "\u2581He": 128,
  "\u2581up": 129,
  "\u2581had": 130,
  "\u2581Je": 131,
  "\u2581they": 132,
  "\u2581European": 133,
  "\u2581Commissie": 134,
  "\u2581but": 135,
  "\u2581what": 136,
  "b": 137,
  "\u2581one": 138,
  "\"": 139,
  "\u2581geen": 140,
  "\u2581kunnen": 141,
  "o": 142,
  "\u2581meer": 143,
  "\u2581about": 144,
  "\u2581heb": 145,
  "\u2581Commission": 146,
  "\u2581H": 147,
  "S": 148,
  "\u2581En": 149,
  "\u2581What": 150,
  "\u2581This": 151,
  "\u2581so": 152,
  "\u2581nog": 153,
  "\u2581T": 154,
  "\u2581been": 155,
  "\u2581there": 156,
  "\u2581zal": 157,
  "k": 158,
  "\u2581like": 159,
  "\u2581M": 160,
  "\u2581D": 161,
  "\u2581E": 162,
  ").": 163,
  "\u2581Dat": 164,
  "\u2581Wat": 165,
  "\u2581And": 166,
  "\u2581more": 167,
  "\u2581haar": 168,
  "ll": 169,
  "\u2581ver": 170,
  "\u2581shall": 171,
  "\u2581should": 172,
  "\u2581al": 173,
  "\u2581zo": 174,
  "\u2581F": 175,
  "\u2581G": 176,
  "\u2581their": 177,
  "ly": 178,
  "\u2581moeten": 179,
  "\u2581ge": 180,
  "\u2581just": 181,
  "g": 182,
  "\u2581ben": 183,
  "ve": 184,
  "\u2581no": 185,
  "\u2581would": 186,
  "\u2581mijn": 187,
  "i": 188,
  "\u2581other": 189,
  "\u2581here": 190,
  "\u2581our": 191,
  "\u2581K": 192,
  "\u2581don": 193,
  "\u2581if": 194,
  "\u2581andere": 195,
  "\u2581also": 196,
  "\u25812": 197,
  "\u2581zou": 198,
  "\u2581Europese": 199,
  "\u2581time": 200,
  "\u2581get": 201,
  "\u2581hier": 202,
  "\u2581its": 203,
  "al": 204,
  "\u2581were": 205,
  "\u2581ons": 206,
  "\u2581Hij": 207,
  "\u2581right": 208,
  "\u2581Article": 209,
  "\u2581her": 210,
  "\u2581his": 211,
  "\u2581P": 212,
  "\u2581hun": 213,
  "or": 214,
  "\u2581J": 215,
  "ij": 216,
  "C": 217,
  "\u2581wel": 218,
  "\u2581uw": 219,
  "\u2581him": 220,
  "\u2581who": 221,
  "\u2581want": 222,
  "\u2581Member": 223,
  "\u2581hem": 224,
  "\u2581Ze": 225,
  "\u2581W": 226,
  "\u2581did": 227,
  "\u2581go": 228,
  "\u2581onder": 229,
  "r": 230,
  "),": 231,
  "\u2581them": 232,
  "\u2581wil": 233,
  "\u2581nu": 234,
  "ah": 235,
  "on": 236,
  "\u2581V": 237,
  "\u2581goed": 238,
  "\u2581zij": 239,
  "\u2581alle": 240,
  "\u2581any": 241,
  "\u2581U": 242,
  "\u2581zich": 243,
  "es": 244,
  "\u2581Een": 245,
  "\u2581Als": 246,
  "l": 247,
  "\u2581Ja": 248,
  "\u2581j": 249,
  "\u2581into": 250,
  "\u2581EU": 251,
  "na": 252,
  "\u2581Council": 253,
  "\u2581doen": 254,
  "\u2581p": 255,
  "\u2581us": 256,
  "A": 257,
  "\u2581Dit": 258,
  "\u2581States": 259,
  "\u2581That": 260,
  "\u25813": 261,
  "\u2581Raad": 262,
  "\u2581when": 263,
  ".\"": 264,
  "\u2581only": 265,
  "\u2581new": 266,
  "\u2581N": 267,
  "c": 268,
  "\u2581R": 269,
  "\u2581man": 270,
  "\u2581So": 271,
  "\u2581got": 272,
  "an": 273,
  "ers": 274,
  "\u2581artikel": 275,
  "\u2581gaan": 276,
  "\u2581now": 277,
  "le": 278,
  "\u2581s": 279,
  "\u2581m": 280,
  "\u2581weet": 281,
  "\u2581than": 282,
  "\u2581these": 283,
  "\u2581waar": 284,
  "\u2581Mr": 285,
  "\u2581may": 286,
  "\u2581need": 287,
  "\u2581jaar": 288,
  "\u2581onze": 289,
  "\u2581Regulation": 290,
  "je": 291,
  "\u2581Be": 292,
  "f": 293,
  "\u2581some": 294,
  "\u25815": 295,
  "\u2581wij": 296,
  "\u2581even": 297,
  "\u2581think": 298,
  "\u2581Community": 299,
  "\u25814": 300,
  "\u2581Er": 301,
  "\u2581na": 302,
  "\u2581mij": 303,
  "\u2581take": 304,
  "\u2581Maar": 305,
  "\u2581must": 306,
  "\u2581see": 307,
  "\u2581could": 308,
  "\u2581But": 309,
  "\u2581werd": 310,
  "\u2581down": 311,
  "\u2581b": 312,
  "\u2581per": 313,
  "\u2581ten": 314,
  "\u2581information": 315,
  "\u2581back": 316,
  "p": 317,
  "\u2581tussen": 318,
  "ka": 319,
  "\u2581make": 320,
  "\u2581God": 321,
  "\u258110": 322,
  "\u2581tegen": 323,
  "\u2581she": 324,
  "\u2581people": 325,
  "\u2581maken": 326,
  "ie": 327,
  "\u2581where": 328,
  "\u2581&": 329,
  "\u2581If": 330,
  "te": 331,
  "amp": 332,
  "\u2581alleen": 333,
  "\u2581Deze": 334,
  "\u2581very": 335,
  "\u2581af": 336,
  "B": 337,
  "\u2581nieuwe": 338,
  "\u2581such": 339,
  "\u2581Do": 340,
  "\u2581gaat": 341,
  "\u2581use": 342,
  "\u2581work": 343,
  "\u2581first": 344,
  "\u2581good": 345,
  "\u2581between": 346,
  "\u2581zoals": 347,
  "\u2581two": 348,
  "\u2581way": 349,
  "um": 350,
  "\u2581c": 351,
  "\u2581under": 352,
  "\u2581Is": 353,
  "ge": 354,
  "us": 355,
  "\u2581those": 356,
  "\u2581twee": 357,
  "\u2581bent": 358,
  "H": 359,
  "\u2581All": 360,
  "\u2581Ye": 361,
  "\u2581lid": 362,
  "\u2581does": 363,
  "\u2581name": 364,
  "\u2581nr": 365,
  "\u25816": 366,
  "\u2581veel": 367,
  "\u2581made": 368,
  "et": 369,
  "\u2581informatie": 370,
  "\u2581They": 371,
  "\u2581Nee": 372,
  "\u2581eerste": 373,
  "\u2581zien": 374,
  "\u2581Well": 375,
  "\u2581hoe": 376,
  "\u2581jullie": 377,
  "\u2581e": 378,
  "2": 379,
  "\u2581Op": 380,
  "\u2581how": 381,
  "be": 382,
  "\u2581g": 383,
  "\u2581iets": 384,
  "\u2581weg": 385,
  "is": 386,
  "\u2581k": 387,
  "\u2581going": 388,
  "\u2581For": 389,
  "\u2581hebt": 390,
  "u": 391,
  "\u2581years": 392,
  "\u2581To": 393,
  "\u2581Unie": 394,
  "\u2581Union": 395,
  "\u2581There": 396,
  "\u2581zullen": 397,
  "\u2581well": 398,
  "ver": 399,
  "th": 400,
  "\u2581then": 401,
  "ic": 402,
  "w": 403,
  "gon": 404,
  "\u2581komen": 405,
  "\u2581f": 406,
  "\u2581re": 407,
  "\u2581water": 408,
  "E": 409,
  "\u2581lidstaten": 410,
  "\u2581Hoe": 411,
  "\u2581binnen": 412,
  "\u00e9": 413,
  "\u2581Parlement": 414,
  "\u2581Voor": 415,
  "\u2581nodig": 416,
  "\u2581Ver": 417,
  "\u2581basis": 418,
  "\u25817": 419,
  "\u2581gebruik": 420,
  "\u2581men": 421,
  "\u2581tijd": 422,
  "den": 423,
  "\u2581say": 424,
  "D": 425,
  "\u2581hand": 426,
  "\u2581come": 427,
  "to": 428,
  "EC": 429,
  "el": 430,
  "\u2581after": 431,
  "it": 432,
  "\u2581mensen": 433,
  "\u2581toe": 434,
  "ne": 435,
  "\u2581terug": 436,
  "\u2581Parliament": 437,
  "\u2581land": 438,
  "\u2581She": 439,
  "\u2581Ge": 440,
  "EG": 441,
  "ten": 442,
  "\u2581said": 443,
  "\u2581daar": 444,
  "\u2581because": 445,
  "\u2581kunt": 446,
  "v": 447,
  "\u258120": 448,
  "\u2581used": 449,
  "\u2581Al": 450,
  "\u2581staat": 451,
  "\u2581before": 452,
  "M": 453,
  "man": 454,
  "\u2581mee": 455,
  "\u2581Com": 456,
  "\u2581How": 457,
  "\u2581Re": 458,
  "\u2581Gemeenschap": 459,
  "\u2581ter": 460,
  "z": 461,
  "\u2581...": 462,
  "\u2581Zo": 463,
  "\u2581most": 464,
  "\u2581d": 465,
  "F": 466,
  "L": 467,
  "\u2581am": 468,
  "\u2581set": 469,
  "\u2581products": 470,
  "P": 471,
  "\u258112": 472,
  "\u2581car": 473,
  "\u2581through": 474,
  "\u258118": 475,
  "se": 476,
  "op": 477,
  "\u2581market": 478,
  "\u258115": 479,
  "\u2581day": 480,
  "\u2581place": 481,
  "=": 482,
  "\u2581best": 483,
  "\u2581countries": 484,
  "ke": 485,
  "\u2581within": 486,
  "\u2581weer": 487,
  "\u2581grote": 488,
  "\u2581product": 489,
  "\u2581\u00e9\u00e9n": 490,
  "\u2581part": 491,
  "\u2581being": 492,
  "est": 493,
  "T": 494,
  "\u2581too": 495,
  "ste": 496,
  "\u2581eens": 497,
  "\u2581help": 498,
  "am": 499,
  "W": 500,
  "\u2581find": 501,
  "\u2581Verordening": 502,
  "\u2581same": 503,
  "\u25819": 504,
  "ies": 505,
  "\u25818": 506,
  "\u2581system": 507,
  "\u2581measures": 508,
  "\u2581ga": 509,
  "\u2581Europees": 510,
  "\u2581werk": 511,
  "\u2581order": 512,
  "\u258130": 513,
  "\u2581leven": 514,
  "ry": 515,
  "\u2581plaats": 516,
  "V": 517,
  "\u2581As": 518,
  "\u2581co": 519,
  "\u2581last": 520,
  "\u2581o": 521,
  "\u2581komt": 522,
  "\u2581year": 523,
  "st": 524,
  "ul": 525,
  "\u2581something": 526,
  "\u2581Na": 527,
  "\u258119": 528,
  "\u2581_": 529,
  "N": 530,
  "up": 531,
  "ol": 532,
  "\u2581really": 533,
  "\u2581landen": 534,
  "\u2581Wij": 535,
  "\u2581much": 536,
  "\u2581dag": 537,
  "\u2581zeggen": 538,
  "\u2581number": 539,
  "\u2581An": 540,
  "\u2581point": 541,
  "\u2581t": 542,
  "\u2581volgende": 543,
  "\u2581President": 544,
  "\u2581off": 545,
  "the": 546,
  "\u2581maatregelen": 547,
  "\u2581State": 548,
  "\u2581dus": 549,
  "\u2581omdat": 550,
  "\u2581waren": 551,
  "\u2581zonder": 552,
  "heid": 553,
  "\u2581following": 554,
  "\u2581jou": 555,
  "\u2581alles": 556,
  "\u2581betreffende": 557,
  "\u2581own": 558,
  "ou": 559,
  "\u2581heer": 560,
  "I": 561,
  "\u2581[": 562,
  "\u2581open": 563,
  "\u2581still": 564,
  "\u2581Go": 565,
  "\u2581Directive": 566,
  "\u2581toch": 567,
  "\u2581case": 568,
  "\u2581toepassing": 569,
  "\u2581Committee": 570,
  "\u2581data": 571,
  "\u2581hotel": 572,
  "\u2581aantal": 573,
  "\u2581On": 574,
  "\u2581many": 575,
  "\u2581report": 576,
  "ist": 577,
  "ig": 578,
  "\u2581My": 579,
  "eer": 580,
  "\u2581policy": 581,
  "]": 582,
  "\u2581long": 583,
  "\u2581life": 584,
  "\u2581Ro": 585,
  "\u2581weten": 586,
  "\u2581Europe": 587,
  "ant": 588,
  "\u2581laten": 589,
  "om": 590,
  "\u2581inzake": 591,
  "\u2581tell": 592,
  "\u2581little": 593,
  "\u2581gebied": 594,
  "of": 595,
  "\u2581Met": 596,
  "\u2581l": 597,
  "\u2581give": 598,
  "\u2581eigen": 599,
  "\u2581national": 600,
  "\u2581Yes": 601,
  "\u2581without": 602,
  "\u2581via": 603,
  "\u2581mag": 604,
  "\u2581ontwikkeling": 605,
  "\u2581world": 606,
  "\u2581let": 607,
  "\u2581gebruikt": 608,
  "\u2581huis": 609,
  "G": 610,
  "ur": 611,
  "\u2581service": 612,
  "\u2581look": 613,
  "ine": 614,
  "ar": 615,
  "\u2581willen": 616,
  "im": 617,
  "ach": 618,
  "\u2581each": 619,
  "\u2581nemen": 620,
  "\u2581mogelijk": 621,
  "at": 622,
  "\u2581mean": 623,
  "\u2581onderzoek": 624,
  "\u2581geven": 625,
  "\u2581Waar": 626,
  "\u2581deel": 627,
  "\u2581kind": 628,
  "\u2581denk": 629,
  "\u2581never": 630,
  "\u2581echt": 631,
  "\u2581Artikel": 632,
  "end": 633,
  "\u2581Waarom": 634,
  "3": 635,
  "\u2581love": 636,
  "as": 637,
  "\u2581zei": 638,
  "\u2581three": 639,
  "\u258111": 640,
  "ter": 641,
  "\u2581drie": 642,
  "O": 643,
  "\u2581both": 644,
  "com": 645,
  "ment": 646,
  "\u2581taken": 647,
  "\u2581auto": 648,
  "\u2581hen": 649,
  "\u2581May": 650,
  "\u2581Le": 651,
  "\u2581Why": 652,
  "\u2581un": 653,
  "\u2581gegevens": 654,
  "ation": 655,
  "\u2581nooit": 656,
  "\u2581particular": 657,
  "der": 658,
  "\u2581public": 659,
  "K": 660,
  "\u2581verschillende": 661,
  "\u2581heel": 662,
  "\u2581Kom": 663,
  "\u2581/": 664,
  "\u2581Ga": 665,
  "\u2581Let": 666,
  "ton": 667,
  "\u2581DE": 668,
  "\u2581area": 669,
  "\u2581support": 670,
  "guy": 671,
  "\u2581wereld": 672,
  "\u2581net": 673,
  ",\"": 674,
  "\u2581put": 675,
  "\u2581Niet": 676,
  "\u2581important": 677,
  "\u2581altijd": 678,
  "\u2581wanneer": 679,
  "\u2581why": 680,
  "\u2581Thank": 681,
  "\u258116": 682,
  "\u2581sector": 683,
  "\u2581home": 684,
  "\u2581zeer": 685,
  "\u2581level": 686,
  "\u2581Europa": 687,
  "\u2581available": 688,
  "\u2581website": 689,
  "\u2581Dan": 690,
  "\u2581development": 691,
  "\u2581found": 692,
  "\u2581punt": 693,
  "\u2581possible": 694,
  "R": 695,
  "\u2581economic": 696,
  "1": 697,
  "_": 698,
  "\u258117": 699,
  "\u2581vinden": 700,
  "\u2581Now": 701,
  "\u2581houden": 702,
  "\u2581again": 703,
  "\u2581Van": 704,
  "eren": 705,
  "\u2581around": 706,
  "EU": 707,
  "\u258114": 708,
  "\u2581v": 709,
  "\u2581against": 710,
  "ir": 711,
  "\u2581gedaan": 712,
  "\u2581markt": 713,
  "\u2581Die": 714,
  "\u2581high": 715,
  "\u2581services": 716,
  "\u2581Of": 717,
  "gen": 718,
  "ta": 719,
  "\u2581\u20ac": 720,
  "uck": 721,
  "ch": 722,
  "\u2581great": 723,
  "ia": 724,
  "\u2581thing": 725,
  "\u2581procedure": 726,
  "\u2581better": 727,
  "\u2581doing": 728,
  "\u258125": 729,
  "\u2581verordening": 730,
  "\u2581i": 731,
  "\u2581real": 732,
  "\u2581means": 733,
  "\u2581contact": 734,
  "\u2581bepaalde": 735,
  "\u2581social": 736,
  "\u2581niets": 737,
  "\u2581different": 738,
  "\u258124": 739,
  "\u2581free": 740,
  "\u2581financial": 741,
  "\u2581nationale": 742,
  "\u2581laat": 743,
  "\u2581Don": 744,
  "\u2581betrekking": 745,
  "\u2581end": 746,
  "\u258113": 747,
  "ex": 748,
  "\u2581goede": 749,
  "\u2581achter": 750,
  "\u2581Where": 751,
  "\u2581programma": 752,
  "ok": 753,
  "\u2581during": 754,
  "\u2581vast": 755,
  "lo": 756,
  "\u2581hotels": 757,
  "\u2581La": 758,
  "land": 759,
  "\u2581Mijn": 760,
  "\u2581provided": 761,
  "\u2581Car": 762,
  "\u2581kader": 763,
  "\u2581moment": 764,
  "\u2581week": 765,
  "\u2581steeds": 766,
  "\u2581geval": 767,
  "\u2581Your": 768,
  "ion": 769,
  "\u2581already": 770,
  "co": 771,
  "\u2581Z": 772,
  "\u2581every": 773,
  "\u2581Om": 774,
  "ny": 775,
  "\u2581gewoon": 776,
  "\u2581tijdens": 777,
  "\u2581night": 778,
  "\u2581zelf": 779,
  "\u2581start": 780,
  "\u2581necessary": 781,
  "\u2581gemaakt": 782,
  "\u2581When": 783,
  "\u2581iemand": 784,
  "\u2581toen": 785,
  "\u2581conditions": 786,
  "\u2581uur": 787,
  "un": 788,
  "\u2581h": 789,
  "\u2581keer": 790,
  "\u2581Mo": 791,
  "ken": 792,
  "\u2581beter": 793,
  "\u2581project": 794,
  "\u2581period": 795,
  "\u2581recht": 796,
  "\u2581stellen": 797,
  "\u2581plan": 798,
  "\u2581verslag": 799,
  "\u2581brengen": 800,
  "one": 801,
  "\u2581accordance": 802,
  "\u2581certain": 803,
  "\u2581elke": 804,
  "\u2581zorgen": 805,
  "\u2581including": 806,
  "\u2581Goed": 807,
  "\u2581krijgen": 808,
  "\u2581course": 809,
  "\u25811.": 810,
  "\u2581zeker": 811,
  "\u2581file": 812,
  "\u2581view": 813,
  "\u2581away": 814,
  "\u2581bad": 815,
  "\u2581II": 816,
  "\u2581aid": 817,
  "\u2581call": 818,
  "\u2581dood": 819,
  "\u2581wie": 820,
  "\u2581family": 821,
  "\u2581Bij": 822,
  "\u2581since": 823,
  "\u2581hele": 824,
  "lie": 825,
  "\u2581steun": 826,
  "\u2581New": 827,
  "\u2581house": 828,
  "\u2581zouden": 829,
  "\u2581samen": 830,
  "The": 831,
  "\u2581believe": 832,
  "\u2581echter": 833,
  "\u2581Hotel": 834,
  "\u2581sure": 835,
  "\u2581z": 836,
  "ster": 837,
  "J": 838,
  "bo": 839,
  "\u2581always": 840,
  "\u2581account": 841,
  "\u2581THE": 842,
  "\u2581another": 843,
  "age": 844,
  "\u2581ex": 845,
  "x": 846,
  "me": 847,
  "tje": 848,
  "\u2581room": 849,
  "EEC": 850,
  "\u2581betrokken": 851,
  "\u2581lot": 852,
  "\u2581Voorzitter": 853,
  "able": 854,
  "\u2581maakt": 855,
  "\u2581country": 856,
  "\u2581therefore": 857,
  "EEG": 858,
  "\u258122": 859,
  "EN": 860,
  "\u258121": 861,
  "\u2581welke": 862,
  "\u2581Dus": 863,
  "\u2581kon": 864,
  "\u2581werden": 865,
  "ouw": 866,
  "\u2581w": 867,
  "jes": 868,
  "ro": 869,
  "\u2581producten": 870,
  "\u2581rules": 871,
  "ma": 872,
  "ra": 873,
  "sh": 874,
  "\u2581Annex": 875,
  "\u2581Bo": 876,
  "\u2581blijven": 877,
  "\u2581things": 878,
  "\u2581At": 879,
  "\u2581financi\u00eble": 880,
  "\u2581kinderen": 881,
  "ven": 882,
  "\u2581Y": 883,
  "\u258131": 884,
  "\u2581days": 885,
  "\u2581laatste": 886,
  "\u2581common": 887,
  "\u2581staan": 888,
  "\u2581wilt": 889,
  "ek": 890,
  "\u2581waarin": 891,
  "\u2581Mar": 892,
  "\u2581elkaar": 893,
  "\u2581non": 894,
  "di": 895,
  "\u2581vraag": 896,
  "\u2581type": 897,
  "\u2581second": 898,
  "\u2581Ho": 899,
  "\u2581*": 900,
  "\u2581vragen": 901,
  "De": 902,
  "00": 903,
  "\u2581doet": 904,
  "\u2581geld": 905,
  "mo": 906,
  "\u2581later": 907,
  "\u2581blz": 908,
  "\u2581Not": 909,
  "\u2581regard": 910,
  "\u2581ensure": 911,
  "em": 912,
  "\u2581richtlijn": 913,
  "\u2581werken": 914,
  "\u2581budget": 915,
  "\u2581Look": 916,
  "\u2581overeenkomstig": 917,
  "\u2581economische": 918,
  "\u2581site": 919,
  "\u2581km": 920,
  "\u2581Just": 921,
  "\u2581=": 922,
  "\u2581gezien": 923,
  "\u2581samenwerking": 924,
  "\u2581given": 925,
  "\u2581application": 926,
  "\u2581mg": 927,
  "\u2581Wil": 928,
  "\u2581sociale": 929,
  "\u2581Jo": 930,
  "\u2581verder": 931,
  "\u2581tweede": 932,
  "\u2581bijlage": 933,
  "\u2581Who": 934,
  "\u2581beste": 935,
  "\u2581gebruiken": 936,
  "\u2581might": 937,
  "ate": 938,
  "do": 939,
  "\u2581doe": 940,
  "\u2581school": 941,
  "\u2581programme": 942,
  "\u2581Treaty": 943,
  "\u2581sp": 944,
  "\u2581while": 945,
  "\u2581ja": 946,
  "\u2581question": 947,
  "\u2581derde": 948,
  "\u2581working": 949,
  "\u2581business": 950,
  "\u2581old": 951,
  "ook": 952,
  "\u2581Heb": 953,
  "ow": 954,
  "\u2581Co": 955,
  "\u2581referred": 956,
  "\u2581zit": 957,
  "\u2581United": 958,
  "\u2581slechts": 959,
  "\u2581Sch": 960,
  "\u2581together": 961,
  "ap": 962,
  "\u2581Over": 963,
  "\u2581thought": 964,
  "ren": 965,
  "\u2581St": 966,
  "\u2581helpen": 967,
  "\u2581Decision": 968,
  "\u2581effect": 969,
  "\u25812,": 970,
  "\u2581control": 971,
  "\u2581done": 972,
  "\u2581law": 973,
  "\u2581money": 974,
  "\u2581buiten": 975,
  "\u2581vrouw": 976,
  "\u2581belang": 977,
  "ha": 978,
  "\u2581groot": 979,
  "\u2581con": 980,
  "\u2581respect": 981,
  "\u2581third": 982,
  "uit": 983,
  "and": 984,
  "net": 985,
  "\u2581anything": 986,
  "\u2581These": 987,
  "\u2581authorities": 988,
  "\u2581Comit\u00e9": 989,
  "\u2581proposal": 990,
  "\u2581naam": 991,
  "\u2581next": 992,
  "no": 993,
  "sch": 994,
  "\u2581hard": 995,
  "\u2581Wie": 996,
  "ite": 997,
  "ity": 998,
  "\u2581voorstel": 999,
  "\u2581allemaal": 1000,
  "\u2581Verenigd": 1001,
  "\u2581transport": 1002,
  "\u2581der": 1003,
  "ck": 1004,
  "\u2581Lid": 1005,
  "\u2581Can": 1006,
  "\u2581talk": 1007,
  "go": 1008,
  "\u2581snel": 1009,
  "\u2581vastgesteld": 1010,
  "\u2581Are": 1011,
  "\u258150": 1012,
  "\u2581zodat": 1013,
  "\u2581prices": 1014,
  "\u2581human": 1015,
  "\u2581quality": 1016,
  "\u2581verband": 1017,
  "he": 1018,
  "\u2581100": 1019,
  "\u2581direct": 1020,
  "\u2581beleid": 1021,
  "\u2581ervan": 1022,
  "Y": 1023,
  "\u2581provide": 1024,
  "son": 1025,
  "per": 1026,
  "\u2581Nu": 1027,
  "\u2581manier": 1028,
  "\u2581anders": 1029,
  "\u2581adopted": 1030,
  "\u2581Zij": 1031,
  "\u2581price": 1032,
  "\u2581dient": 1033,
  "\u2581Hier": 1034,
  "\u2581research": 1035,
  "\u2581special": 1036,
  "ling": 1037,
  "\u2581small": 1038,
  "\u2581protection": 1039,
  "\u2581grond": 1040,
  "\u2581action": 1041,
  "\u2581today": 1042,
  "ick": 1043,
  "\u2581pro": 1044,
  "\u2581Ben": 1045,
  "\u2581Verdrag": 1046,
  "\u2581dagen": 1047,
  "\u2581fact": 1048,
  "\u2581sorry": 1049,
  "ker": 1050,
  "by": 1051,
  "len": 1052,
  "*": 1053,
  "\u2581VAN": 1054,
  "\u2581left": 1055,
  "\u2581betreft": 1056,
  "id": 1057,
  "\u2581million": 1058,
  "\u2581kleine": 1059,
  "\u2581Me": 1060,
  "ho": 1061,
  "\u2581decision": 1062,
  "\u2581erg": 1063,
  "\u2581stad": 1064,
  "\u2581Laat": 1065,
  "\u2581keep": 1066,
  "\u2581based": 1067,
  "\u2581form": 1068,
  "\u2581rights": 1069,
  "\u2581further": 1070,
  "\u2581specific": 1071,
  "\u2581example": 1072,
  "\u2581change": 1073,
  "\u2581months": 1074,
  "\u2581rest": 1075,
  "\u2581energy": 1076,
  "\u258128": 1077,
  "\u2581di": 1078,
  "\u25810": 1079,
  "\u2581international": 1080,
  "\u2581miljoen": 1081,
  "U": 1082,
  "il": 1083,
  "\u2581ma": 1084,
  "\u2581until": 1085,
  "\u2581training": 1086,
  "\u2581Daar": 1087,
  "\u2581geleden": 1088,
  "\u2581whole": 1089,
  "\u2581pre": 1090,
  "\u2581few": 1091,
  "\u2581wilde": 1092,
  "\u2581least": 1093,
  "room": 1094,
  "\u2581please": 1095,
  "\u2581concerned": 1096,
  "af": 1097,
  "\u2581euro": 1098,
  "\u2581production": 1099,
  "\u2581full": 1100,
  "\u2581future": 1101,
  "\u2581minder": 1102,
  "\u2581zelfs": 1103,
  "\u2581ago": 1104,
  "\u2581ever": 1105,
  "\u2581maanden": 1106,
  "\u2581less": 1107,
  "\u2581(1)": 1108,
  "\u2581told": 1109,
  "\u2581problem": 1110,
  "\u2581access": 1111,
  "\u2581Richtlijn": 1112,
  "\u2581hoofd": 1113,
  "\u2581foto": 1114,
  "use": 1115,
  "\u2581vriend": 1116,
  "ian": 1117,
  "\u2581EUR": 1118,
  "\u2581vrij": 1119,
  "\u2581activities": 1120,
  "\u2581ligt": 1121,
  "\u2581far": 1122,
  "aal": 1123,
  "\u2581la": 1124,
  "sen": 1125,
  "os": 1126,
  "\u2581diensten": 1127,
  "\u2581light": 1128,
  "\u25811,": 1129,
  "\u2581enige": 1130,
  "\u2581able": 1131,
  "\u2581general": 1132,
  "\u258123": 1133,
  "\u2581lang": 1134,
  "\u2581jaren": 1135,
  "\u2581ont": 1136,
  "\u2581process": 1137,
  "\u2581cooperation": 1138,
  "au": 1139,
  "\u2581vader": 1140,
  "4": 1141,
  "\u2581provisions": 1142,
  "\u2581duidelijk": 1143,
  "van": 1144,
  "\u2022": 1145,
  "\u2581risk": 1146,
  "\u2581ad": 1147,
  "ad": 1148,
  "\u2581Aan": 1149,
  "\u2581nieuw": 1150,
  "\u2581December": 1151,
  "\u2581prijs": 1152,
  "\u2581uitvoering": 1153,
  "\u2581X": 1154,
  "\u2581volgens": 1155,
  "\u2581indien": 1156,
  "\u2581enkele": 1157,
  "illa": 1158,
  "\u2581probleem": 1159,
  "\u2581children": 1160,
  "\u2581power": 1161,
  "\u2581Alle": 1162,
  "\u2581show": 1163,
  "\u2581familie": 1164,
  "ary": 1165,
  "\u2581rekening": 1166,
  "\u2581biedt": 1167,
  "\u2581problemen": 1168,
  "\u258127": 1169,
  "\u2581genomen": 1170,
  "\u2581care": 1171,
  "\u2581areas": 1172,
  "\u2581OF": 1173,
  "\u2581kosten": 1174,
  "\u2581called": 1175,
  "\u2581cannot": 1176,
  "\u2581However": 1177,
  "\u2581group": 1178,
  "\u2581Home": 1179,
  "\u2581Good": 1180,
  "\u2581lidstaat": 1181,
  "\u2581Geen": 1182,
  "\u2581test": 1183,
  "\u2581Weet": 1184,
  "\u2581top": 1185,
  "\u2581kom": 1186,
  "\u2581bepalingen": 1187,
  "\u2581december": 1188,
  "\u2581whether": 1189,
  "\u2581person": 1190,
  "\u2581using": 1191,
  "\u2581n": 1192,
  "\u2581geeft": 1193,
  "\u2581everything": 1194,
  "\u2581came": 1195,
  "\u2581dacht": 1196,
  "\u2581stop": 1197,
  "\u2581subject": 1198,
  "\u2581With": 1199,
  "\u2581besluit": 1200,
  "\u2581situation": 1201,
  "kamer": 1202,
  "\u2581procedures": 1203,
  "\u2581model": 1204,
  "\u2581having": 1205,
  "\u2581nothing": 1206,
  "lijk": 1207,
  "\u258126": 1208,
  "\u2581Misschien": 1209,
  "men": 1210,
  "\u2581trade": 1211,
  "\u2581online": 1212,
  "mer": 1213,
  "yl": 1214,
  "ner": 1215,
  "\u2581vanaf": 1216,
  "\u2581management": 1217,
  "we": 1218,
  "ak": 1219,
  "\u2581security": 1220,
  "\u2581big": 1221,
  "\u2581waarbij": 1222,
  "\u2581feel": 1223,
  "ce": 1224,
  "ang": 1225,
  "\u2581offers": 1226,
  "\u2581stay": 1227,
  "ent": 1228,
  "\u2581dezelfde": 1229,
  "\u2581Te": 1230,
  "\u2581Dr": 1231,
  "\u2581opinion": 1232,
  "\u2581Ar": 1233,
  "\u2581meet": 1234,
  "\u2581One": 1235,
  "\u2581Please": 1236,
  "\u2581behandeling": 1237,
  "\u2581won": 1238,
  "\u2581mo": 1239,
  "\u2581rental": 1240,
  "Z": 1241,
  "\u2581hadden": 1242,
  "\u2581list": 1243,
  "wel": 1244,
  "\u2581$": 1245,
  "\u2581stand": 1246,
  "\u2581present": 1247,
  "\u2581kid": 1248,
  "\u2581waarom": 1249,
  "\u2581taking": 1250,
  "\u2581software": 1251,
  "mm": 1252,
  "\u2581body": 1253,
  "\u2581extra": 1254,
  "\u2581anti": 1255,
  "gt": 1256,
  "\u2581geweest": 1257,
  "\u2581health": 1258,
  "\u2581meest": 1259,
  "\u2581licht": 1260,
  "\u2581begin": 1261,
  "\u2581force": 1262,
  "\u2581clear": 1263,
  "ng": 1264,
  "\u2581elk": 1265,
  "\u2581internationale": 1266,
  "acht": 1267,
  "\u2581niveau": 1268,
  "tic": 1269,
  "\u2581matter": 1270,
  "\u2581Pro": 1271,
  "aan": 1272,
  "\u2581appropriate": 1273,
  "\u2581city": 1274,
  "\u2581waarvan": 1275,
  "out": 1276,
  "\u2581company": 1277,
  "\u2581Wanneer": 1278,
  "\u2581milieu": 1279,
  "\u2581Ma": 1280,
  "\u2581details": 1281,
  "j": 1282,
  "\u2581gevonden": 1283,
  "ler": 1284,
  "\u2581paragraph": 1285,
  "\u2581Or": 1286,
  "mail": 1287,
  "atie": 1288,
  "\u2581Then": 1289,
  "\u2581ask": 1290,
  "\u2581post": 1291,
  "dat": 1292,
  "In": 1293,
  "\u2581zie": 1294,
  "ps": 1295,
  "\u2581agreement": 1296,
  "ive": 1297,
  "ca": 1298,
  "\u2581kwam": 1299,
  "ri": 1300,
  "\u2581political": 1301,
  "\u2581requirements": 1302,
  "\u2581misschien": 1303,
  "\u2581yet": 1304,
  "\u2581advies": 1305,
  "\u2581large": 1306,
  "\u2581PB": 1307,
  "\u2581bit": 1308,
  "ger": 1309,
  "\u2581vier": 1310,
  "\u2581took": 1311,
  "\u2581graag": 1312,
  "\u2581date": 1313,
  "da": 1314,
  "\u2581moeder": 1315,
  "ale": 1316,
  "\u2581legal": 1317,
  "aat": 1318,
  "\u2581ging": 1319,
  "\u2581play": 1320,
  "\u2581belangrijke": 1321,
  "\u2581zaken": 1322,
  "\u2581single": 1323,
  "\u2581rond": 1324,
  "\u2581veiligheid": 1325,
  "\u2581bring": 1326,
  "\u2581industry": 1327,
  "\u2581team": 1328,
  "\u2581Bu": 1329,
  "\u2581enough": 1330,
  "\u2581waarde": 1331,
  "\u2581value": 1332,
  "zie": 1333,
  "\u2581needs": 1334,
  "\u2581systeem": 1335,
  "ut": 1336,
  "\u2581Di": 1337,
  "\u2581Ten": 1338,
  "\u2581paar": 1339,
  "ier": 1340,
  "dank": 1341,
  "\u258129": 1342,
  "\u2581live": 1343,
  "\u2581Su": 1344,
  "\u2581doel": 1345,
  "aar": 1346,
  "\u2581position": 1347,
  "\u2581voorwaarden": 1348,
  "\u2581Did": 1349,
  "\u2581waarop": 1350,
  "\u2581energie": 1351,
  "\u2581lijst": 1352,
  "\u2581apply": 1353,
  "\u2581controle": 1354,
  "ik": 1355,
  "\u2581side": 1356,
  "ina": 1357,
  "\u2581vrouwen": 1358,
  "\u2581baby": 1359,
  "ze": 1360,
  "\u2581total": 1361,
  "\u2581bescherming": 1362,
  "\u2581looking": 1363,
  "\u2581vandaag": 1364,
  "\u2581Ook": 1365,
  "\u2581gegeven": 1366,
  "\u2581middelen": 1367,
  "\u2581understand": 1368,
  "\u2581kwaliteit": 1369,
  "\u2581zitten": 1370,
  "\u2581OJ": 1371,
  "\u25812000": 1372,
  "\u2581dingen": 1373,
  "\u2581wrong": 1374,
  "\u2581Contact": 1375,
  "\u2581mogen": 1376,
  "\u2581implementation": 1377,
  "\u2581June": 1378,
  "ran": 1379,
  "\u2581Con": 1380,
  "\u2581food": 1381,
  "\u2581communautaire": 1382,
  "\u2581Here": 1383,
  "\u25812.": 1384,
  "ty": 1385,
  "\u2581half": 1386,
  "\u2581Bar": 1387,
  "\u2581x": 1388,
  "\u2581lijkt": 1389,
  "\u2581genoeg": 1390,
  "\u2581Nederland": 1391,
  "\u2581concerning": 1392,
  "\u2581leave": 1393,
  "\u2581offer": 1394,
  "\u2581belangrijk": 1395,
  "\u2581zegt": 1396,
  "\u2581beschikbaar": 1397,
  "\u2581vorm": 1398,
  "\u2581kennis": 1399,
  "0": 1400,
  "\u2581mei": 1401,
  "ga": 1402,
  "\u2581Ca": 1403,
  "\u2581bedoelde": 1404,
  "\u2581activiteiten": 1405,
  "\u2581coming": 1406,
  "\u2581Court": 1407,
  "\u2581(2)": 1408,
  "\u2581opgenomen": 1409,
  "\u2581air": 1410,
  "\u2581juni": 1411,
  "\u2581handel": 1412,
  "line": 1413,
  "\u2581Man": 1414,
  "ph": 1415,
  "\u2581gratis": 1416,
  "ard": 1417,
  "\u2581local": 1418,
  "\u2581leu": 1419,
  "all": 1420,
  "ts": 1421,
  "\u25813,": 1422,
  "ige": 1423,
  "\u2581relevant": 1424,
  "\u2581film": 1425,
  "\u2581Sp": 1426,
  "\u2581Zijn": 1427,
  "ip": 1428,
  "\u2581July": 1429,
  "\u2581regio": 1430,
  "\u2581France": 1431,
  "\u2581women": 1432,
  "\u2581situatie": 1433,
  "\u2581line": 1434,
  "\u2581Lo": 1435,
  "\u2581risico": 1436,
  "\u2581du": 1437,
  "\u2581above": 1438,
  "\u2581become": 1439,
  "\u2581seen": 1440,
  "\u2581wijze": 1441,
  "\u2581Da": 1442,
  "\u2581sh": 1443,
  "\u2581ervoor": 1444,
  "\u2581leden": 1445,
  "\u25812007": 1446,
  "\u2581gelijk": 1447,
  "\u2581werking": 1448,
  "\u2581El": 1449,
  "\u2581zowel": 1450,
  "\u2581See": 1451,
  "\u2581safety": 1452,
  "\u2581once": 1453,
  "\u2581band": 1454,
  "\u2581main": 1455,
  "\u2581problems": 1456,
  "\u2581vooral": 1457,
  "\u2581specifieke": 1458,
  "\u2581Our": 1459,
  "\u2581perfect": 1460,
  "\u2581wanted": 1461,
  "con": 1462,
  "ley": 1463,
  "\u2581More": 1464,
  "\u2581+": 1465,
  "\u2581Ha": 1466,
  "\u2581praten": 1467,
  "\u2581kill": 1468,
  "\u2581results": 1469,
  "\u25812004": 1470,
  "\u2581criteria": 1471,
  "\u2581toegang": 1472,
  "\u2581vind": 1473,
  "\u2581maximum": 1474,
  "dy": 1475,
  "\u2581video": 1476,
  "ens": 1477,
  "va": 1478,
  "\u2581Meer": 1479,
  "\u2581treatment": 1480,
  "\u2581da": 1481,
  "\u2581terwijl": 1482,
  "\u2581cases": 1483,
  "\u258140": 1484,
  "\u2581periode": 1485,
  "\u2581patients": 1486,
  "\u2581making": 1487,
  "\u2581job": 1488,
  "\u2581volledig": 1489,
  "els": 1490,
  "my": 1491,
  "\u2581apart": 1492,
  "\u2581close": 1493,
  "\u2581ro": 1494,
  "\u2581bijvoorbeeld": 1495,
  "\u2581oog": 1496,
  "how": 1497,
  "\u2581gezegd": 1498,
  "ay": 1499,
  "\u2581pati\u00ebnten": 1500,
  "elijk": 1501,
  "\u2581ziet": 1502,
  "ingen": 1503,
  "\u2581computer": 1504,
  "\u2581EN": 1505,
  "\u2581final": 1506,
  "\u2581daarvan": 1507,
  "ide": 1508,
  "\u2581klaar": 1509,
  "\u2581iedereen": 1510,
  "\u2581went": 1511,
  "\u2581personen": 1512,
  "\u2581result": 1513,
  "over": 1514,
  "\u2581zaak": 1515,
  "\u2581hear": 1516,
  "\u2581route": 1517,
  "\u2581state": 1518,
  "\u2581costs": 1519,
  "\u2581bestaat": 1520,
  "\u2581experience": 1521,
  "io": 1522,
  "ice": 1523,
  "\u2581zoek": 1524,
  "\u2581minutes": 1525,
  "\u2581vaak": 1526,
  "\u2581code": 1527,
  "ish": 1528,
  "\u2581zin": 1529,
  "\u2581friend": 1530,
  "pe": 1531,
  "\u2581Mijnheer": 1532,
  "\u2581Daarom": 1533,
  "\u2581algemene": 1534,
  "\u2581ander": 1535,
  "rs": 1536,
  "\u2581systems": 1537,
  "\u2581key": 1538,
  "\u2581Some": 1539,
  "day": 1540,
  "\u2581four": 1541,
  "\u2581past": 1542,
  "\u2581interest": 1543,
  "\u2581Agreement": 1544,
  "la": 1545,
  "ks": 1546,
  "\u2581times": 1547,
  "\u2581Staten": 1548,
  "\u2581word": 1549,
  "\u2581sound": 1550,
  "\u2581rol": 1551,
  "\u2581increase": 1552,
  "\u2581By": 1553,
  "\u2581mm": 1554,
  "\u2581nacht": 1555,
  "\u2581prijzen": 1556,
  "\u2581Win": 1557,
  "ous": 1558,
  "\u2581field": 1559,
  "\u2581soort": 1560,
  "\u2581dienen": 1561,
  "tel": 1562,
  "\u2581Gu": 1563,
  "\u2581ondernemingen": 1564,
  "\u2581trying": 1565,
  "\u2581vindt": 1566,
  "\u2581minuten": 1567,
  "pen": 1568,
  "eft": 1569,
  "meenschappelijke": 1570,
  "\u2581inter": 1571,
  "\u2581blood": 1572,
  "\u2581girl": 1573,
  "\u2581zoeken": 1574,
  "\u2581mind": 1575,
  "\u2581gehouden": 1576,
  "\u25812006": 1577,
  "\u2581spijt": 1578,
  "anna": 1579,
  "\u2581boven": 1580,
  "\u2581meeting": 1581,
  "\u2581head": 1582,
  "\u2581January": 1583,
  "\u2581bieden": 1584,
  "app": 1585,
  "ac": 1586,
  "\u2581private": 1587,
  "\u2581com": 1588,
  "\u2581amount": 1589,
  "\u2581hours": 1590,
  "\u2581Her": 1591,
  "eerd": 1592,
  "\u2581Kijk": 1593,
  "\u2581San": 1594,
  "ance": 1595,
  "\u2581Gra": 1596,
  "\u2581cent": 1597,
  "\u2581include": 1598,
  "\u2581happened": 1599,
  "ness": 1600,
  "ische": 1601,
  "\u2581current": 1602,
  "\u2581r": 1603,
  "\u2581rechten": 1604,
  "\u2581januari": 1605,
  "\u2581technical": 1606,
  "\u2581hart": 1607,
  "ning": 1608,
  "\u2581hulp": 1609,
  "\u2581Sa": 1610,
  "\u2581sub": 1611,
  ");": 1612,
  "\u2581bar": 1613,
  "\u2581minimum": 1614,
  "\u2581John": 1615,
  "\u2581required": 1616,
  "\u2581dergelijke": 1617,
  "\u2581hope": 1618,
  "\u2581ye": 1619,
  "\u2581sir": 1620,
  "nik": 1621,
  "\u2581After": 1622,
  "\u2581idee": 1623,
  "\u2581Ex": 1624,
  "\u2581kijken": 1625,
  "\u25812008": 1626,
  "nen": 1627,
  "\u2581March": 1628,
  "tis": 1629,
  "kt": 1630,
  "\u2581gevallen": 1631,
  "\u2581juli": 1632,
  "\u2581young": 1633,
  "\u2581various": 1634,
  "ally": 1635,
  "\u2581Uit": 1636,
  "\u2581einde": 1637,
  "\u2581Kan": 1638,
  "\u2581eerst": 1639,
  "\u2581fine": 1640,
  "\u2581pay": 1641,
  "bb": 1642,
  "\u2581Bank": 1643,
  "\u2581vormen": 1644,
  "\u2581gas": 1645,
  "\u2581sinds": 1646,
  "\u2581ongeveer": 1647,
  "ung": 1648,
  "X": 1649,
  "\u2581terms": 1650,
  "\u2581overeenkomst": 1651,
  "\u2581projects": 1652,
  "\u2581werkt": 1653,
  "ast": 1654,
  "ef": 1655,
  "\u2581huidige": 1656,
  "\u2581deal": 1657,
  "\u2581bijzonder": 1658,
  "\u2581bank": 1659,
  "\u2581tax": 1660,
  "\u2581idea": 1661,
  "ement": 1662,
  "\u2581framework": 1663,
  "log": 1664,
  "\u2581Economic": 1665,
  "\u2581environment": 1666,
  "\u2581Amsterdam": 1667,
  "\u2581son": 1668,
  "\u2581gek": 1669,
  "uk": 1670,
  "\u266a": 1671,
  "ind": 1672,
  "\u2581legislation": 1673,
  "\u2581productie": 1674,
  "\u2581Social": 1675,
  "\u2581rapporteur": 1676,
  "\u2581five": 1677,
  "\u2581wetgeving": 1678,
  "\u2581dead": 1679,
  "\u2581bedoeld": 1680,
  "ja": 1681,
  "\u2581kamer": 1682,
  "\u2581Door": 1683,
  "\u2581rate": 1684,
  "\u2581November": 1685,
  "\u2581orde": 1686,
  "\u2581hoge": 1687,
  "\u2581else": 1688,
  "\u2581known": 1689,
  "\u2581Netherlands": 1690,
  "Staten": 1691,
  "\u2581document": 1692,
  "\u2581nou": 1693,
  "\u2581nice": 1694,
  "ooi": 1695,
  "\u2581houdt": 1696,
  "19": 1697,
  "\u2581betekent": 1698,
  "\u2581blijft": 1699,
  "\u2581Po": 1700,
  "\u2581try": 1701,
  "\u2581heart": 1702,
  "\u2581October": 1703,
  "\u2581technische": 1704,
  "val": 1705,
  "ace": 1706,
  "\u2581begroting": 1707,
  "les": 1708,
  "\u2581Hall": 1709,
  "\u2581makes": 1710,
  "\u2581zeg": 1711,
  "\u25812016": 1712,
  "\u2581politieke": 1713,
  "\u25812009": 1714,
  "baar": 1715,
  "ight": 1716,
  "load": 1717,
  "\u2581father": 1718,
  "bli": 1719,
  "\u2581someone": 1720,
  "\u2581companies": 1721,
  "\u2581III": 1722,
  "\u2581beautiful": 1723,
  "\u2581gett": 1724,
  "\u2581saw": 1725,
  "\u2581talking": 1726,
  "\u2581bo": 1727,
  "our": 1728,
  "\u2581november": 1729,
  "\u2581moest": 1730,
  "\u2581Ru": 1731,
  "\u25812002": 1732,
  "\u2581vol": 1733,
  "\u2581Mrs": 1734,
  "\u2581members": 1735,
  "\u2581kaart": 1736,
  "\u2581vijf": 1737,
  "\u2581actually": 1738,
  "\u2581Dank": 1739,
  "\u25812003": 1740,
  "een": 1741,
  "\u2581Men": 1742,
  "\u2581partners": 1743,
  "\u2581Toen": 1744,
  "let": 1745,
  "\u2581below": 1746,
  "\u2581short": 1747,
  "\u2581volgt": 1748,
  "\u2581Mag": 1749,
  "\u2581Any": 1750,
  "\u2581oktober": 1751,
  "ting": 1752,
  "art": 1753,
  "\u2581deed": 1754,
  "\u2581denken": 1755,
  "\u2581Because": 1756,
  "\u2581hoop": 1757,
  "\u2581Sam": 1758,
  "\u2581impact": 1759,
  "gel": 1760,
  "\u2581established": 1761,
  "\u2581voorstellen": 1762,
  "\u2581either": 1763,
  "\u2581TV": 1764,
  "\u2581autoriteiten": 1765,
  "\u2581maart": 1766,
  "\u2581Sta": 1767,
  "\u2581resources": 1768,
  "\u2581review": 1769,
  "\u2581considered": 1770,
  "\u2581gewijzigd": 1771,
  "\u2581EC": 1772,
  "ko": 1773,
  "eert": 1774,
  "\u2581gebieden": 1775,
  "\u2581due": 1776,
  "\u2581Se": 1777,
  "\u2581stelt": 1778,
  "\u2581issue": 1779,
  "\u2581Ka": 1780,
  "\u2581applicable": 1781,
  "\u2581bedrijven": 1782,
  "eu": 1783,
  "vel": 1784,
  "\u2581vaststelling": 1785,
  "\u2581upon": 1786,
  "\u2581Ste": 1787,
  "\u25812010": 1788,
  "\u2581bekend": 1789,
  "\u2581resultaten": 1790,
  "ES": 1791,
  "ug": 1792,
  "zelf": 1793,
  "\u2581wijziging": 1794,
  "\u2581wist": 1795,
  "\u25812001": 1796,
  "\u2581vermoord": 1797,
  "\u2581September": 1798,
  "\u2581spelen": 1799,
  "ni": 1800,
  "\u2581located": 1801,
  "\u2581hoog": 1802,
  "\u2581daarom": 1803,
  "ende": 1804,
  "\u2581vele": 1805,
  "\u2581Uw": 1806,
  "\u2581middel": 1807,
  "\u2581Group": 1808,
  "ure": 1809,
  "\u2581request": 1810,
  "\u2581vertellen": 1811,
  "\u2581Free": 1812,
  "\u2581cm": 1813,
  "ign": 1814,
  "\u2581role": 1815,
  "ti": 1816,
  "ica": 1817,
  "\u2581directly": 1818,
  "\u2581Zie": 1819,
  "\u25813.": 1820,
  "mar": 1821,
  "\u2581groep": 1822,
  "\u2581instellingen": 1823,
  "\u2581yourself": 1824,
  "\u2581Che": 1825,
  "unt": 1826,
  "\u2581reeds": 1827,
  "6": 1828,
  "min": 1829,
  "\u2581mannen": 1830,
  "10": 1831,
  "\u2581living": 1832,
  "\u2581His": 1833,
  "\u2581move": 1834,
  "\u2581Having": 1835,
  "\u25812005": 1836,
  "\u2581erop": 1837,
  "\u2581helemaal": 1838,
  "\u2581thuis": 1839,
  "\u2581easy": 1840,
  "\u2581natural": 1841,
  "pt": 1842,
  "\u2581krijgt": 1843,
  "\u2581run": 1844,
  "\u2581september": 1845,
  "lin": 1846,
  "\u2581mother": 1847,
  "\u2581continue": 1848,
  "dag": 1849,
  "\u2581centrum": 1850,
  "stel": 1851,
  "DE": 1852,
  "50": 1853,
  "\u2581goods": 1854,
  "bi": 1855,
  "lon": 1856,
  "):": 1857,
  "\u2581Republic": 1858,
  "\u2581oude": 1859,
  "\u2581regels": 1860,
  "\u2581meeste": 1861,
  "ED": 1862,
  "\u2581bestaande": 1863,
  "\u2581verzoek": 1864,
  "\u2581House": 1865,
  "\u2581termijn": 1866,
  "\u2581Park": 1867,
  "\u2581fun": 1868,
  "\u2581heard": 1869,
  "\u2581bijna": 1870,
  "\u2581bepaald": 1871,
  "\u2581geloof": 1872,
  "\u2581bevat": 1873,
  "\u2581soon": 1874,
  "\u2581ooit": 1875,
  "\u2581delen": 1876,
  "\u2581General": 1877,
  "\u2581algemeen": 1878,
  "way": 1879,
  "\u2581context": 1880,
  "\u2581ho": 1881,
  "ep": 1882,
  "\u2581laid": 1883,
  "\u2581spel": 1884,
  "\u2581studies": 1885,
  "bare": 1886,
  "ise": 1887,
  "\u2581gebracht": 1888,
  "\u2581toekomst": 1889,
  "\u2581mooi": 1890,
  "\u2581cost": 1891,
  "\u2581institutions": 1892,
  "\u2581wait": 1893,
  "ns": 1894,
  "\u2581employment": 1895,
  "\u2581Per": 1896,
  "her": 1897,
  "meenschappelijk": 1898,
  "5": 1899,
  "\u2581programmes": 1900,
  "\u2581EG": 1901,
  "\u2581equipment": 1902,
  "ft": 1903,
  "\u2581beetje": 1904,
  "ator": 1905,
  "\u2581druk": 1906,
  "\u2581bloed": 1907,
  "\u2581party": 1908,
  "lief": 1909,
  "weg": 1910,
  "\u2581bestand": 1911,
  "\u2581music": 1912,
  "\u2581however": 1913,
  "\u2581several": 1914,
  "ket": 1915,
  "\u2581interne": 1916,
  "\u2581bedrijf": 1917,
  "\u2581true": 1918,
  "huis": 1919,
  "li": 1920,
  "\u2581game": 1921,
  "OK": 1922,
  "\u2581belangrijkste": 1923,
  "\u258160": 1924,
  "\u2581remember": 1925,
  "\u2581dienst": 1926,
  "\u2581Onze": 1927,
  "\u2581wish": 1928,
  "\u2581dis": 1929,
  "\u2581landbouw": 1930,
  "\u2581China": 1931,
  "onder": 1932,
  "less": 1933,
  "\u25812018": 1934,
  "\u2581Ra": 1935,
  "\u2581competition": 1936,
  "\u2581reason": 1937,
  "\u2581nature": 1938,
  "\u2581(\"": 1939,
  "\u2581voorzien": 1940,
  "\u2581face": 1941,
  "ya": 1942,
  "\u2581Wel": 1943,
  "\u2581personal": 1944,
  "\u2581crisis": 1945,
  "\u2581points": 1946,
  "appart": 1947,
  "\u2581natuurlijk": 1948,
  "\u2581International": 1949,
  "air": 1950,
  "\u2581particularly": 1951,
  "\u25811999": 1952,
  "\u2581internet": 1953,
  "\u2581le": 1954,
  "uh": 1955,
  "\u2581mening": 1956,
  "\u2581others": 1957,
  "cht": 1958,
  "bestand": 1959,
  "can": 1960,
  "cy": 1961,
  "zo": 1962,
  "\u2581check": 1963,
  "\u2581eten": 1964,
  "\u2581persoon": 1965,
  "\u2581Euro": 1966,
  "\u2581enkel": 1967,
  "\u25812011": 1968,
  "\u2581eind": 1969,
  "\u2581outside": 1970,
  "\u2581zoon": 1971,
  "\u2581Pre": 1972,
  "\u2581%": 1973,
  "\u2581gevolg": 1974,
  "\u2581region": 1975,
  "\u2581April": 1976,
  "\u2581kant": 1977,
  "eg": 1978,
  "\u2581turn": 1979,
  "\u2581gesteld": 1980,
  "\u2581addition": 1981,
  "\u2581major": 1982,
  "rry": 1983,
  "nes": 1984,
  "\u2581ha": 1985,
  "\u2581y": 1986,
  "\u2581regional": 1987,
  "\u2581feit": 1988,
  "\u2581overeenstemming": 1989,
  "\u2581towards": 1990,
  "bel": 1991,
  "\u2581among": 1992,
  "\u2581zee": 1993,
  "\u2581voorkomen": 1994,
  "ron": 1995,
  "\u2581Lord": 1996,
  "\u2581bestaan": 1997,
  "\u2581cha": 1998,
  "\u2581estate": 1999,
  "\u2581mis": 2000,
  "\u2581Germany": 2001,
  "\u2581effects": 2002,
  "\u2581Indien": 2003,
  "ful": 2004,
  "idae": 2005,
  "\u2581restaurant": 2006,
  "vin": 2007,
  "oot": 2008,
  "\u2581Tot": 2009,
  "\u2581saying": 2010,
  "\u2581included": 2011,
  "\u25812012": 2012,
  "\u25812015": 2013,
  "\u2581Ke": 2014,
  "\u2581zetten": 2015,
  "\u2581amended": 2016,
  "\u2581opnieuw": 2017,
  "\u2581design": 2018,
  "ets": 2019,
  "\u2581vervoer": 2020,
  "\u2581artikelen": 2021,
  "\u2581authority": 2022,
  "int": 2023,
  "\u2581(3)": 2024,
  "\u2581beginnen": 2025,
  "\u2581Stop": 2026,
  "\u2581bevoegde": 2027,
  "\u2581questions": 2028,
  "\u2581phone": 2029,
  "\u2581Ch": 2030,
  "\u2581aandacht": 2031,
  "\u2581zag": 2032,
  "\u2581nee": 2033,
  "\u2581Am": 2034,
  "\u2581ruimte": 2035,
  "\u2581morning": 2036,
  "\u2581heen": 2037,
  "\u2581bedoel": 2038,
  "ai": 2039,
  "\u2581niemand": 2040,
  "\u2581Pa": 2041,
  "\u2581follow": 2042,
  "for": 2043,
  "\u2581longer": 2044,
  "po": 2045,
  "\u25814,": 2046,
  "\u2581gebaseerd": 2047,
  "\u2581kans": 2048,
  "get": 2049,
  "\u2581sn": 2050,
  "\u25812013": 2051,
  "\u2581werknemers": 2052,
  "ell": 2053,
  "\u2581often": 2054,
  "\u2581responsible": 2055,
  "\u2581low": 2056,
  "\u2581april": 2057,
  "\u2581gevolgen": 2058,
  "\u2581noodzakelijk": 2059,
  "ana": 2060,
  "\u2581Brussel": 2061,
  "\u2581Ko": 2062,
  "programma": 2063,
  "zen": 2064,
  "\u2581From": 2065,
  "7": 2066,
  "\u2581mate": 2067,
  "\u2581ontvangen": 2068,
  "\u2581proberen": 2069,
  "ava": 2070,
  "berg": 2071,
  "\u2581map": 2072,
  "\u2581neemt": 2073,
  "\u2581proposed": 2074,
  "\u2581government": 2075,
  "pa": 2076,
  "\u2581leiden": 2077,
  "\u2581death": 2078,
  "\u2581motor": 2079,
  "\u2581Mor": 2080,
  "ack": 2081,
  "\u2581juiste": 2082,
  "\u2581fully": 2083,
  "row": 2084,
  "\u2581pas": 2085,
  "Zoals": 2086,
  "\u2581partijen": 2087,
  "\u2581mar": 2088,
  "\u2581Tour": 2089,
  "30": 2090,
  "ino": 2091,
  "don": 2092,
  "if": 2093,
  "\u2581slaap": 2094,
  "\u2581woman": 2095,
  "\u2581Brussels": 2096,
  "\u2581uitgevoerd": 2097,
  "\u2581individual": 2098,
  "\u2581building": 2099,
  "\u2581carried": 2100,
  "\u2581sea": 2101,
  "\u2581environmental": 2102,
  "\u2581approach": 2103,
  "\u2581Right": 2104,
  "ello": 2105,
  "\u2581related": 2106,
  "\u2581internal": 2107,
  "\u2581friends": 2108,
  "\u258190": 2109,
  "\u2581hou": 2110,
  "\u2581study": 2111,
  "iet": 2112,
  "\u2581Har": 2113,
  "\u2581war": 2114,
  "\u2581agricultural": 2115,
  "ub": 2116,
  "\u2581capital": 2117,
  "\u2581issues": 2118,
  "\u2581town": 2119,
  "tjes": 2120,
  "\u2581boy": 2121,
  "\u2581asked": 2122,
  "\u2581says": 2123,
  "\u2581according": 2124,
  "\u2581Char": 2125,
  "\u2581parties": 2126,
  "\u2581effective": 2127,
  "\u2581voorzitter": 2128,
  "\u2581media": 2129,
  "del": 2130,
  "\u2581quite": 2131,
  "\u2581doelstellingen": 2132,
  "\u2581growth": 2133,
  "\u2581French": 2134,
  "\u2581additional": 2135,
  "\u2581ontwerp": 2136,
  "\u2581v\u00f3\u00f3r": 2137,
  "\u2581persons": 2138,
  "\u2581progress": 2139,
  "Q": 2140,
  "\u2581vakantie": 2141,
  "\u2581comes": 2142,
  "\u25812014": 2143,
  "\u2581lange": 2144,
  "\u2581vallen": 2145,
  "nis": 2146,
  "\u2581education": 2147,
  "\u2581ready": 2148,
  "\u2581Maak": 2149,
  "\u2581zult": 2150,
  "\u2581br": 2151,
  "tan": 2152,
  "see": 2153,
  "\u2581mevrouw": 2154,
  "\u2581wind": 2155,
  "\u2581levels": 2156,
  "\u2581000": 2157,
  "\u2581office": 2158,
  "\u2581grootste": 2159,
  "naam": 2160,
  "\u2581significant": 2161,
  "\u2581content": 2162,
  "han": 2163,
  "\u2581super": 2164,
  "\u2581plaatsen": 2165,
  "\u2581bath": 2166,
  "\u2581page": 2167,
  "\u2581Volgens": 2168,
  "\u2581liggen": 2169,
  "20": 2170,
  "\u2581complete": 2171,
  "\u2581invoer": 2172,
  "\u2581involved": 2173,
  "met": 2174,
  "\u2581horen": 2175,
  "rij": 2176,
  "\u2581February": 2177,
  "\u2581bus": 2178,
  "\u2581contract": 2179,
  "\u2581changes": 2180,
  "\u2581sent": 2181,
  "\u2581book": 2182,
  "\u2581onderwijs": 2183,
  "ys": 2184,
  "8": 2185,
  "rant": 2186,
  "\u2581tekst": 2187,
  "@": 2188,
  "\u2581IN": 2189,
  "\u2581Internet": 2190,
  "\u2581policies": 2191,
  "ci": 2192,
  "\u2581basic": 2193,
  "\u2581gebeurd": 2194,
  "jo": 2195,
  "\u2581held": 2196,
  "\u2581Omdat": 2197,
  "\u2581gedurende": 2198,
  "\u2581Even": 2199,
  "king": 2200,
  "\u2581Art": 2201,
  "AL": 2202,
  "\u2581relating": 2203,
  "\u2581antwoord": 2204,
  "port": 2205,
  "\u2581investment": 2206,
  "\u2581range": 2207,
  "\u2581debate": 2208,
  "vi": 2209,
  "\u2581beheer": 2210,
  "\u2581knew": 2211,
  "\u2581thank": 2212,
  "\u2581Jan": 2213,
  "\u2581needed": 2214,
  "\u25812019": 2215,
  "\u2581Was": 2216,
  "\u2581eerder": 2217,
  "\u2581Hol": 2218,
  "\u2581klein": 2219,
  "\u2581late": 2220,
  "\u2581februari": 2221,
  "\u2581text": 2222,
  "\u2581visit": 2223,
  "\u2581waardoor": 2224,
  "\u2581Duitsland": 2225,
  "\u2581address": 2226,
  "\u2581beide": 2227,
  "eerde": 2228,
  "ath": 2229,
  "\u2581etc": 2230,
  "\u2581totale": 2231,
  "\u2581po": 2232,
  "\u2581Auto": 2233,
  "\u2581cut": 2234,
  "\u2581reference": 2235,
  "\u2581works": 2236,
  "\u2581goederen": 2237,
  "\u2581proposals": 2238,
  "\u2581st": 2239,
  "\u2581hetzelfde": 2240,
  "hu": 2241,
  "ki": 2242,
  "\u2581provides": 2243,
  "ious": 2244,
  "\u2581instrument": 2245,
  "vers": 2246,
  "\u2581existing": 2247,
  "\u2581drive": 2248,
  "\u2581alone": 2249,
  "\u2581groei": 2250,
  "\u2581eigenlijk": 2251,
  "\u2581regering": 2252,
  "\u2581park": 2253,
  "\u2581words": 2254,
  "\u2581voorschriften": 2255,
  "\u2581projecten": 2256,
  "gra": 2257,
  "\u2581serious": 2258,
  "\u2581Un": 2259,
  "ud": 2260,
  "\u2581front": 2261,
  "\u2581Ta": 2262,
  "\u2581concurrentie": 2263,
  "\u2581Book": 2264,
  "\u2581EES": 2265,
  "\u2581telefoon": 2266,
  "\u2581lost": 2267,
  "\u2581itself": 2268,
  "voor": 2269,
  "\u2581Frankrijk": 2270,
  "\u2581oplossing": 2271,
  "\u2581Geef": 2272,
  "\u2581art": 2273,
  "ring": 2274,
  "\u2581brought": 2275,
  "\u2581along": 2276,
  "ama": 2277,
  "\u2581Dutch": 2278,
  "ever": 2279,
  "rap": 2280,
  "\u2581hoogte": 2281,
  "ill": 2282,
  "\u2581Have": 2283,
  "avond": 2284,
  "\u2581beschikking": 2285,
  "\u2581werkgelegenheid": 2286,
  "\u2581200": 2287,
  "\u2581read": 2288,
  "\u2581World": 2289,
  "\u00e8": 2290,
  "\u2581cover": 2291,
  "werk": 2292,
  "ord": 2293,
  "\u2581voeren": 2294,
  "\u2581datum": 2295,
  "mp": 2296,
  "\u2581sommige": 2297,
  "\u2581network": 2298,
  "\u2581waarmee": 2299,
  "\u2581road": 2300,
  "\u2581War": 2301,
  "\u2581gave": 2302,
  "\u2581competent": 2303,
  "\u2581burgers": 2304,
  "plaats": 2305,
  "\u2581wife": 2306,
  "\u2581machine": 2307,
  "\u2581Airport": 2308,
  "\u2581vrienden": 2309,
  "ob": 2310,
  "\u2581covered": 2311,
  "\u2581age": 2312,
  "\u2581West": 2313,
  "\u2581insurance": 2314,
  "\u2581objectives": 2315,
  "vo": 2316,
  "\u2581establishing": 2317,
  "oor": 2318,
  "tra": 2319,
  "\u2581especially": 2320,
  "systeem": 2321,
  "\u2581purpose": 2322,
  "\u2581South": 2323,
  "\u2581Laten": 2324,
  "\u2581six": 2325,
  "\u2581credit": 2326,
  "\u2581species": 2327,
  "\u2581geheel": 2328,
  "\u2581hel": 2329,
  "\u2581neer": 2330,
  "\u2581killed": 2331,
  "\u2581politie": 2332,
  "\u2581maybe": 2333,
  "\u2581Hu": 2334,
  "\u2581groups": 2335,
  "\u2581brand": 2336,
  "\u2581regions": 2337,
  "90": 2338,
  "\u2581standards": 2339,
  "ham": 2340,
  "\u2581material": 2341,
  "\u2581mogelijkheid": 2342,
  "\u2581financiering": 2343,
  "\u2581received": 2344,
  "book": 2345,
  "iv": 2346,
  "que": 2347,
  "\u2581reden": 2348,
  "\u2581winkel": 2349,
  "\u2581Pe": 2350,
  "\u2581wet": 2351,
  "\u2581lucht": 2352,
  "\u2581woord": 2353,
  "\u2581sta": 2354,
  "\u2581higher": 2355,
  "\u2581volledige": 2356,
  "\u2581solution": 2357,
  "BAR": 2358,
  "\u2581aanzien": 2359,
  "\u2581letter": 2360,
  "\u2581improve": 2361,
  "\u2581allow": 2362,
  "\u2581Air": 2363,
  "tal": 2364,
  "\u2581white": 2365,
  "\u2581klanten": 2366,
  "\u2581forward": 2367,
  "\u2581Spain": 2368,
  "\u2581travel": 2369,
  "\u2581stemmen": 2370,
  "\u2581send": 2371,
  "\u2581vanuit": 2372,
  "tor": 2373,
  "\u2581woorden": 2374,
  "ijn": 2375,
  "\u2581walk": 2376,
  "ab": 2377,
  "uff": 2378,
  "istische": 2379,
  "\u2581COM": 2380,
  "\u2581halen": 2381,
  "\u2581Sea": 2382,
  "\u2581omstandigheden": 2383,
  "\u2581photo": 2384,
  "\u2581Hel": 2385,
  "itch": 2386,
  "ris": 2387,
  "za": 2388,
  "\u2581status": 2389,
  "\u2581workers": 2390,
  "\u2581gij": 2391,
  "\u2581punten": 2392,
  "\u2581started": 2393,
  "\u2581wacht": 2394,
  "door": 2395,
  "\u2581share": 2396,
  "rie": 2397,
  "PB": 2398,
  "\u2581kun": 2399,
  "\u2581near": 2400,
  "omme": 2401,
  "hi": 2402,
  "\u2581Ku": 2403,
  "\u2581goedgekeurd": 2404,
  "\u2581spreken": 2405,
  "\u2581moeilijk": 2406,
  "\u2581thereof": 2407,
  "fer": 2408,
  "\u2581English": 2409,
  "\u2581tien": 2410,
  "+": 2411,
  "wer": 2412,
  "\u2581opening": 2413,
  "\u2581Tri": 2414,
  "\u2581sport": 2415,
  "\u2581principle": 2416,
  "mon": 2417,
  "\u2581Br": 2418,
  "\u2581lead": 2419,
  "\u2581ne": 2420,
  "\u2581weken": 2421,
  "\u2581Jack": 2422,
  "low": 2423,
  "\u2581bedrag": 2424,
  "\u2581waarschijnlijk": 2425,
  "\u2581performance": 2426,
  "\u2581term": 2427,
  "res": 2428,
  "\u2581alsmede": 2429,
  "\u2581links": 2430,
  "\u2581voldoen": 2431,
  "Het": 2432,
  "eth": 2433,
  "\u2581Kar": 2434,
  "\u2581doctor": 2435,
  "About": 2436,
  "\u2581space": 2437,
  "wa": 2438,
  "\u2581partner": 2439,
  "\u2581Other": 2440,
  "\u2581dank": 2441,
  "\u2581rather": 2442,
  "lan": 2443,
  "ans": 2444,
  "\u2581almost": 2445,
  "\u2581act": 2446,
  "\u2581section": 2447,
  "34": 2448,
  "\u2581gericht": 2449,
  "\u2581ogen": 2450,
  "\u2581increased": 2451,
  "\u2581though": 2452,
  "lik": 2453,
  "lim": 2454,
  "\u2581namelijk": 2455,
  "\u2581behind": 2456,
  "\u2581active": 2457,
  "\u2581dieren": 2458,
  "\u2581decided": 2459,
  "\u2581gezondheid": 2460,
  "\u2581child": 2461,
  "lijke": 2462,
  "\u2581gebeurt": 2463,
  "\u2581sa": 2464,
  "kker": 2465,
  "\u2581Take": 2466,
  "\u258180": 2467,
  "\u2581create": 2468,
  "\u2581citizens": 2469,
  "OJ": 2470,
  "\u2581regards": 2471,
  "\u2581Portugal": 2472,
  "\u2581assessment": 2473,
  "\u2581red": 2474,
  "\u2581assistance": 2475,
  "\u2581Mi": 2476,
  "\u2581kracht": 2477,
  "\u2581hetgeen": 2478,
  "tijd": 2479,
  "\u2581morgen": 2480,
  "\u2581wants": 2481,
  "\u2581German": 2482,
  "\u2581onroerend": 2483,
  "\u2581regeling": 2484,
  "\u2581Tom": 2485,
  "\u2581Hof": 2486,
  "\u2581added": 2487,
  "time": 2488,
  "\u2581keuze": 2489,
  "\u2581Spanje": 2490,
  "\u2581gehad": 2491,
  "\u2581bereikt": 2492,
  "\u2581society": 2493,
  "\u2581vertegenwoordig": 2494,
  "\u2581capacity": 2495,
  "99": 2496,
  "\u2581Du": 2497,
  "\u2581technology": 2498,
  "\u2581ml": 2499,
  "\u2581stoffen": 2500,
  "\u2581Service": 2501,
  "\u2581genoemd": 2502,
  "\u2581black": 2503,
  "\u2581Wi": 2504,
  "IT": 2505,
  "\u2581weeks": 2506,
  "\u2581floor": 2507,
  "\u2581files": 2508,
  "\u2581fire": 2509,
  "llen": 2510,
  "\u2581parts": 2511,
  "isch": 2512,
  "\u2581bang": 2513,
  "\u2581size": 2514,
  "ita": 2515,
  "\u2581Wai": 2516,
  "\u2581gekomen": 2517,
  "\u2581Vi": 2518,
  "\u2581bereiken": 2519,
  "ong": 2520,
  "\u2581attention": 2521,
  "ING": 2522,
  "\u2581echte": 2523,
  "\u2581zes": 2524,
  "\u2581takes": 2525,
  "\u2581greater": 2526,
  "\u2581leren": 2527,
  "\u2581Alles": 2528,
  "\u2581reis": 2529,
  "\u2581Log": 2530,
  "\u2581president": 2531,
  "tu": 2532,
  "\u2581onderneming": 2533,
  "\u2581neem": 2534,
  "\u2581Add": 2535,
  "\u2581safe": 2536,
  "\u2581monitoring": 2537,
  "\u2581vote": 2538,
  "\u2581myself": 2539,
  "\u2581Af": 2540,
  "\u2581step": 2541,
  "\u2581regionale": 2542,
  "ors": 2543,
  "nt": 2544,
  "\u2581setting": 2545,
  "\u2581vervangen": 2546,
  "\u2581recent": 2547,
  "\u2581City": 2548,
  "uur": 2549,
  "\u2581grens": 2550,
  "\u2581denkt": 2551,
  "\u2581resolution": 2552,
  "\u2581ervaring": 2553,
  "\u2581Bull": 2554,
  "\u2581enjoy": 2555,
  "lf": 2556,
  "\u2581huur": 2557,
  "\u2581similar": 2558,
  "\u2581waarvoor": 2559,
  "\u2581Barcelona": 2560,
  "\u2581guess": 2561,
  "\u2581mens": 2562,
  "\u2581advertentie": 2563,
  "race": 2564,
  "ag": 2565,
  "tri": 2566,
  "\u2581designed": 2567,
  "\u2581First": 2568,
  "\u2581paid": 2569,
  "\u2581Kingdom": 2570,
  "\u2581lichaam": 2571,
  "\u2581applied": 2572,
  "\u2581standard": 2573,
  "\u2581table": 2574,
  "\u2581export": 2575,
  "\u2581potential": 2576,
  "ba": 2577,
  "\u2581everyone": 2578,
  "\u2581Li": 2579,
  "\u2581ieder": 2580,
  "\u2581List": 2581,
  "ux": 2582,
  "\u2581aard": 2583,
  "huur": 2584,
  "\u2581Ont": 2585,
  "\u2581volgen": 2586,
  "\u2581supply": 2587,
  "\u2581Frank": 2588,
  "sion": 2589,
  "\u2581gone": 2590,
  "\u2581verbeteren": 2591,
  "\u2581vroeg": 2592,
  "\u2581vond": 2593,
  "ium": 2594,
  "\u2581goedkeuring": 2595,
  "\u2581fight": 2596,
  "40": 2597,
  "\u2581materials": 2598,
  "\u2581debat": 2599,
  "\u2581enter": 2600,
  "ted": 2601,
  "\u2581proces": 2602,
  "\u2581Mon": 2603,
  "ism": 2604,
  "\u2581themselves": 2605,
  "\u2581Q": 2606,
  "sp": 2607,
  "\u2581York": 2608,
  "\u2581inside": 2609,
  "\u2581analysis": 2610,
  "\u2581dose": 2611,
  "\u2581AND": 2612,
  "sche": 2613,
  "\u2581early": 2614,
  "\u2581wonder": 2615,
  "\u2581langs": 2616,
  "\u258145": 2617,
  "\u2581Mac": 2618,
  "\u2581animals": 2619,
  "\u2581acht": 2620,
  "\u2581Col": 2621,
  "\u2581David": 2622,
  "\u2581payment": 2623,
  "\u2581decisions": 2624,
  "\u2581pi": 2625,
  "\u2581probably": 2626,
  "\u2581Information": 2627,
  "\u2581amendments": 2628,
  "\u2581Nieuw": 2629,
  "\u2581anyone": 2630,
  "ix": 2631,
  "term": 2632,
  "\u2581zorg": 2633,
  "\u2581lopen": 2634,
  "\u2581August": 2635,
  "\u2581Koninkrijk": 2636,
  "bar": 2637,
  "\u2581Par": 2638,
  "\u2581fruit": 2639,
  "\u2581ingediend": 2640,
  "\u2581welcome": 2641,
  "25": 2642,
  "\u00a9": 2643,
  "\u2581knowledge": 2644,
  "\u2581gr": 2645,
  "\u2581oil": 2646,
  "\u2581return": 2647,
  "\u2581Natuurlijk": 2648,
  "\u2581rid": 2649,
  "\u2581US": 2650,
  "\u2581staff": 2651,
  "sk": 2652,
  "ber": 2653,
  "\u2581self": 2654,
  "\u2581plant": 2655,
  "\u2581zat": 2656,
  "\u2581operation": 2657,
  "\u2581pretty": 2658,
  "ura": 2659,
  "\u2581exchange": 2660,
  "\u2581Gezi": 2661,
  "\u2581event": 2662,
  "\u2581Read": 2663,
  "\u2581verkoop": 2664,
  "dro": 2665,
  "\u2581industrial": 2666,
  "\u2581granted": 2667,
  "\u2581member": 2668,
  "\u2581strong": 2669,
  "\u2581wachten": 2670,
  "\u2581belasting": 2671,
  "\u2581weinig": 2672,
  "ot": 2673,
  "iz": 2674,
  "\u2581waste": 2675,
  "code": 2676,
  "\u2581bijzondere": 2677,
  "\u2581Like": 2678,
  "\u2581seems": 2679,
  "\u25814.": 2680,
  "bad": 2681,
  "\u2581Pr": 2682,
  "\u2581agenda": 2683,
  "16": 2684,
  "\u2581drugs": 2685,
  "nie": 2686,
  "\u2581item": 2687,
  "ax": 2688,
  "ym": 2689,
  "\u2581importance": 2690,
  "\u2581guarantee": 2691,
  "\u2581anderen": 2692,
  "\u2581activity": 2693,
  "sta": 2694,
  "\u2581markets": 2695,
  "\u2581werkzaamheden": 2696,
  "\u2581agreements": 2697,
  "\")": 2698,
  "\u2581beoordeling": 2699,
  "\u2581station": 2700,
  "\u2581Paul": 2701,
  "ov": 2702,
  "\u2581hit": 2703,
  "\u2581hold": 2704,
  "\u2581boeken": 2705,
  "\u2581purposes": 2706,
  "\u2581rooms": 2707,
  "\u2581geloven": 2708,
  "\u2581plek": 2709,
  "\u2581bestanden": 2710,
  "ert": 2711,
  "\u2581thus": 2712,
  "rk": 2713,
  "dom": 2714,
  "\u2581muziek": 2715,
  "eel": 2716,
  "\u2581essential": 2717,
  "\u2581#": 2718,
  "\u2581practice": 2719,
  "\u2581oorsprong": 2720,
  "\u2581language": 2721,
  "\u2581Bureau": 2722,
  "\u2581pen": 2723,
  "bed": 2724,
  "\u25811992": 2725,
  "tar": 2726,
  "\u2581blijkt": 2727,
  "ney": 2728,
  "\u2581cross": 2729,
  "\u2581search": 2730,
  "\u2581Hi": 2731,
  "\u2581soms": 2732,
  "ms": 2733,
  "rit": 2734,
  "\u2581machines": 2735,
  "\u2581answer": 2736,
  "\u2581drink": 2737,
  "fo": 2738,
  "\u2581nieuws": 2739,
  "\u2581limited": 2740,
  "\u2581trust": 2741,
  "\u2581hands": 2742,
  "\u2581Ju": 2743,
  "ood": 2744,
  "?\"": 2745,
  "\u2581Inter": 2746,
  "\u2581invloed": 2747,
  "\u2581eisen": 2748,
  "\u2581develop": 2749,
  "\u2581precies": 2750,
  "bor": 2751,
  "\u2581exactly": 2752,
  "\u2581across": 2753,
  "FR": 2754,
  "\u2581lo": 2755,
  "ock": 2756,
  "lang": 2757,
  "\u2581?": 2758,
  "\u2581Protocol": 2759,
  "\u2581thinking": 2760,
  "\u2581Ba": 2761,
  "\u2581voldoende": 2762,
  "\u2581benefit": 2763,
  "\u2581leggen": 2764,
  "Be": 2765,
  "\u2581Search": 2766,
  "12": 2767,
  "lu": 2768,
  "\u2581uitvoer": 2769,
  "\u2581speciale": 2770,
  "ras": 2771,
  "\u2581happy": 2772,
  "ski": 2773,
  "Ik": 2774,
  "\u2581stage": 2775,
  "\u2581weight": 2776,
  "\u2581valt": 2777,
  "\u2581sterk": 2778,
  "\u2581actions": 2779,
  "80": 2780,
  "\u25811998": 2781,
  "sa": 2782,
  "\u2581central": 2783,
  "\u2581animal": 2784,
  "\u2581Fi": 2785,
  "\u2581save": 2786,
  "\u2581choice": 2787,
  "\u2581contains": 2788,
  "\u2581kg": 2789,
  "\u2581latest": 2790,
  "\u2581airport": 2791,
  "\u2581fout": 2792,
  "\u2581maand": 2793,
  "las": 2794,
  "ose": 2795,
  "\u2581Nog": 2796,
  "\u2581Heeft": 2797,
  "\u2581blij": 2798,
  "\u2581Neem": 2799,
  "\u2581mooie": 2800,
  "\u2581collega": 2801,
  "bal": 2802,
  "\u2581500": 2803,
  "\u2581jongen": 2804,
  "\u2581Whereas": 2805,
  "\u2581Bovendien": 2806,
  "\u2581meter": 2807,
  "het": 2808,
  "\u2581omgeving": 2809,
  "\u2581zoveel": 2810,
  "\u2581warm": 2811,
  "\u2581Italy": 2812,
  "od": 2813,
  "\u2581ta": 2814,
  "\u2581Pi": 2815,
  "\u2581Fe": 2816,
  "\u2581Pri": 2817,
  "kijk": 2818,
  "\u2581protect": 2819,
  "\u2581afgelopen": 2820,
  "\u2581opleiding": 2821,
  "\u2581minste": 2822,
  "\u258132": 2823,
  "\u2581par": 2824,
  "\u2581Lu": 2825,
  "\u2581industrie": 2826,
  "beleid": 2827,
  "\u2581reach": 2828,
  "\u2581difficult": 2829,
  "\u2581brother": 2830,
  "\u2581behalf": 2831,
  "\u2581god": 2832,
  "\u2581happen": 2833,
  "\u2581bed": 2834,
  "\u2581pijn": 2835,
  "\u2581los": 2836,
  "\u2581ECU": 2837,
  "cho": 2838,
  "\u2581evidence": 2839,
  "\u2581administrative": 2840,
  "\u2581diverse": 2841,
  "\u2581Sir": 2842,
  "\u2581average": 2843,
  "\u2581veilig": 2844,
  "ez": 2845,
  "2,": 2846,
  "15": 2847,
  "ence": 2848,
  "mb": 2849,
  "\u2581se": 2850,
  "\u2581speak": 2851,
  "\u2581Denk": 2852,
  "tro": 2853,
  "\u2581centre": 2854,
  "\u2581pagina": 2855,
  "\u2581kwestie": 2856,
  "\u2581North": 2857,
  "\u2581original": 2858,
  "\u2581toezicht": 2859,
  "\u2581stap": 2860,
  "\u2581Belgium": 2861,
  "\u2581Vo": 2862,
  "lijkheid": 2863,
  "\u2581Em": 2864,
  "\u2581history": 2865,
  "\u00e2": 2866,
  "\u2581Convention": 2867,
  "\u2581li": 2868,
  "\u2581geldt": 2869,
  "\u2581National": 2870,
  "\u2581Articles": 2871,
  "\u2581Republiek": 2872,
  "\u2581color": 2873,
  "\u2581nummer": 2874,
  "\u2581soorten": 2875,
  "sel": 2876,
  "\u2581developed": 2877,
  "\u2581verantwoorde": 2878,
  "\u2581Overwegende": 2879,
  "\u2581reasons": 2880,
  "ini": 2881,
  "\u2581Tel": 2882,
  "\u2581knows": 2883,
  "\u2581truth": 2884,
  "ins": 2885,
  "\u2581month": 2886,
  "\u2581kijk": 2887,
  "\u2581oprichting": 2888,
  "\u2581base": 2889,
  "17": 2890,
  "\u258135": 2891,
  "\u2581receive": 2892,
  "oon": 2893,
  "vis": 2894,
  "lig": 2895,
  "\u2581Franse": 2896,
  "\u2581cause": 2897,
  "\u2581chance": 2898,
  "\u2581police": 2899,
  "\u2581pass": 2900,
  "\u2581taal": 2901,
  "\u2581sch": 2902,
  "\u2581buurt": 2903,
  "\u2581sense": 2904,
  "\u2581min": 2905,
  "ory": 2906,
  "lip": 2907,
  "leg": 2908,
  "\u2581funds": 2909,
  "\u2581bi": 2910,
  "\u2581totaal": 2911,
  "\u2581Act": 2912,
  "ico": 2913,
  "\u2581agree": 2914,
  "\u2581Pla": 2915,
  "ey": 2916,
  "\u2581boek": 2917,
  "\u2581Rome": 2918,
  "\u2581transfer": 2919,
  "\u2581published": 2920,
  "tie": 2921,
  "\u2581waaronder": 2922,
  "\u2581vertrouwen": 2923,
  "\u2581intended": 2924,
  "\u2581bijdrage": 2925,
  "\u2581created": 2926,
  "\u2581directive": 2927,
  "schap": 2928,
  "\u2581para": 2929,
  "\u2581lokale": 2930,
  "\u2581strategy": 2931,
  "\u2581goes": 2932,
  "\u2581reports": 2933,
  "\u2581rechtstreeks": 2934,
  "\u2581gaf": 2935,
  "\u2581IV": 2936,
  "\u2581Commissioner": 2937,
  "\u2581instruments": 2938,
  "\u2581import": 2939,
  "\u2581ring": 2940,
  "waar": 2941,
  "\u2581gebruikers": 2942,
  "\u2581submitted": 2943,
  "\u2581Val": 2944,
  "\u2581!": 2945,
  "ire": 2946,
  "\u2581watch": 2947,
  "\u2581India": 2948,
  "\u2581fishing": 2949,
  "\u2581naast": 2950,
  "\u2581geworden": 2951,
  "\u2581handen": 2952,
  "raz": 2953,
  "\u2581ground": 2954,
  "lor": 2955,
  "\u2581approved": 2956,
  "ons": 2957,
  "\u2581onderdelen": 2958,
  "\u2581double": 2959,
  "\u2581bodies": 2960,
  "type": 2961,
  "\u2581meisje": 2962,
  "\u258170": 2963,
  "aire": 2964,
  "qui": 2965,
  "\u2581vlak": 2966,
  "bij": 2967,
  "war": 2968,
  "\u2581redenen": 2969,
  "\u2581Cor": 2970,
  "\u2581Central": 2971,
  "kel": 2972,
  "\u00e1": 2973,
  "24": 2974,
  "\u2581comfort": 2975,
  "\u2581fa": 2976,
  "\u2581dragen": 2977,
  "\u2581paper": 2978,
  "die": 2979,
  "\u2581vermeld": 2980,
  "\u2581stof": 2981,
  "\u2581Peter": 2982,
  "\u2581kopen": 2983,
  "\u2581communication": 2984,
  "mes": 2985,
  "\u2581genoemde": 2986,
  "\u2581Ter": 2987,
  "\u2581gelegen": 2988,
  "\u2581Will": 2989,
  "\u2581dog": 2990,
  "\u2581juist": 2991,
  "\u2581betalen": 2992,
  "\u2581High": 2993,
  "post": 2994,
  "01": 2995,
  "\u2581standpunt": 2996,
  "\u2581Pu": 2997,
  "\u2581koning": 2998,
  "11": 2999,
  "\u2581bel": 3000,
  "\u2581eyes": 3001,
  "its": 3002,
  "\u2581figure": 3003,
  "hal": 3004,
  "car": 3005,
  "\u2581actie": 3006,
  "\u2581types": 3007,
  "\u2581events": 3008,
  "\u2581aangenomen": 3009,
  "\u2581inhoud": 3010,
  "\u2581betere": 3011,
  "\u2581hu": 3012,
  "\u2581annual": 3013,
  "\u2581HET": 3014,
  "14": 3015,
  "\u2581300": 3016,
  "oom": 3017,
  "\u25812017": 3018,
  "ore": 3019,
  "\u2581entry": 3020,
  "\u2581sun": 3021,
  "ities": 3022,
  "\u2581vehicle": 3023,
  "pel": 3024,
  "\u2581gehoord": 3025,
  "era": 3026,
  "\u2581correct": 3027,
  "oc": 3028,
  "ec": 3029,
  "\u2581whose": 3030,
  "\u2581bestuur": 3031,
  "\u2581ECB": 3032,
  "\u2581story": 3033,
  "\u2581shows": 3034,
  "\u2581arm": 3035,
  "ile": 3036,
  "\u2581imports": 3037,
  "\u2581hoger": 3038,
  "\u2581economy": 3039,
  "ries": 3040,
  "Ge": 3041,
  "\u2581geef": 3042,
  "\u2581measure": 3043,
  "board": 3044,
  "\u2581regulation": 3045,
  "\u2581alsof": 3046,
  "\u2581strijd": 3047,
  "even": 3048,
  "\u2581verbetering": 3049,
  "\u2581joint": 3050,
  "\u25811996": 3051,
  "hl": 3052,
  "verantwoordelijk": 3053,
  "lot": 3054,
  "\u2581korte": 3055,
  "\u2581geweldig": 3056,
  "\u2581langer": 3057,
  "fri": 3058,
  "\u2581Ad": 3059,
  "\u2581Great": 3060,
  "\u2581bal": 3061,
  "Luister": 3062,
  "\u2581objective": 3063,
  "\u2581Jesus": 3064,
  "\u2581ken": 3065,
  "\u2581boot": 3066,
  "\u2581Amerikaanse": 3067,
  "pro": 3068,
  "\u2581couple": 3069,
  "\u2581gast": 3070,
  "\u2581Net": 3071,
  "\u2581ding": 3072,
  "ff": 3073,
  "\u2581mogelijkheden": 3074,
  "\u2581responsibility": 3075,
  "\u2581Official": 3076,
  "\u2581rates": 3077,
  "\u2581Since": 3078,
  "\u2581Gi": 3079,
  "\u2581buy": 3080,
  "31": 3081,
  "\u2581openbare": 3082,
  "\u2581oud": 3083,
  "\u2581property": 3084,
  "\u2581organisatie": 3085,
  "\u2581bezoek": 3086,
  "\u2581expenditure": 3087,
  "\u2581Sha": 3088,
  "\u2581fast": 3089,
  "\u2581kent": 3090,
  "\u2581vrije": 3091,
  "\u2581toegepast": 3092,
  "\u2581opportunity": 3093,
  "\u2581Ne": 3094,
  "\u2581labour": 3095,
  "\u2581iedere": 3096,
  "\u2581customer": 3097,
  "\u2581Rest": 3098,
  "\u2581Chi": 3099,
  "\u2581tomorrow": 3100,
  "\u2581multi": 3101,
  "\u2581TO": 3102,
  "\u2581Ni": 3103,
  "\u2581population": 3104,
  "\u2581dochter": 3105,
  "\u2581hoor": 3106,
  "\u2581radio": 3107,
  "\u2581Land": 3108,
  "\u2581minute": 3109,
  "\u2581favour": 3110,
  "\u2581modern": 3111,
  "\u2581equal": 3112,
  "\u2581analyse": 3113,
  "goed": 3114,
  "\u2581agreed": 3115,
  "\u2581Gele": 3116,
  "\u2581Water": 3117,
  "\u2581vergeten": 3118,
  "\u2581professional": 3119,
  "gepland": 3120,
  "scheduled": 3121,
  "\u2581gesloten": 3122,
  "mod": 3123,
  "\u2581uitgaven": 3124,
  "\u2581Mal": 3125,
  "\u2581clearly": 3126,
  "\u2581consider": 3127,
  "\u2581broer": 3128,
  "\u2581bouw": 3129,
  "\u2581volume": 3130,
  "\u2581organisaties": 3131,
  "\u2581positive": 3132,
  "\u2581Mevrouw": 3133,
  "\u2581camera": 3134,
  "\u2581holiday": 3135,
  "\u2581acties": 3136,
  "\u2581dollar": 3137,
  "65": 3138,
  "\u2581aangezien": 3139,
  "ble": 3140,
  "\u2581hot": 3141,
  "tre": 3142,
  "\u2581American": 3143,
  "\u2581Si": 3144,
  "\u2581listen": 3145,
  "\u2581behandeld": 3146,
  "\u2581prevent": 3147,
  "\u2581normal": 3148,
  "\u2581sleep": 3149,
  "\u2581vis": 3150,
  "\u2581Dur": 3151,
  "gle": 3152,
  "\u2581looks": 3153,
  "\u2581mogelijke": 3154,
  "ari": 3155,
  "\u2581message": 3156,
  "\u2581focus": 3157,
  "9": 3158,
  "\u2581ca": 3159,
  "\u2581voorbeeld": 3160,
  "\u2581Window": 3161,
  "70": 3162,
  "\u2581(4)": 3163,
  "ated": 3164,
  "\u2581defined": 3165,
  "\u2581marketing": 3166,
  "\u2581onderzoeken": 3167,
  "\u2581kennen": 3168,
  "\u2581Christ": 3169,
  "\u2581dam": 3170,
  "\u2581hair": 3171,
  "\u2581hoeft": 3172,
  "\u2581documents": 3173,
  "EL": 3174,
  "\u2581provision": 3175,
  "\u2581reduce": 3176,
  "\u2581port": 3177,
  "cker": 3178,
  "\u2581Fund": 3179,
  "\u2581currently": 3180,
  "\u2581Min": 3181,
  "\u2581Alleen": 3182,
  "\u2581pressure": 3183,
  "hose": 3184,
  "chi": 3185,
  "\u2581operations": 3186,
  "Re": 3187,
  "\u2581jonge": 3188,
  "\u2581Mat": 3189,
  "\u2581vergadering": 3190,
  "\u2581facilities": 3191,
  "\u2581Tell": 3192,
  "\u2581draft": 3193,
  "\u2581beperkt": 3194,
  "\u2581hurt": 3195,
  "\u2581Itali\u00eb": 3196,
  "gu": 3197,
  "\u2581pursuan": 3198,
  "\u2581Belgi\u00eb": 3199,
  "\u2581replaced": 3200,
  "\u2581zwem": 3201,
  "und": 3202,
  "\u2581Ac": 3203,
  "\u2581contribution": 3204,
  "\u2581follows": 3205,
  "rn": 3206,
  "\u2581unit": 3207,
  "\u2581slecht": 3208,
  "top": 3209,
  "gar": 3210,
  "\u2581leg": 3211,
  "\u2581woon": 3212,
  "\u25811990": 3213,
  "\u2581allowed": 3214,
  "\u2581official": 3215,
  "\u2581Italian": 3216,
  "\u2581natuurlijke": 3217,
  "\u2581pool": 3218,
  "\u2581values": 3219,
  "18": 3220,
  "\u2581bezig": 3221,
  "\u2581collection": 3222,
  "\u2581loop": 3223,
  "ings": 3224,
  "\u2581Grand": 3225,
  "\u2581kamers": 3226,
  "\u2581Every": 3227,
  "\u2581daarmee": 3228,
  "vol": 3229,
  "\u2581besluiten": 3230,
  "\u2581brengt": 3231,
  "si": 3232,
  "\u2581principles": 3233,
  "\u2581benefits": 3234,
  "\u2581duty": 3235,
  "\u2581campsite": 3236,
  "\u2581krijg": 3237,
  "\u2581slot": 3238,
  "\u2581verhaal": 3239,
  "\u2581applications": 3240,
  "\u2581netwerk": 3241,
  "\u2581geschikt": 3242,
  "\u2581studie": 3243,
  "\u2581vastgestelde": 3244,
  "\u2581died": 3245,
  "\u2581yes": 3246,
  "\u25811994": 3247,
  "\u2581Red": 3248,
  "off": 3249,
  "\u2581consumenten": 3250,
  "\u2581mu": 3251,
  "\u2581tevens": 3252,
  "\u2581listed": 3253,
  "\u2581midden": 3254,
  "\u2581houdende": 3255,
  "rd": 3256,
  "ake": 3257,
  "ette": 3258,
  "\u2581Besluit": 3259,
  "\u2581uitbreiding": 3260,
  "oth": 3261,
  "\u25815.": 3262,
  "\u00fc": 3263,
  "che": 3264,
  "arm": 3265,
  "\u2581shot": 3266,
  "\u2581Onder": 3267,
  "\u25811995": 3268,
  "\u2581effecten": 3269,
  "\u2581gezicht": 3270,
  "\u2581CO": 3271,
  "\u2581gebeuren": 3272,
  "\u2581Gebruik": 3273,
  "\u2581instelling": 3274,
  "\u2581sale": 3275,
  "\u2581schat": 3276,
  "\u2581bepalen": 3277,
  "\u2581aange": 3278,
  "\u2581commercial": 3279,
  "\u2581connection": 3280,
  "ear": 3281,
  "\u2581jongens": 3282,
  "oog": 3283,
  "\u2581gemakkelijk": 3284,
  "\u2581associated": 3285,
  "\u25811997": 3286,
  "ox": 3287,
  "tische": 3288,
  "\u2581lu": 3289,
  "\u2581regarding": 3290,
  "\u2581external": 3291,
  "\u2581verbonden": 3292,
  "LL": 3293,
  "\u2581achieve": 3294,
  "gang": 3295,
  "\u2581brief": 3296,
  "\u2581Product": 3297,
  "\u2581civil": 3298,
  "\u2581liefde": 3299,
  "\u2581Journal": 3300,
  "\u2581verklaring": 3301,
  "\u2581break": 3302,
  "\u2581Green": 3303,
  "\u2581record": 3304,
  "\u2581BTW": 3305,
  "\u2581Budget": 3306,
  "\u2581passen": 3307,
  "\u2581micro": 3308,
  "\u2581Jezus": 3309,
  "\u2581bevorderen": 3310,
  "\u2581series": 3311,
  "more": 3312,
  "\u2581origin": 3313,
  "\u2581natuur": 3314,
  "\u2581afstand": 3315,
  "hop": 3316,
  "\u2581dosis": 3317,
  "45": 3318,
  "bra": 3319,
  "\u2581aarde": 3320,
  "\u2581kiezen": 3321,
  "\u2581beeld": 3322,
  "\u2581previous": 3323,
  "ized": 3324,
  "recht": 3325,
  "\u2581maak": 3326,
  "\u2581tra": 3327,
  "so": 3328,
  "\u2581Zuid": 3329,
  "\u2581strand": 3330,
  "\u2581heet": 3331,
  "\u2581Za": 3332,
  "\u2581kreeg": 3333,
  "\u2581lives": 3334,
  "\u2581namens": 3335,
  "\u2581simple": 3336,
  "\u2581class": 3337,
  "\u2581Bal": 3338,
  "\u2581peace": 3339,
  "sy": 3340,
  "\u2581aanmerking": 3341,
  "lam": 3342,
  "\u2581mentioned": 3343,
  "\u2581pan": 3344,
  "\u2581beroep": 3345,
  "\u2581concrete": 3346,
  "og": 3347,
  "\u2581interests": 3348,
  "nd": 3349,
  "\u2581gen": 3350,
  "ei": 3351,
  "lt": 3352,
  "\u2581Camp": 3353,
  "komen": 3354,
  "halen": 3355,
  "\u2581alinea": 3356,
  "\u2581supposed": 3357,
  "\u2581Japan": 3358,
  "0.000": 3359,
  "\u2581agent": 3360,
  "\u2581lower": 3361,
  "\u2581Max": 3362,
  "mel": 3363,
  "\u2581ru": 3364,
  "act": 3365,
  "\u2581Data": 3366,
  "\u2581complex": 3367,
  "\u2581host": 3368,
  "\u2581gemiddelde": 3369,
  "\u2581IT": 3370,
  "26": 3371,
  "\u2581Michael": 3372,
  "cl": 3373,
  "mi": 3374,
  "\u2581efforts": 3375,
  "ments": 3376,
  "\u2581zichzelf": 3377,
  "\u2581nodige": 3378,
  "other": 3379,
  "\u2581implementing": 3380,
  "\u2581stuff": 3381,
  "21": 3382,
  "\u2581fixed": 3383,
  "ering": 3384,
  "\u2581choose": 3385,
  "\u2581voedsel": 3386,
  "\u2581Moet": 3387,
  "\u2581program": 3388,
  "bescherming": 3389,
  "\u2581produced": 3390,
  "\u2581himself": 3391,
  "\u2581Ab": 3392,
  "uch": 3393,
  "\u2581schade": 3394,
  "\u2581ste": 3395,
  "\u2581dicht": 3396,
  "\u2581remain": 3397,
  "vor": 3398,
  "\u2581duurzame": 3399,
  "pre": 3400,
  "\u2581charge": 3401,
  "\u2581movement": 3402,
  "\u2581global": 3403,
  "\u2581fish": 3404,
  "ru": 3405,
  "\u2581Mu": 3406,
  "\u2581eat": 3407,
  "fe": 3408,
  "\u2581Gemeenschappen": 3409,
  "\u2581club": 3410,
  "loof": 3411,
  "ementen": 3412,
  "60": 3413,
  "\u2581inbegrip": 3414,
  "\u2581immediately": 3415,
  "\u2581specified": 3416,
  "\u2581entire": 3417,
  "\u2581America": 3418,
  "\u2581komende": 3419,
  "\u25811993": 3420,
  "\u2581skin": 3421,
  "95": 3422,
  "\u2581arbeids": 3423,
  "\u2581stem": 3424,
  "ving": 3425,
  "\u2581stock": 3426,
  "nuitvoerlegging": 3427,
  "\u2581kilometer": 3428,
  "\u2581note": 3429,
  "\u2581beschermen": 3430,
  "\u2581Overeenkomst": 3431,
  "erd": 3432,
  "\u2581fair": 3433,
  "\u00f6": 3434,
  "\u2581users": 3435,
  "\u2581Report": 3436,
  "\u2581matters": 3437,
  "\u2581arts": 3438,
  "gas": 3439,
  "\u2581avond": 3440,
  "dam": 3441,
  "ich": 3442,
  "\u2581publiek": 3443,
  "\u2581pick": 3444,
  "\u2581beschouwd": 3445,
  "\u2581ontwikkelen": 3446,
  "pp": 3447,
  "hand": 3448,
  "\u2581relations": 3449,
  "\u2581sign": 3450,
  "\u2581bijdragen": 3451,
  "\u2581lamp": 3452,
  "\u2581tonight": 3453,
  "\u2581investeringen": 3454,
  "\u2581location": 3455,
  "\u2581Noord": 3456,
  "\u2581gemeente": 3457,
  "\u2581Development": 3458,
  "\u2581steel": 3459,
  "\u2581court": 3460,
  "\u2581keuken": 3461,
  "\u2581Naar": 3462,
  "\u2581versie": 3463,
  "\u2581running": 3464,
  "gg": 3465,
  "\u00b0": 3466,
  "\u2581economisch": 3467,
  "\u2581stuk": 3468,
  "\u2581deur": 3469,
  "ible": 3470,
  "wagen": 3471,
  "\u2581genieten": 3472,
  "ska": 3473,
  "\u2581reduction": 3474,
  "\u258192": 3475,
  "\u2581arrangements": 3476,
  "\u2581Chinese": 3477,
  "\u2581Paris": 3478,
  "\u2581persoonlijke": 3479,
  "\u2581Minister": 3480,
  "lay": 3481,
  "\u2581carry": 3482,
  "\u2581card": 3483,
  "\u2581eenvoudig": 3484,
  "\u2581combinatie": 3485,
  "\u2581gevoel": 3486,
  "\u2581volk": 3487,
  "\u2581expected": 3488,
  "\u2581simply": 3489,
  "\u2581Communities": 3490,
  "\u2581planning": 3491,
  "part": 3492,
  "\u2581White": 3493,
  "\u2581sc": 3494,
  "ses": 3495,
  "\u2581amending": 3496,
  "\u2581customs": 3497,
  "\u2581developing": 3498,
  "rom": 3499,
  "iel": 3500,
  "\u2581version": 3501,
  "\u2581klant": 3502,
  "yn": 3503,
  "\u2581Ireland": 3504,
  "\u2581nor": 3505,
  "ows": 3506,
  "\u2581gehele": 3507,
  "\u2581centrale": 3508,
  "\u2581optreden": 3509,
  "\u2581vermogen": 3510,
  "\u2581beginning": 3511,
  "IN": 3512,
  "old": 3513,
  "diensten": 3514,
  "\u2581University": 3515,
  "\u2581unto": 3516,
  "\u2581augustus": 3517,
  "\u2581bevolking": 3518,
  "\u2581onderdeel": 3519,
  "\u2581App": 3520,
  "\u2581interested": 3521,
  "\u2581Veel": 3522,
  "\u2581hoeveelheid": 3523,
  "\u2581overzicht": 3524,
  "\u2581waarheid": 3525,
  "\u2581grotere": 3526,
  "\u258101": 3527,
  "\u2581tri": 3528,
  "rick": 3529,
  "\u2581besloten": 3530,
  "\u258175": 3531,
  "\u2581methods": 3532,
  "\u2581medium": 3533,
  "\u2581kleur": 3534,
  "\u2581voordelen": 3535,
  "\u2581Gen": 3536,
  "\u2581verkeer": 3537,
  "\u2581sche": 3538,
  "\u2581ernstige": 3539,
  "\u2581George": 3540,
  "\u2581Mer": 3541,
  "\u2581verteld": 3542,
  "\u2581giving": 3543,
  "\u2581shown": 3544,
  "\u2581balance": 3545,
  "\u2581disease": 3546,
  "\u2581kunst": 3547,
  "bu": 3548,
  "\u2581features": 3549,
  "\u2581thousands": 3550,
  "antie": 3551,
  "\u2581detailed": 3552,
  "win": 3553,
  "\u2581overall": 3554,
  "\u2581Gar": 3555,
  "\u2581presented": 3556,
  "\u2581vehicles": 3557,
  "\u2581eveneens": 3558,
  "\u2581Twee": 3559,
  "ating": 3560,
  "\u2581partij": 3561,
  "\u2581Government": 3562,
  "28": 3563,
  "\u2581likely": 3564,
  "\u2581forms": 3565,
  "\u2581nam": 3566,
  "hor": 3567,
  "\u2581ondersteuning": 3568,
  "\u2581heren": 3569,
  "\u2581arrest": 3570,
  "\u2581produkten": 3571,
  "\u2581maakte": 3572,
  "punt": 3573,
  "\u2581accept": 3574,
  "\u2581oorlog": 3575,
  "\u2581visserij": 3576,
  "\u2581thanks": 3577,
  "cam": 3578,
  "ado": 3579,
  "dd": 3580,
  "ail": 3581,
  "\u2581concern": 3582,
  "\u2581percentage": 3583,
  "\u2581wall": 3584,
  "\u2581Port": 3585,
  "\u2581fall": 3586,
  "spel": 3587,
  "\u2581Customer": 3588,
  "\u2581voorbij": 3589,
  "\u2581verwacht": 3590,
  "\u2581Two": 3591,
  "13": 3592,
  "bin": 3593,
  "\u2581Pen": 3594,
  "\u2581destination": 3595,
  "\u2581wijzigingen": 3596,
  "\u2581veranderen": 3597,
  "\u2581Super": 3598,
  "pi": 3599,
  "\u2581pictures": 3600,
  "\u2581speed": 3601,
  "\u2581built": 3602,
  "\u2581(1": 3603,
  "\u2581promote": 3604,
  "\u2581noch": 3605,
  "No": 3606,
  "\u2581aim": 3607,
  "\u2581providing": 3608,
  "ib": 3609,
  "\u2581web": 3610,
  "ijk": 3611,
  "\u2581trouw": 3612,
  "\u2581trans": 3613,
  "fa": 3614,
  "\u2581completely": 3615,
  "\u2581financing": 3616,
  "\u2581gives": 3617,
  "ces": 3618,
  "ward": 3619,
  "\u2581commissaris": 3620,
  "\u2581round": 3621,
  "\u258188": 3622,
  "\u2581richting": 3623,
  "gh": 3624,
  "\u2581economie": 3625,
  "\u2581Im": 3626,
  "\u2581sectors": 3627,
  "COM": 3628,
  "nn": 3629,
  "\u2581East": 3630,
  "haal": 3631,
  "sbeleid": 3632,
  "\u2581aware": 3633,
  "cri": 3634,
  "onderhandelingen": 3635,
  "\u2581Black": 3636,
  "\u2581konden": 3637,
  "ming": 3638,
  "\u2581limit": 3639,
  "\u2581Check": 3640,
  "\u2581daughter": 3641,
  "\u2581metal": 3642,
  "\u2581method": 3643,
  "i\u00eb": 3644,
  "\u2581Want": 3645,
  "cor": 3646,
  "download": 3647,
  "\u2581technologie": 3648,
  "\u2581worry": 3649,
  "\u2581luck": 3650,
  "\u2581Research": 3651,
  "\u2581Cha": 3652,
  "\u2581uitsluitend": 3653,
  "\u2581gang": 3654,
  "\u2581derhalve": 3655,
  "tron": 3656,
  "49": 3657,
  "\u2581resultaat": 3658,
  "\u2581Den": 3659,
  "\u2581register": 3660,
  "\u2581\u00b0": 3661,
  "ella": 3662,
  "\u2581worked": 3663,
  "\u2581containing": 3664,
  "\u2581Only": 3665,
  "\u2581overheid": 3666,
  "\u2581throughout": 3667,
  "kant": 3668,
  "\u2581VI": 3669,
  "\u2581pakken": 3670,
  "ante": 3671,
  "\u2581response": 3672,
  "\u2581lose": 3673,
  "\u2581views": 3674,
  "\u2581Vraag": 3675,
  "ijdens": 3676,
  "\u2581organisations": 3677,
  "\u2581nadat": 3678,
  "house": 3679,
  "right": 3680,
  "\u2581groter": 3681,
  "ius": 3682,
  "\u2581instrumenten": 3683,
  "\u2581hour": 3684,
  "\u2581function": 3685,
  "vie": 3686,
  "\u2581Blijf": 3687,
  "\u2581Part": 3688,
  "\u2581bewijs": 3689,
  "\u2581items": 3690,
  "\u2581virus": 3691,
  "ont": 3692,
  "\u2581tried": 3693,
  "\u2581resolutie": 3694,
  "\u2581Dis": 3695,
  "\u2581jobs": 3696,
  "\u2581sit": 3697,
  "\u2581learn": 3698,
  "sie": 3699,
  "\u2581Code": 3700,
  "\u2581except": 3701,
  "overeenkomst": 3702,
  "\u2581uiteindelijk": 3703,
  "\u2581starting": 3704,
  "\u2581guest": 3705,
  "\u2581decide": 3706,
  "\u2581stel": 3707,
  "\u258148": 3708,
  "\u2581scheme": 3709,
  "ano": 3710,
  "\u2581toilet": 3711,
  "\u2581150": 3712,
  "\u2581concept": 3713,
  "ship": 3714,
  "\u2581boat": 3715,
  "stand": 3716,
  "\u2581medical": 3717,
  "\u2581relevante": 3718,
  "\u2581birth": 3719,
  "\u2581val": 3720,
  "nu": 3721,
  "\u2581Star": 3722,
  "\u2581Canada": 3723,
  "\u2581object": 3724,
  "\u2581board": 3725,
  "\u2581processing": 3726,
  "ata": 3727,
  "\u2581positie": 3728,
  "\u2581Informatie": 3729,
  "\u2581murder": 3730,
  "\u2581People": 3731,
  "\u2581Fa": 3732,
  "arry": 3733,
  "\u2581schuld": 3734,
  "\u2581EUROPEAN": 3735,
  "\u25818,": 3736,
  "\u2581user": 3737,
  "sis": 3738,
  "\u2581clean": 3739,
  "link": 3740,
  "\u2581wou": 3741,
  "\u2581foreign": 3742,
  "\u2581ch": 3743,
  "\u2581add": 3744,
  "\u2581Fo": 3745,
  "\u2581reviews": 3746,
  "\u2581tests": 3747,
  "\u2581aanpassing": 3748,
  "\u258136": 3749,
  "\u2581mededeling": 3750,
  "\u2581amendementen": 3751,
  "rid": 3752,
  "loos": 3753,
  "\u258185": 3754,
  "kop": 3755,
  "\u2581Mc": 3756,
  "\u2581kort": 3757,
  "\u2581Kamer": 3758,
  "\u2581verplichtingen": 3759,
  "-1": 3760,
  "\u2581earth": 3761,
  "\u2581kitchen": 3762,
  "\u2581standaard": 3763,
  "\u2581vanwege": 3764,
  "\u2581aspects": 3765,
  "\u2581Tre": 3766,
  "\u2581markten": 3767,
  "\u2581leveren": 3768,
  "\u2581Ri": 3769,
  "kzij": 3770,
  "\u2581Sh": 3771,
  "\u2581momenteel": 3772,
  "\u2581vooruitgang": 3773,
  "\u2581Pas": 3774,
  "red": 3775,
  "\u2581flat": 3776,
  "-2": 3777,
  "\u2581vervolgens": 3778,
  "\u2581uitzondering": 3779,
  "\u2581sustainable": 3780,
  "\u2581succes": 3781,
  "\u2581sex": 3782,
  "\u2581freedom": 3783,
  "\u2581creation": 3784,
  "\u2581scope": 3785,
  "\u2581ju": 3786,
  "\u2581rule": 3787,
  "\u2581100%": 3788,
  "\u2581consumer": 3789,
  "wi": 3790,
  "\u2581huid": 3791,
  "\u2581verleend": 3792,
  "\u2581Prijs": 3793,
  "dding": 3794,
  "din": 3795,
  "\u2581bekijken": 3796,
  "\u2581require": 3797,
  "\u2581husband": 3798,
  "cent": 3799,
  "water": 3800,
  "\u2581factor": 3801,
  "\u2581mede": 3802,
  "\u2581till": 3803,
  "36": 3804,
  "har": 3805,
  "\u2581source": 3806,
  "\u2581geest": 3807,
  "08": 3808,
  "\u2581extension": 3809,
  "\u2581adopt": 3810,
  "\u2581talen": 3811,
  "\u2581gentlemen": 3812,
  "\u2581majority": 3813,
  "\u2581investigation": 3814,
  "\u2581vorige": 3815,
  "\u2581includes": 3816,
  "\u2581eye": 3817,
  "\u2581Follow": 3818,
  "\u2581duizenden": 3819,
  "\u2581toekomstige": 3820,
  "32": 3821,
  "\u2581gelden": 3822,
  "\u2581Duitse": 3823,
  "\u2581aangegeven": 3824,
  "\u2581wijzen": 3825,
  "\u2581stoppen": 3826,
  "\u2581enable": 3827,
  "lia": 3828,
  "att": 3829,
  "daan": 3830,
  "\u2581gesproken": 3831,
  "\u2581Nothing": 3832,
  "eld": 3833,
  "\u2581doden": 3834,
  "06": 3835,
  "\u2581rechts": 3836,
  "!\"": 3837,
  "\u2581committee": 3838,
  "zz": 3839,
  "\u2581offici\u00eble": 3840,
  "\u2581rust": 3841,
  "\u2581Office": 3842,
  "lijst": 3843,
  "\u2581negotiations": 3844,
  "toe": 3845,
  "\u2581overeenkomsten": 3846,
  "\u2581ba": 3847,
  "We": 3848,
  "\u2581calls": 3849,
  "\u2581miljard": 3850,
  "\u2581relation": 3851,
  "\u2581scar": 3852,
  "\u2581village": 3853,
  "service": 3854,
  "\u2581certainly": 3855,
  "\u2581substances": 3856,
  "\u2581leeftijd": 3857,
  "\u2581mond": 3858,
  "\u2581zover": 3859,
  "\u2581Give": 3860,
  "\u2581milk": 3861,
  "\u2581born": 3862,
  "\u2581NL": 3863,
  "\u2581tuin": 3864,
  "\u2581Africa": 3865,
  "\u2581openen": 3866,
  "\u2581verdere": 3867,
  "woord": 3868,
  "\u2581written": 3869,
  "\u2581vereist": 3870,
  "aars": 3871,
  "\u2581organisation": 3872,
  "\u2581View": 3873,
  "\u2581operating": 3874,
  "\u2581loss": 3875,
  "\u2581prepared": 3876,
  "\u2581statement": 3877,
  "\u2581laws": 3878,
  "\u2581alcohol": 3879,
  "\u2581administration": 3880,
  "\u2581Bel": 3881,
  "\u2581detail": 3882,
  "\u2581sin": 3883,
  "27": 3884,
  "fi": 3885,
  "\u2581ment": 3886,
  "\u2581Up": 3887,
  "\u2581File": 3888,
  "\u2581became": 3889,
  "\u2581sales": 3890,
  "\u2581consumption": 3891,
  "\u2581regulations": 3892,
  "\u2581click": 3893,
  "\u2581im": 3894,
  "\u2581ziekte": 3895,
  "\u2581geneesmiddelen": 3896,
  "\u2581begrijp": 3897,
  "\u2581geschiedenis": 3898,
  "\u2581ontwikkeld": 3899,
  "\u2581liever": 3900,
  "\u2581wandel": 3901,
  "\u2581duur": 3902,
  "\u2581forget": 3903,
  "\u2581wide": 3904,
  "\u2581touch": 3905,
  "\u2581eraan": 3906,
  "\u2581eruit": 3907,
  "\u2581Section": 3908,
  "35": 3909,
  "\u2581construction": 3910,
  "\u2581establishment": 3911,
  "\u2581district": 3912,
  "\u2581cheap": 3913,
  "\u2581verschillen": 3914,
  "\u2581aanwezig": 3915,
  "\u2581VOOR": 3916,
  "\u2581personeel": 3917,
  "rad": 3918,
  "\u2581rustig": 3919,
  "lar": 3920,
  "\u2581taak": 3921,
  "\u2581sometimes": 3922,
  "ros": 3923,
  "\u2581obligations": 3924,
  "Con": 3925,
  "\u2581Does": 3926,
  "ara": 3927,
  "\u2581ones": 3928,
  "\u2581camp": 3929,
  "\u2581baan": 3930,
  "\u2581Tu": 3931,
  "\u2581producers": 3932,
  "\u2581Andere": 3933,
  "\u2581Mark": 3934,
  "09": 3935,
  "\u2581Sociaal": 3936,
  "kamers": 3937,
  "dig": 3938,
  "\u2581establish": 3939,
  "\u2581seem": 3940,
  "ties": 3941,
  "cr": 3942,
  "\u2581territory": 3943,
  "\u2581ship": 3944,
  "\u2581cultural": 3945,
  "\u2581structure": 3946,
  "\u2581Saint": 3947,
  "\u2581aanvullende": 3948,
  "\u2581reported": 3949,
  "\u258102": 3950,
  "\u2581materiaal": 3951,
  "\u2581Common": 3952,
  "\u2581unless": 3953,
  "\u2581Exc": 3954,
  "44": 3955,
  "\u2581flight": 3956,
  "pl": 3957,
  "\u2581Down": 3958,
  "ls": 3959,
  "bit": 3960,
  "\u2581betaling": 3961,
  "\u2581feest": 3962,
  "\u2581Hand": 3963,
  "\u2581daarbij": 3964,
  "\u2581sleutel": 3965,
  "\u2581vormt": 3966,
  "\u2581Therefore": 3967,
  "elijke": 3968,
  "You": 3969,
  "\u2581hire": 3970,
  "\u2581waiting": 3971,
  "\u2581ways": 3972,
  "\u2581voel": 3973,
  "ense": 3974,
  "gaan": 3975,
  "\u2581Price": 3976,
  "\u2581strategie": 3977,
  "\u2581daily": 3978,
  "\u2581avoid": 3979,
  "\u2581circumstances": 3980,
  "\u2581Ki": 3981,
  "\u2581lijn": 3982,
  "\u2581Out": 3983,
  "won": 3984,
  "\u2581whatever": 3985,
  "par": 3986,
  "\u2581pain": 3987,
  "dra": 3988,
  "\u2581elements": 3989,
  "\u2581toegevoegd": 3990,
  "\u2581Centre": 3991,
  "\u2581winter": 3992,
  "\u2581bedrijfs": 3993,
  "1,": 3994,
  "dis": 3995,
  "box": 3996,
  "\u2581aanvraag": 3997,
  "\u2581Maria": 3998,
  "\u2581gevaar": 3999,
  "\u2581voorzitterschap": 4000,
  "tion": 4001,
  "\u2581gevraagd": 4002,
  "\u2581sweet": 4003,
  "ieve": 4004,
  "\u2581integratie": 4005,
  "\u2581minister": 4006,
  "\u2581win": 4007,
  "q": 4008,
  "\u2581rechter": 4009,
  "\u2581scientific": 4010,
  "\u2581Boek": 4011,
  "\u2581initiatief": 4012,
  "\u2581sluiten": 4013,
  "\u2581games": 4014,
  "\u2581plus": 4015,
  "\u2581Agency": 4016,
  "maal": 4017,
  "\u2581followed": 4018,
  "\u2581bedragen": 4019,
  "\u2581separate": 4020,
  "\u2581laag": 4021,
  "\u2581ouders": 4022,
  "\u2581Affairs": 4023,
  "3,": 4024,
  "\u2581storage": 4025,
  "\u2581gekozen": 4026,
  "chel": 4027,
  "ical": 4028,
  "\u2581quickly": 4029,
  "\u2581EEA": 4030,
  "kast": 4031,
  "ony": 4032,
  "\u2581Mus": 4033,
  "gan": 4034,
  "\u2581verlenen": 4035,
  "\u2581actual": 4036,
  "\u2581maximaal": 4037,
  "\u2581afraid": 4038,
  "02": 4039,
  "\u2581wine": 4040,
  "\u2581mal": 4041,
  "\u2581lezen": 4042,
  "\u2581Madrid": 4043,
  "\u2581playing": 4044,
  "az": 4045,
  "ani": 4046,
  "rab": 4047,
  "\u2581afhankelijk": 4048,
  "\u2581vlucht": 4049,
  "\u258133": 4050,
  "\u2581akkoord": 4051,
  "\u2581producenten": 4052,
  "\u2581begint": 4053,
  "heden": 4054,
  "\u2581collect": 4055,
  "\u2581sprake": 4056,
  "auto": 4057,
  "55": 4058,
  "\u2581plans": 4059,
  "groep": 4060,
  "\u2581draw": 4061,
  "\u2581participation": 4062,
  "\u2581sociaal": 4063,
  "\u2581whom": 4064,
  "\u2581garden": 4065,
  "\u2581lines": 4066,
  "print": 4067,
  "\u2581Elke": 4068,
  "\u2581allen": 4069,
  "\u2581trekken": 4070,
  "ware": 4071,
  "\u2581verloren": 4072,
  "\u2581Cl": 4073,
  "\u2581infrastructure": 4074,
  "\u2581speciaal": 4075,
  "\u2581Photo": 4076,
  "\u2581bio": 4077,
  "\u2581mine": 4078,
  "cal": 4079,
  "\u2581integration": 4080,
  "\u2581Would": 4081,
  "\u2581onge": 4082,
  "\u2581Plan": 4083,
  "\u2581Tra": 4084,
  "\u2581prachtige": 4085,
  "\u2581approval": 4086,
  "\u2581box": 4087,
  "\u2581stond": 4088,
  "\u2581achieved": 4089,
  "\u2581highly": 4090,
  "\u2581condition": 4091,
  "\u00e7a": 4092,
  "\u2581sectoren": 4093,
  "\u2581star": 4094,
  "\u2581directe": 4095,
  "75": 4096,
  "39": 4097,
  "\u2581aanpak": 4098,
  "\u2581efficiency": 4099,
  "script": 4100,
  "\u2581changed": 4101,
  "ville": 4102,
  "\u2581ahead": 4103,
  "\u2581actief": 4104,
  "\u2581king": 4105,
  "\u2581customers": 4106,
  "ade": 4107,
  "\u2581device": 4108,
  "ike": 4109,
  "\u2581macht": 4110,
  "ese": 4111,
  "\u2581lack": 4112,
  "\u258150%": 4113,
  "\u25815,": 4114,
  "\u2581evaluatie": 4115,
  "\u2581voice": 4116,
  "\u2581communicatie": 4117,
  "\u2581build": 4118,
  "\u2581Security": 4119,
  "free": 4120,
  "\u2581opportunities": 4121,
  "markt": 4122,
  "NL": 4123,
  "%": 4124,
  "Le": 4125,
  "\u2581reduced": 4126,
  "\u2581models": 4127,
  "\u2581issued": 4128,
  "\u2581opmerkingen": 4129,
  "22": 4130,
  "pers": 4131,
  "\u2581aspecten": 4132,
  "\u2581writing": 4133,
  "ize": 4134,
  "non": 4135,
  "\u2581former": 4136,
  "\u2581UN": 4137,
  "\u2581uses": 4138,
  "\u2581hoogste": 4139,
  "wen": 4140,
  "ct": 4141,
  "tisch": 4142,
  "\u2581Angel": 4143,
  "landen": 4144,
  "\u2581kerk": 4145,
  "\u00ae": 4146,
  "\u2581daarna": 4147,
  "\u2581conflict": 4148,
  "gebied": 4149,
  "\u2581eeuw": 4150,
  "\u2581reached": 4151,
  "\u2581Review": 4152,
  "\u2581steps": 4153,
  "\u2581Sal": 4154,
  "\u2581accommodation": 4155,
  "\u2581degenen": 4156,
  "\u2581favor": 4157,
  "gli": 4158,
  "bis": 4159,
  "elle": 4160,
  "\u2581documenten": 4161,
  "lucht": 4162,
  "jan": 4163,
  "\u2581initiative": 4164,
  "\u2581Dam": 4165,
  "\u2581verschil": 4166,
  "38": 4167,
  "llah": 4168,
  "\u2581image": 4169,
  "IS": 4170,
  "\u2581release": 4171,
  "\u2581liet": 4172,
  "2.": 4173,
  "ping": 4174,
  "maken": 4175,
  "29": 4176,
  "\u2581Spanish": 4177,
  "\u2581beneden": 4178,
  "\u2581kantoor": 4179,
  "\u2581ac": 4180,
  "\u2581adoption": 4181,
  "ial": 4182,
  "\u2581parents": 4183,
  "\u2581normen": 4184,
  "\u2581places": 4185,
  "\u2581bevatten": 4186,
  "led": 4187,
  "\u2581combination": 4188,
  "\u2581betrekkingen": 4189,
  "\u2581inform": 4190,
  "\u2581states": 4191,
  "\u2581System": 4192,
  "\u2581London": 4193,
  "\u2581krachtens": 4194,
  "\u2581CD": 4195,
  "\u2581voort": 4196,
  "rop": 4197,
  "\u2581indeed": 4198,
  "ane": 4199,
  "\u2581extent": 4200,
  "\u2581Mel": 4201,
  "\u2581Algemene": 4202,
  "\u2581Tro": 4203,
  "\u2581sister": 4204,
  "\u2581trouble": 4205,
  "23": 4206,
  "\u2581administratieve": 4207,
  "\u2581Martin": 4208,
  "33": 4209,
  "mat": 4210,
  "\u2581EUROPESE": 4211,
  "\u2581community": 4212,
  "du": 4213,
  "\u2581Top": 4214,
  ".1": 4215,
  "\u2581les": 4216,
  "\u2581picture": 4217,
  "\u2581fresh": 4218,
  "\u2581Haar": 4219,
  "\u2581recently": 4220,
  "\u2581hoofdstuk": 4221,
  "uil": 4222,
  "och": 4223,
  "\u2581Thursday": 4224,
  "\u2581gelijke": 4225,
  "\u2581ergens": 4226,
  "\u2581inclusief": 4227,
  "\u2581Mont": 4228,
  "tool": 4229,
  "\u2581reading": 4230,
  "ria": 4231,
  "lap": 4232,
  "\u2581priority": 4233,
  "\u2581olie": 4234,
  "kers": 4235,
  "\u2581UK": 4236,
  "lick": 4237,
  "\u2581Cas": 4238,
  "wo": 4239,
  "Vertel": 4240,
  "\u2581kept": 4241,
  "vig": 4242,
  "\u2581Members": 4243,
  "\u2581Very": 4244,
  "\u2581although": 4245,
  "\u2581overal": 4246,
  "\u2581innovatie": 4247,
  "\u2581EER": 4248,
  "\u2581Sommige": 4249,
  "\u2581feeling": 4250,
  "\u2581Th": 4251,
  "\u2581begrijpen": 4252,
  "05": 4253,
  "\u2581undertakings": 4254,
  "\u2581easily": 4255,
  "ust": 4256,
  "\u2581et": 4257,
  "\u2581meaning": 4258,
  "\u2581lay": 4259,
  "\u2581Economische": 4260,
  "\u2581pak": 4261,
  "\u2581concerns": 4262,
  "\u2581possibility": 4263,
  "\u2581sugar": 4264,
  "\u2581Chapter": 4265,
  "\u2581demand": 4266,
  "\u2581politiek": 4267,
  "\u2581Oost": 4268,
  "tail": 4269,
  "\u2581tonen": 4270,
  "\u2581beschikbare": 4271,
  "\u2581vergunning": 4272,
  "\u2581Turkey": 4273,
  "\u2581noemen": 4274,
  "\u2581option": 4275,
  "\u2581Back": 4276,
  "\u2581mensenrechten": 4277,
  "\u00ed": 4278,
  "\u2581praktijk": 4279,
  "\u2581Justice": 4280,
  "tuur": 4281,
  "\u2581gun": 4282,
  "\u00f3": 4283,
  "\u2581Cal": 4284,
  "\u2581According": 4285,
  "nummer": 4286,
  "47": 4287,
  "\u2581verstrekt": 4288,
  "\u2581compared": 4289,
  "ds": 4290,
  "\u2581distribution": 4291,
  "niet": 4292,
  "\u2581powers": 4293,
  "\u2581begon": 4294,
  "\u2581beschikt": 4295,
  "\u2581opge": 4296,
  "\u2581nationaal": 4297,
  "\u2581foot": 4298,
  "ves": 4299,
  "\u2581groepen": 4300,
  "zak": 4301,
  "stijl": 4302,
  "\u2581bereid": 4303,
  "US": 4304,
  "\u2581finally": 4305,
  "\u2581aanbiedingen": 4306,
  "\u2581Lees": 4307,
  "\u2581menselijke": 4308,
  "\u2581reform": 4309,
  "side": 4310,
  "\u2581unique": 4311,
  "\u2581gebruikte": 4312,
  "\u2581green": 4313,
  "PS": 4314,
  "\u2581Greece": 4315,
  "\u2581Ya": 4316,
  "slag": 4317,
  "\u2581omvat": 4318,
  "\u2581options": 4319,
  "\u2581beslissing": 4320,
  "\u2581billion": 4321,
  "\u2581Miss": 4322,
  "\u2581ka": 4323,
  "ather": 4324,
  "\u2581Most": 4325,
  "AT": 4326,
  "ray": 4327,
  "oh": 4328,
  "\u2581vaste": 4329,
  "\u2581publication": 4330,
  "mann": 4331,
  "bas": 4332,
  "\u2581accommodatie": 4333,
  "\u2581ladies": 4334,
  "\u25816.": 4335,
  "ami": 4336,
  "\u2581meteen": 4337,
  "\u2581Niemand": 4338,
  "\u2581behoeften": 4339,
  "\u2581vlees": 4340,
  "uren": 4341,
  "\u2581piece": 4342,
  "cha": 4343,
  "\u2581comments": 4344,
  "\u2581led": 4345,
  "\u2581mark": 4346,
  "list": 4347,
  "gre": 4348,
  "\u2581400": 4349,
  "\u2581Hoewel": 4350,
  "\u2581Finally": 4351,
  "\u2581sold": 4352,
  "hol": 4353,
  "\u2581Eli": 4354,
  "sector": 4355,
  "\u2581sm": 4356,
  "\u2581koop": 4357,
  "ien": 4358,
  "\u2581Which": 4359,
  "\u2581waarborgen": 4360,
  "\u2581recommended": 4361,
  "\u2581Party": 4362,
  "\u2581seven": 4363,
  "\u2581duties": 4364,
  "\u2581wijn": 4365,
  "kom": 4366,
  "41": 4367,
  "\u2581Apart": 4368,
  "\u2581wood": 4369,
  "ture": 4370,
  "\u2581Finland": 4371,
  "\u2581institution": 4372,
  "\u258138": 4373,
  "\u2581rijden": 4374,
  "DA": 4375,
  "\u2581Under": 4376,
  "\u2581klimaat": 4377,
  "\u2581Israel": 4378,
  "\u2581onmiddellijk": 4379,
  "\u2581difference": 4380,
  "\u2581verblijf": 4381,
  "\u2581Health": 4382,
  "bus": 4383,
  "\u2581hi": 4384,
  "\u2581amendment": 4385,
  "\u2581overleg": 4386,
  "\u2581master": 4387,
  "\u2581karakter": 4388,
  "mor": 4389,
  "serv": 4390,
  "\u2581married": 4391,
  "\u2581determined": 4392,
  "hr": 4393,
  "\u2581relationship": 4394,
  "\u2581Post": 4395,
  "\u2581James": 4396,
  "\u2581meerdere": 4397,
  "\u2581enz": 4398,
  "\u2581stemming": 4399,
  "\u2581consumers": 4400,
  "CO": 4401,
  "\u2581mail": 4402,
  "tes": 4403,
  "\u2581Turkije": 4404,
  "\u2581dorp": 4405,
  "\u2581evenwel": 4406,
  "\u2581zet": 4407,
  "\u2581schrijven": 4408,
  "\u2581numbers": 4409,
  "\u2581risks": 4410,
  "\u2581Nederlandse": 4411,
  "\u2581track": 4412,
  "ii": 4413,
  "\u2581commissie": 4414,
  "\u2581veranderingen": 4415,
  "ala": 4416,
  "elen": 4417,
  "\u2581autoriteit": 4418,
  "gi": 4419,
  "\u2581Ger": 4420,
  "\u2581ko": 4421,
  "kin": 4422,
  "\u2581straight": 4423,
  "band": 4424,
  "\u2581Iedereen": 4425,
  "\u2581zon": 4426,
  "\u2581co\u00f6rdinatie": 4427,
  "\u2581students": 4428,
  "\u2581Host": 4429,
  "\u2581verricht": 4430,
  "\u2581Bra": 4431,
  "\u2581email": 4432,
  "rand": 4433,
  "\u2581raad": 4434,
  "work": 4435,
  ".000": 4436,
  "\u2581coffee": 4437,
  "ira": 4438,
  "\u2581fan": 4439,
  "\u2581allows": 4440,
  "\u258134": 4441,
  "\u2581fundamental": 4442,
  "\u2581heading": 4443,
  "\u2581worth": 4444,
  "\u2581funding": 4445,
  "set": 4446,
  "ada": 4447,
  "\u2581schoon": 4448,
  "\u2581goedkoop": 4449,
  "\u2581vrijheid": 4450,
  "\u2581zeven": 4451,
  "\u2581onderwerp": 4452,
  "systemen": 4453,
  "\u2581mijnheer": 4454,
  "\u2581Policy": 4455,
  "\u2581described": 4456,
  "\u2581pri": 4457,
  "\u2581daarvoor": 4458,
  "\u2581notice": 4459,
  "AR": 4460,
  "\u2581cell": 4461,
  "\u2581Micro": 4462,
  "\u258103": 4463,
  "\u2581Total": 4464,
  "ric": 4465,
  "\u258155": 4466,
  "\u2581Special": 4467,
  "rl": 4468,
  "This": 4469,
  "\u2581koffie": 4470,
  "ea": 4471,
  "\u25811991": 4472,
  "\u2581Hun": 4473,
  "\u2581toegestaan": 4474,
  "\u2010": 4475,
  "\u2581vraagt": 4476,
  "\u2581geluk": 4477,
  "\u2581ra": 4478,
  "\u2581select": 4479,
  "\u2581uitge": 4480,
  "\u2581verliezen": 4481,
  "\u2581regelgeving": 4482,
  "\u2581richtsnoeren": 4483,
  "48": 4484,
  "\u2581write": 4485,
  "zi": 4486,
  "\u2581brain": 4487,
  "\u2581hemel": 4488,
  "ief": 4489,
  "To": 4490,
  "\u2581uiterlijk": 4491,
  "\u2581explain": 4492,
  "\u2581Luxembourg": 4493,
  "\u2581cash": 4494,
  "\u2581drug": 4495,
  "\u2581proceedings": 4496,
  "name": 4497,
  "\u2581binding": 4498,
  "tin": 4499,
  "\u2581prior": 4500,
  "ches": 4501,
  "\u2581usually": 4502,
  "\u2581girls": 4503,
  "\u2581locatie": 4504,
  "veld": 4505,
  "\u2581Marc": 4506,
  "ists": 4507,
  "mus": 4508,
  "\u2581bijstand": 4509,
  "\u2581train": 4510,
  "\u2581surface": 4511,
  "\u2581adequate": 4512,
  "\u2581moord": 4513,
  "druk": 4514,
  "ille": 4515,
  "\u2581Welke": 4516,
  "\u2581guidelines": 4517,
  "ift": 4518,
  "wet": 4519,
  "\u2581prima": 4520,
  "\u2581instantie": 4521,
  "ped": 4522,
  "\u2581connected": 4523,
  "\u2581accepted": 4524,
  "col": 4525,
  "\u2581damage": 4526,
  "\u2581YOU": 4527,
  "\u2581verwijderen": 4528,
  "\u2581grondgebied": 4529,
  "\u2581mission": 4530,
  "yo": 4531,
  "\u2581temperature": 4532,
  "aw": 4533,
  "\u2581century": 4534,
  "\u2581vluchten": 4535,
  "\u2581instanties": 4536,
  "\u2581functie": 4537,
  "\u2581thema": 4538,
  "\u2581instead": 4539,
  "\u2581turned": 4540,
  "\u2581Beschikking": 4541,
  "\u2581payments": 4542,
  "well": 4543,
  "\u2581suitable": 4544,
  "Pro": 4545,
  "\u2581gekregen": 4546,
  "\u258165": 4547,
  "\u2581belangen": 4548,
  "\u2581link": 4549,
  "\u20ac": 4550,
  "\u2581kwamen": 4551,
  "\u2581Eigen": 4552,
  "\u25811989": 4553,
  "\u2581telling": 4554,
  "fen": 4555,
  "\u2581fear": 4556,
  "BI": 4557,
  "aren": 4558,
  "zer": 4559,
  "\u2581dialogue": 4560,
  "\u2581Dag": 4561,
  "\u2581mass": 4562,
  "\u2581tafel": 4563,
  "\u2581Start": 4564,
  "\u2581treated": 4565,
  "cul": 4566,
  "\u2581leidt": 4567,
  "\u2581evening": 4568,
  "\u2581geboren": 4569,
  "\u2581rock": 4570,
  "\u2581Make": 4571,
  "\u2581bis": 4572,
  "\u2581loopt": 4573,
  "test": 4574,
  "\u2581package": 4575,
  "\u2581jongeren": 4576,
  "ue": 4577,
  "\u2581independent": 4578,
  "\u2581cultuur": 4579,
  "\u2581zorgt": 4580,
  "\u2581beyond": 4581,
  "\u2581meat": 4582,
  "kaart": 4583,
  "\u2581glass": 4584,
  "\u2581verkregen": 4585,
  "\u2581Ph": 4586,
  "\u2581verleden": 4587,
  "nal": 4588,
  "zon": 4589,
  "\u2581verplicht": 4590,
  "bro": 4591,
  "\u2581hoorde": 4592,
  "ju": 4593,
  "not": 4594,
  "rt": 4595,
  "\u2581wild": 4596,
  "\u2581blue": 4597,
  "aard": 4598,
  "\u2581Shi": 4599,
  "\u2581doelstelling": 4600,
  "Voor": 4601,
  "urs": 4602,
  "\u2581regel": 4603,
  "\u2581Joint": 4604,
  "\u25816,": 4605,
  "\u2581lever": 4606,
  "\u2581Programme": 4607,
  "\u2581afdeling": 4608,
  "\u2581maatschappelijk": 4609,
  "\u2581verwijderd": 4610,
  "stad": 4611,
  "vent": 4612,
  "\u2581externe": 4613,
  "\u2581substance": 4614,
  "\u2581Nieuwe": 4615,
  "\u2581wettelijke": 4616,
  "\u2581Bur": 4617,
  "\u2581adres": 4618,
  "cade": 4619,
  "\u2581Madam": 4620,
  "\u2581evaluation": 4621,
  "\u2581moving": 4622,
  "\u258144": 4623,
  "lk": 4624,
  "tud": 4625,
  "\u2581steden": 4626,
  "generaal": 4627,
  "\u2581fase": 4628,
  "\u2581closed": 4629,
  "\u2581excellent": 4630,
  "\u2581hate": 4631,
  "03": 4632,
  "\u2581bestemd": 4633,
  "\u2581ecu": 4634,
  "\u2581zu": 4635,
  "\u2581cool": 4636,
  "ders": 4637,
  "ici": 4638,
  "\u2581expressed": 4639,
  "\u2581holding": 4640,
  "rig": 4641,
  "\u2581compliance": 4642,
  "\u2581(+": 4643,
  "\u2581otherwise": 4644,
  "\u2581Bru": 4645,
  "\u2581bestrijding": 4646,
  "ame": 4647,
  "tenschappelijke": 4648,
  "\u2581Use": 4649,
  "lava": 4650,
  "Ver": 4651,
  "\u2581Keep": 4652,
  "isme": 4653,
  "\u2581krediet": 4654,
  "\u2581store": 4655,
  "\u2581dialoog": 4656,
  "2/": 4657,
  "\u2581placed": 4658,
  "\u2581tool": 4659,
  "\u2581families": 4660,
  "\u2581increasing": 4661,
  "\u2581(5)": 4662,
  "77": 4663,
  "\u2581[1],": 4664,
  "\u2581golf": 4665,
  "\u2581systemen": 4666,
  "\u2581Gal": 4667,
  "wood": 4668,
  "\u2581Pan": 4669,
  "\u2581gezet": 4670,
  "\u2581ontworpen": 4671,
  "\u2581sufficient": 4672,
  "Verdrag": 4673,
  "\u2581soul": 4674,
  "\u2581obtained": 4675,
  "\u2581gebouw": 4676,
  "sia": 4677,
  "TM": 4678,
  "\u2581studenten": 4679,
  "\u2581remains": 4680,
  "\u2581Vol": 4681,
  "\u2581BE": 4682,
  "date": 4683,
  "\u2581fi": 4684,
  "\u2581speelt": 4685,
  "\u2581individuele": 4686,
  "kar": 4687,
  "\u2581verkopen": 4688,
  "\u2581caused": 4689,
  "\u2581Before": 4690,
  "\u2581electronic": 4691,
  "\u2581window": 4692,
  "\u2581platform": 4693,
  "HEER": 4694,
  "\u258142": 4695,
  "CE": 4696,
  "mond": 4697,
  "\u2581felt": 4698,
  "\u2581stappen": 4699,
  "\u2581hospital": 4700,
  "\u2581sterven": 4701,
  "ique": 4702,
  "\u2581Dar": 4703,
  "\u2581Friday": 4704,
  "\u2581ti": 4705,
  "\u2581relatie": 4706,
  "\u2581laying": 4707,
  "\u2581mon": 4708,
  "light": 4709,
  "\u2581Day": 4710,
  "\u2581ontstaan": 4711,
  "\u2581bevordering": 4712,
  "\u2581Help": 4713,
  "\u2581redden": 4714,
  "\u2581gelegenheid": 4715,
  "\u2581target": 4716,
  "kon": 4717,
  "\u2581cold": 4718,
  "\u2581mini": 4719,
  "\u25811988": 4720,
  "Fi": 4721,
  "nten": 4722,
  "\u2581glad": 4723,
  "\u2581betaald": 4724,
  "\u2581maintenance": 4725,
  "informatie": 4726,
  "\u2581asking": 4727,
  "\u2581Aangezien": 4728,
  "\u2581Such": 4729,
  "\u258137": 4730,
  "\u2581maat": 4731,
  "\u2581dokter": 4732,
  "ero": 4733,
  "\u2581opened": 4734,
  "OS": 4735,
  "\u2581miss": 4736,
  "\u2581Hem": 4737,
  "\u2581vers": 4738,
  "\u2581tic": 4739,
  "\u2581Han": 4740,
  "als": 4741,
  "ain": 4742,
  "\u2581produktie": 4743,
  "\u2581bezoeken": 4744,
  "\u2581contracts": 4745,
  "\u2581voorgestelde": 4746,
  "\u2581fo": 4747,
  "\u2581nuclear": 4748,
  "\u2581element": 4749,
  "\u2581veiligheids": 4750,
  "\u2581Robert": 4751,
  "\u2581drawn": 4752,
  "\u2581influence": 4753,
  "\u2581accounts": 4754,
  "\u2581Griekenland": 4755,
  "500": 4756,
  "\u2581eerlijk": 4757,
  "\u2581leaving": 4758,
  "\u2581ton": 4759,
  "\u2581contribute": 4760,
  "\u2581mainly": 4761,
  "\u2581sto": 4762,
  "gegevens": 4763,
  "\u2581Sara": 4764,
  "\u2581bron": 4765,
  "\u2581Board": 4766,
  "\u2581missing": 4767,
  "\u2581race": 4768,
  "\u2581poor": 4769,
  "year": 4770,
  "\u2581concluded": 4771,
  "\u2581fijn": 4772,
  "form": 4773,
  "\u258139": 4774,
  "\u2581voorgesteld": 4775,
  "\u2581happens": 4776,
  "59": 4777,
  "wal": 4778,
  "\u2581Kat": 4779,
  "back": 4780,
  "yan": 4781,
  "\u2581onderzocht": 4782,
  "\u2581begonnen": 4783,
  "\u2581bru": 4784,
  "\u2581industri\u00eble": 4785,
  "\u2581bureau": 4786,
  "\u2581comply": 4787,
  "\u2581solutions": 4788,
  "\u2581dark": 4789,
  "\u2581opgesteld": 4790,
  "\u2581gelukkig": 4791,
  "ram": 4792,
  "\u258110%": 4793,
  "\u2581delivery": 4794,
  "\u2581selection": 4795,
  "\u2581Date": 4796,
  "\u2581Master": 4797,
  "\u2581ideal": 4798,
  "word": 4799,
  "\u2581normale": 4800,
  "\u2581south": 4801,
  "\u2581afval": 4802,
  "zel": 4803,
  "\u2581communautair": 4804,
  "\u2581erin": 4805,
  "\u2581dangerous": 4806,
  "\u2581Christian": 4807,
  "gue": 4808,
  "cia": 4809,
  "\u2581expect": 4810,
  "oi": 4811,
  "\u2581hieronder": 4812,
  "igh": 4813,
  "ester": 4814,
  "\u2581openbaar": 4815,
  "\u2581gegaan": 4816,
  "hen": 4817,
  "\u2581structural": 4818,
  "\u2581units": 4819,
  "press": 4820,
  "\u2581categorie": 4821,
  "\u2581requires": 4822,
  "\u2581vi": 4823,
  "\u2581ingesteld": 4824,
  "\u2581success": 4825,
  "\u2581kapitaal": 4826,
  "\u2581pu": 4827,
  "\u2581permanent": 4828,
  "lied": 4829,
  "bouw": 4830,
  "tegenwoordigers": 4831,
  "\u2581Street": 4832,
  "\u2581alive": 4833,
  "\u2581regular": 4834,
  "field": 4835,
  "\u2581positieve": 4836,
  "\u2581plants": 4837,
  "\u2581hiervan": 4838,
  "ST": 4839,
  "\u2581inspanningen": 4840,
  "\u2581pap": 4841,
  "\u2581ziel": 4842,
  "\u2581vrede": 4843,
  "37": 4844,
  "aardig": 4845,
  "\u2581>": 4846,
  "tier": 4847,
  "\u2581voertuig": 4848,
  "\u2581Mexico": 4849,
  "\u2581voelt": 4850,
  "\u2581praat": 4851,
  "uw": 4852,
  "\u2581beschreven": 4853,
  "\u2581Model": 4854,
  "\u2581sterke": 4855,
  "\u2581THIS": 4856,
  "fra": 4857,
  "\u2581donderdag": 4858,
  "\u2581amounts": 4859,
  "\u2581reserve": 4860,
  "\u2581climate": 4861,
  "\u2581uitzicht": 4862,
  "til": 4863,
  "ky": 4864,
  "\u2581north": 4865,
  "\u2581noodzaak": 4866,
  "\u2581employees": 4867,
  "\u2581feed": 4868,
  "\u258143": 4869,
  "\u2581innovation": 4870,
  "\u2581desbetreffende": 4871,
  "\u2581zone": 4872,
  "\u2581vuur": 4873,
  "\u2581treedt": 4874,
  "ations": 4875,
  "\u2581kop": 4876,
  "\u2581su": 4877,
  "account": 4878,
  "\u2581integrated": 4879,
  "\u2581patient": 4880,
  "\u2581ingang": 4881,
  "\u2581behulp": 4882,
  "\u2581Kla": 4883,
  "\u2581kwaad": 4884,
  "\u2581Juli": 4885,
  "are": 4886,
  "\u2581IP": 4887,
  "\u2581Place": 4888,
  "lui": 4889,
  "\u2581meerderheid": 4890,
  "dek": 4891,
  "\u2581popular": 4892,
  "ges": 4893,
  "\u2581geopend": 4894,
  "cher": 4895,
  "\u2581Luc": 4896,
  "\u2581guide": 4897,
  "\u2581equivalent": 4898,
  "\u2581drinken": 4899,
  "lijn": 4900,
  "ev": 4901,
  "\u2581eventuele": 4902,
  "\u2581category": 4903,
  "\u2581kenmerken": 4904,
  "\u2581voet": 4905,
  "\u2581cu": 4906,
  "\u2581elementen": 4907,
  "\u2581culture": 4908,
  "\u2581practical": 4909,
  "\u2581gold": 4910,
  "\u2581sort": 4911,
  "\u2581invoering": 4912,
  "\u2581Sport": 4913,
  "\u2581produce": 4914,
  "\u2581wapen": 4915,
  "\u2581controleren": 4916,
  "\u2581meestal": 4917,
  "\u2581juridische": 4918,
  "burg": 4919,
  "mate": 4920,
  "\u2581dedicated": 4921,
  "\u2581length": 4922,
  "\u2581Blue": 4923,
  "isse": 4924,
  "\u2581Ierland": 4925,
  "4,": 4926,
  "lic": 4927,
  "ult": 4928,
  "\u2581vaststellen": 4929,
  "\u2581Test": 4930,
  "\u2581overige": 4931,
  "\u00ebn": 4932,
  "\u2581levensmiddelen": 4933,
  "kg": 4934,
  "vermogen": 4935,
  "\u2581ie": 4936,
  "\u2581press": 4937,
  "\u2581initiatives": 4938,
  "\u2581ke": 4939,
  "\u2581signed": 4940,
  "bre": 4941,
  "\u2581physical": 4942,
  "eur": 4943,
  "\u2581toetreding": 4944,
  "\u2581military": 4945,
  "\u2581extremely": 4946,
  "kosten": 4947,
  "\u2581interesting": 4948,
  "\u25811:": 4949,
  "\u2581Trans": 4950,
  "\u2581opzichte": 4951,
  "\u2581USA": 4952,
  "\u2581article": 4953,
  "ola": 4954,
  "\u2581procent": 4955,
  "\u2581Management": 4956,
  "\u2581E\u00e9n": 4957,
  "\u2581Mis": 4958,
  "Staat": 4959,
  "\u2581deep": 4960,
  "ound": 4961,
  "85": 4962,
  "\u2581income": 4963,
  "\u2581sources": 4964,
  "\u2581gewicht": 4965,
  "iden": 4966,
  "\u2581ermee": 4967,
  "\u2581Time": 4968,
  "\u2581Bad": 4969,
  "\u2581applicant": 4970,
  "\u2581Debate": 4971,
  "smaatregelen": 4972,
  "\u2581beginselen": 4973,
  "\u2581ouder": 4974,
  "\u2581Earth": 4975,
  "\u2581acts": 4976,
  "\u2581networks": 4977,
  "\u2581hond": 4978,
  "\u2581implemented": 4979,
  "68": 4980,
  "\u2581coordination": 4981,
  "\u2581infrastructuur": 4982,
  "\u2581conclusion": 4983,
  "\u2581stress": 4984,
  "\u2581terecht": 4985,
  "\u2581direction": 4986,
  "\u2581wijzigen": 4987,
  "sprocedure": 4988,
  "\u2581schip": 4989,
  "rat": 4990,
  "\u2581bevindt": 4991,
  "\u2581task": 4992,
  "\u2581affect": 4993,
  "\u2581Sol": 4994,
  "\u2581stroom": 4995,
  "\u2581grenzen": 4996,
  "04": 4997,
  "\u2581Stra": 4998,
  "\u2581traffic": 4999,
  "\u2581oordeel": 5000,
  "\u2581Services": 5001,
  "\u2581dry": 5002,
  "\u2581spot": 5003,
  "56": 5004,
  "char": 5005,
  "rel": 5006,
  "\u2581medicinal": 5007,
  "\u2581(0)": 5008,
  "\u25811985": 5009,
  "\u2581toestemming": 5010,
  "\u2581rij": 5011,
  "\u2581developments": 5012,
  "\u2581Islands": 5013,
  "\u2581VAT": 5014,
  "\u00c3": 5015,
  "\u2581Nederlands": 5016,
  "\u258195": 5017,
  "\u2581attack": 5018,
  "\u2581border": 5019,
  "\u2581Financial": 5020,
  "\u2581behoren": 5021,
  "sti": 5022,
  "\u2581somebody": 5023,
  "\u2581introduction": 5024,
  "\u2581While": 5025,
  "wedstrijd": 5026,
  "\u2581mobile": 5027,
  "tive": 5028,
  "\u2581selected": 5029,
  "\u2581verlaten": 5030,
  "\u2581factors": 5031,
  "\u2581gevolgd": 5032,
  "\u25811987": 5033,
  "\u2581Austria": 5034,
  "\u2581distance": 5035,
  "\u2581FOR": 5036,
  "\u2581hoort": 5037,
  "\u2581pad": 5038,
  "tas": 5039,
  "ford": 5040,
  "\u2581Engels": 5041,
  "\u2581luister": 5042,
  "\u2581passende": 5043,
  "\u2581Sinds": 5044,
  "\u2581indicated": 5045,
  "raak": 5046,
  "\u2581moderne": 5047,
  "stig": 5048,
  "\u2581behoeve": 5049,
  "\u2581melk": 5050,
  "\u2581immers": 5051,
  "\u2581teneinde": 5052,
  "\u2581Groot": 5053,
  "los": 5054,
  "\u2581normaal": 5055,
  "\u2581vermelde": 5056,
  "\u2581Power": 5057,
  "\u25811980": 5058,
  "\u2581bu": 5059,
  "card": 5060,
  "ugh": 5061,
  "\u2581beginsel": 5062,
  "\u258164": 5063,
  "42": 5064,
  "jaar": 5065,
  "\u2581assets": 5066,
  "\u2581path": 5067,
  "\u2581advice": 5068,
  "\u2581namen": 5069,
  "aai": 5070,
  "ee": 5071,
  "79": 5072,
  "SE": 5073,
  "gy": 5074,
  "\u2581sitting": 5075,
  "\u2581ertoe": 5076,
  "\u2581ontwikkelingen": 5077,
  "\u2581initiatieven": 5078,
  "\u2581ontmoet": 5079,
  "\u2581uniform": 5080,
  "abel": 5081,
  "1/": 5082,
  "\u2581rubriek": 5083,
  "4/": 5084,
  "\u2581visitors": 5085,
  "\u2581requests": 5086,
  "sor": 5087,
  "sten": 5088,
  "\u2581Creat": 5089,
  "\u2581Open": 5090,
  "ants": 5091,
  "ding": 5092,
  "\u2581voorwaarde": 5093,
  "fu": 5094,
  "itter": 5095,
  "\u2581(2": 5096,
  "9,": 5097,
  "\u2581sw": 5098,
  "ID": 5099,
  "\u2581registered": 5100,
  "\u2581Could": 5101,
  "\u2581introduced": 5102,
  "\u2581exercise": 5103,
  "\u2581weather": 5104,
  "\u2581Binnen": 5105,
  "\u2581uitvoeren": 5106,
  "\u2581everybody": 5107,
  "\u2581ster": 5108,
  "ruimte": 5109,
  "\u2581slechte": 5110,
  "\u2581tip": 5111,
  "\u2581hogere": 5112,
  "46": 5113,
  "ecu": 5114,
  "\u2581behalve": 5115,
  "\u2581rise": 5116,
  "\u2581goedkope": 5117,
  "\u2581Although": 5118,
  "\u2581style": 5119,
  "\u2581summer": 5120,
  "\u2581Au": 5121,
  "\u2581Justitie": 5122,
  "\u2581Us": 5123,
  "\u2581description": 5124,
  "\u2581crime": 5125,
  "\u2581quiet": 5126,
  "\u2581cap": 5127,
  "based": 5128,
  "\u2581initial": 5129,
  "\u2581acid": 5130,
  "\u2581Light": 5131,
  "illy": 5132,
  "\u2581luchthaven": 5133,
  "\u2581Daarnaast": 5134,
  "\u2581eight": 5135,
  "\u2581dinner": 5136,
  "\u2581offered": 5137,
  "\u2581protocol": 5138,
  "\u2581Wa": 5139,
  "\u2581eiland": 5140,
  "\u2581sturen": 5141,
  "\u2581Anti": 5142,
  "ised": 5143,
  "\u2581Sc": 5144,
  "\u2581raised": 5145,
  "\u25812020": 5146,
  "\u2581gedeelte": 5147,
  "\u2581che": 5148,
  "\u2581Huis": 5149,
  "\u2581ACS": 5150,
  "pon": 5151,
  "\u2581leading": 5152,
  "\u2581schilder": 5153,
  "\u2581Terug": 5154,
  "\u2581wezen": 5155,
  "What": 5156,
  "\u2581dream": 5157,
  "\u2581vergelijking": 5158,
  "\u2581equipped": 5159,
  "\u2581promise": 5160,
  "mile": 5161,
  "\u2581smart": 5162,
  "\u2581requested": 5163,
  "\u2581persoonlijk": 5164,
  "\u2581experts": 5165,
  "Po": 5166,
  "\u2581sell": 5167,
  "\u2581idi": 5168,
  "cus": 5169,
  "\u2581Tru": 5170,
  "It": 5171,
  "\u2581privacy": 5172,
  "\u2581identified": 5173,
  "prijs": 5174,
  "industrie": 5175,
  "\u2581mededinging": 5176,
  "\u2581log": 5177,
  "tt": 5178,
  "En": 5179,
  "\u2581winnen": 5180,
  "\u2581cre\u00ebren": 5181,
  "\u2581begrepen": 5182,
  "\u2581waarden": 5183,
  "nel": 5184,
  "eo": 5185,
  "aria": 5186,
  "ump": 5187,
  "\u2581structuur": 5188,
  "ates": 5189,
  "\u2581Table": 5190,
  "\u2581behoefte": 5191,
  "\u2581catch": 5192,
  "\u2581tegenover": 5193,
  "\u2581representatives": 5194,
  "\u2581apparatuur": 5195,
  "plo": 5196,
  "\u2581calling": 5197,
  "\u2581banken": 5198,
  "\u2581('": 5199,
  "\u2581Foto": 5200,
  "gers": 5201,
  "\u2581traditional": 5202,
  "\u2581omvang": 5203,
  "\u2581aanleiding": 5204,
  "\u2581manner": 5205,
  "\u2581Toe": 5206,
  "\u2581verstrekken": 5207,
  "\u2581snelle": 5208,
  "\u2581tools": 5209,
  "ass": 5210,
  "\u2581hang": 5211,
  "aus": 5212,
  "\u2581names": 5213,
  "\u2581baas": 5214,
  "stan": 5215,
  "\u2581voelen": 5216,
  "For": 5217,
  "\u2581vertelde": 5218,
  "\u2581operators": 5219,
  "loot": 5220,
  "\u2581commitment": 5221,
  "\u2581bericht": 5222,
  "\u2581hoeveelheden": 5223,
  "ative": 5224,
  "itz": 5225,
  "\u2581massa": 5226,
  "\u2581helft": 5227,
  "\u2581reeks": 5228,
  "bul": 5229,
  "UN": 5230,
  "0,000": 5231,
  "\u2581authorisation": 5232,
  "screen": 5233,
  "\u2581emissions": 5234,
  "\u2581serie": 5235,
  "\u2581Italiaanse": 5236,
  "\u2581zomer": 5237,
  "\u2581zekerheid": 5238,
  "\u2581contain": 5239,
  "OR": 5240,
  "\u2581ensuring": 5241,
  "\u2581limits": 5242,
  "ld": 5243,
  "verordening": 5244,
  "\u2581maatregel": 5245,
  "\u2581Hart": 5246,
  "\u2581straat": 5247,
  "\u2581del": 5248,
  "\u2581informed": 5249,
  "\u2581rug": 5250,
  "IA": 5251,
  "ere": 5252,
  "78": 5253,
  "\u2581terrein": 5254,
  "\u258100": 5255,
  "\u2581Luxemburg": 5256,
  "\u2581fl": 5257,
  "rix": 5258,
  "\u2581technologies": 5259,
  "\u2581titel": 5260,
  "uri": 5261,
  "\u2581Wednesday": 5262,
  "\u2581tenzij": 5263,
  "ontwikkeling": 5264,
  "\u2581supported": 5265,
  "\u2581effort": 5266,
  "\u2581dance": 5267,
  "kan": 5268,
  "\u2581languages": 5269,
  "\u2581Authority": 5270,
  "\u2581secret": 5271,
  "\u2581Kr": 5272,
  "mark": 5273,
  "\u2581afbeelding": 5274,
  "isten": 5275,
  "server": 5276,
  "\u2581Um": 5277,
  "\u2581doubt": 5278,
  "\u2581delivered": 5279,
  "\u2581Trade": 5280,
  "\u2581Sho": 5281,
  "\u2581injection": 5282,
  "\u2581Fil": 5283,
  "\u2581perhaps": 5284,
  "\u2581geleid": 5285,
  "\u2581season": 5286,
  "\u2581island": 5287,
  "\u2581comprehensive": 5288,
  "\u2581kust": 5289,
  "\u2581veroorzaakt": 5290,
  "rim": 5291,
  "\u2581inderdaad": 5292,
  "\u2581opdracht": 5293,
  "\u2581join": 5294,
  "\u2581British": 5295,
  "\u2581practices": 5296,
  "\u2581affected": 5297,
  "\u2581Call": 5298,
  "fect": 5299,
  "\u2581elektronische": 5300,
  "org": 5301,
  "\u2581hout": 5302,
  "uc": 5303,
  "\u2581mouth": 5304,
  "\u2581bedraagt": 5305,
  "\u2581Bi": 5306,
  "\u2581toegekend": 5307,
  "2)": 5308,
  "\u2581Zee": 5309,
  "zicht": 5310,
  "\u2581shower": 5311,
  "\u2581grand": 5312,
  "\u2581Ti": 5313,
  "\u25811984": 5314,
  "\u2581Jean": 5315,
  "\u2581Economisch": 5316,
  "\u2581controles": 5317,
  "\u2581earlier": 5318,
  "machine": 5319,
  "\u2581Put": 5320,
  "ali": 5321,
  "\u2581Str": 5322,
  "\u2581maintain": 5323,
  "\u25817.": 5324,
  "\u2581Furthermore": 5325,
  "\u2581bovendien": 5326,
  "chen": 5327,
  "\u2581Type": 5328,
  "\u2581entered": 5329,
  "\u2581wonen": 5330,
  "\u258191": 5331,
  "cu": 5332,
  "\u2581King": 5333,
  "\u2581particuliere": 5334,
  "\u2581voordeel": 5335,
  "\u2581Res": 5336,
  "\u2581boys": 5337,
  "\u2581HAS": 5338,
  "\u2581gro": 5339,
  "\u2581Gr": 5340,
  "\u2581Cyprus": 5341,
  "\u2581plannen": 5342,
  "\u2581consultation": 5343,
  "\u2581mid": 5344,
  "\u2581uni": 5345,
  "licht": 5346,
  "\u258193": 5347,
  "\u2581vessels": 5348,
  "\u2581undertaking": 5349,
  "\u2581verandering": 5350,
  "\u258184": 5351,
  "\u2581Verder": 5352,
  "\u2581tarieven": 5353,
  "\u2581geluid": 5354,
  "\u2581grant": 5355,
  "\u2581bezoekers": 5356,
  "\u2581vliegveld": 5357,
  "\u2581graden": 5358,
  "\u2581Publicatieblad": 5359,
  "\u2581Public": 5360,
  "\u2581aspect": 5361,
  "\u2581recovery": 5362,
  "ners": 5363,
  "\u2581domestic": 5364,
  "\u2581cat": 5365,
  "ably": 5366,
  "\u2581voornamelijk": 5367,
  "amb": 5368,
  "\u2581hoofde": 5369,
  "\u2581duidelijke": 5370,
  "43": 5371,
  "\u2581cast": 5372,
  "\u2581submit": 5373,
  "amil": 5374,
  "\u2581useful": 5375,
  "\u2581orders": 5376,
  "\u2581staal": 5377,
  "ging": 5378,
  "rb": 5379,
  "\u2581News": 5380,
  "\u2581unemployment": 5381,
  "\u2581budgetary": 5382,
  "\u2581ministers": 5383,
  "\u2581opnemen": 5384,
  "oren": 5385,
  "\u2581helpt": 5386,
  "\u2581regulatory": 5387,
  "\u2581aangepast": 5388,
  "\u2581Food": 5389,
  "\u2581geheim": 5390,
  "\u2581Cap": 5391,
  "but": 5392,
  "\u2581Bas": 5393,
  "inter": 5394,
  "\u2581played": 5395,
  "\u2581werkelijk": 5396,
  "pagina": 5397,
  "\u2581stu": 5398,
  "sur": 5399,
  "leven": 5400,
  "mit": 5401,
  "\u2581proper": 5402,
  "\u2581feet": 5403,
  "\u2581determine": 5404,
  "\u2581gelegd": 5405,
  "ages": 5406,
  "pot": 5407,
  "\u2581totdat": 5408,
  "vert": 5409,
  "\u2581failure": 5410,
  "\u2581Adam": 5411,
  "\u2581Ministers": 5412,
  "\u2581claim": 5413,
  "\u2581Vlieg": 5414,
  "\u2581materialen": 5415,
  "\u2581beschikken": 5416,
  "\u2581Account": 5417,
  "\u2581Business": 5418,
  "\u2581oorspronkelijke": 5419,
  "\u2581interview": 5420,
  "\u2581engine": 5421,
  "page": 5422,
  "\u2581middle": 5423,
  "\u2581dr": 5424,
  "\u2581[...]": 5425,
  "iti": 5426,
  "\u2581moorden": 5427,
  "\u2581representative": 5428,
  "\u2581completed": 5429,
  "Mo": 5430,
  "cur": 5431,
  "\u2581bepaling": 5432,
  "\u2581bevoegdheid": 5433,
  "\u2581trip": 5434,
  "stal": 5435,
  "\u2581<": 5436,
  "\u2581reizen": 5437,
  "\u2581street": 5438,
  "\u2581reactie": 5439,
  "\u2581plezier": 5440,
  "\u2581successful": 5441,
  "\u2581conclusions": 5442,
  "\u258149": 5443,
  "\u2581websites": 5444,
  "\u2581appear": 5445,
  "\u2581ker": 5446,
  "\u2581kost": 5447,
  "\u2581leer": 5448,
  "\u2581vrijdag": 5449,
  "\u2581veranderd": 5450,
  "dien": 5451,
  "\u2581Heel": 5452,
  "\u2581prachtig": 5453,
  "\u2581Vind": 5454,
  "\u2581honden": 5455,
  "\u2581schemes": 5456,
  "ji": 5457,
  "\u2581Bor": 5458,
  "\u2581score": 5459,
  "AN": 5460,
  "\u2581fuel": 5461,
  "cel": 5462,
  "\u2581Oostenrijk": 5463,
  "\u2581recente": 5464,
  "\u2581slapen": 5465,
  "\u2581implement": 5466,
  "town": 5467,
  "\u2581negative": 5468,
  "\u2581versterken": 5469,
  "cover": 5470,
  "tensie": 5471,
  "\u2581Dal": 5472,
  "tr": 5473,
  "\u2581oplossingen": 5474,
  "\u2581PC": 5475,
  "ssen": 5476,
  "ters": 5477,
  "\u2581hervorming": 5478,
  "ily": 5479,
  "\u2581bot": 5480,
  "\u2581beperken": 5481,
  "\u2581efficient": 5482,
  "ient": 5483,
  "\u25811986": 5484,
  "\u2581refer": 5485,
  "\u2581luchtvaart": 5486,
  "\u2581advantage": 5487,
  "su": 5488,
  "isation": 5489,
  "\u2581promotion": 5490,
  "\u2581voertuigen": 5491,
  "\u2581quota": 5492,
  "\u2581subparagraph": 5493,
  "\u2581multiple": 5494,
  "stellen": 5495,
  "\u2581sick": 5496,
  "\u2581student": 5497,
  "\u2581probeer": 5498,
  "\u2581waaraan": 5499,
  "huizen": 5500,
  "\u2581voldaan": 5501,
  "\u2581250": 5502,
  "\u2581slag": 5503,
  "\u2581spend": 5504,
  "\u2581Club": 5505,
  "\u2581legislative": 5506,
  "mper": 5507,
  "\u2581amendement": 5508,
  "\u2581hield": 5509,
  "ister": 5510,
  "\u2581mode": 5511,
  "\u2581bewust": 5512,
  "park": 5513,
  "\u2581Human": 5514,
  "\u2581Energy": 5515,
  "\u2581thou": 5516,
  "\u2581kern": 5517,
  "\u2581methode": 5518,
  "\u2581klopt": 5519,
  "arch": 5520,
  "\u2581organization": 5521,
  "\u2581Case": 5522,
  "AP": 5523,
  "\u2581Mediterranean": 5524,
  "\u2581herstel": 5525,
  "aties": 5526,
  "a\u00f1": 5527,
  "tte": 5528,
  "\u2581verzoeken": 5529,
  "some": 5530,
  "\u2581plastic": 5531,
  "6,": 5532,
  "\u2581County": 5533,
  "ife": 5534,
  "\u2581shoot": 5535,
  "\u2581seat": 5536,
  "\u2581Cr": 5537,
  "\u2581aanbod": 5538,
  "iff": 5539,
  "54": 5540,
  "onne": 5541,
  "\u2581opslag": 5542,
  "nacht": 5543,
  "\u2581banks": 5544,
  "\u2581lijken": 5545,
  "geven": 5546,
  "\u2581ability": 5547,
  "\u2581lie": 5548,
  "\u2581raise": 5549,
  "teerd": 5550,
  "\u2581scene": 5551,
  "teur": 5552,
  "prijzen": 5553,
  "orme": 5554,
  "\u2581ticket": 5555,
  "\u2581antwoorden": 5556,
  "var": 5557,
  "\u2581garantie": 5558,
  "PPE": 5559,
  "\u2581pull": 5560,
  "\u2581generally": 5561,
  "Di": 5562,
  "aid": 5563,
  "\u2581spirit": 5564,
  "\u2581waarover": 5565,
  "\u2581gemeenschap": 5566,
  "rag": 5567,
  "\u2581exist": 5568,
  "taal": 5569,
  "\u2581ran": 5570,
  "\u2581discussion": 5571,
  "-10": 5572,
  "\u2581Zelfs": 5573,
  "\u2581tie": 5574,
  "\u25812-": 5575,
  "\u2581components": 5576,
  "ER": 5577,
  "ith": 5578,
  "\u2581aanbevolen": 5579,
  "\u2581steunen": 5580,
  "\u2581fields": 5581,
  "\u2581klinkt": 5582,
  "\u2581conclusies": 5583,
  "\u2581geschreven": 5584,
  "ikken": 5585,
  "\u2581meetings": 5586,
  "\u2581parking": 5587,
  "ago": 5588,
  "mmen": 5589,
  "\u2581consument": 5590,
  "\u2581breakfast": 5591,
  "\u2581Next": 5592,
  "\u2581info": 5593,
  "\u2581buitenlandse": 5594,
  "\u25817,": 5595,
  "ili": 5596,
  "\u2581Toch": 5597,
  "\u2581douche": 5598,
  "\u2581verwerking": 5599,
  "ery": 5600,
  "\u2581reality": 5601,
  "\u2581Presidency": 5602,
  "\u2581activiteit": 5603,
  "\u2581blijf": 5604,
  "\u258120%": 5605,
  "\u2581Va": 5606,
  "\u2581garanderen": 5607,
  "MP": 5608,
  "shop": 5609,
  "\u2581alsook": 5610,
  "\u2581Description": 5611,
  "\u2581berg": 5612,
  "hur": 5613,
  "\u2581Saturday": 5614,
  "\u2581screen": 5615,
  "seks": 5616,
  "\u258156": 5617,
  "\u2581flights": 5618,
  "\u2581famous": 5619,
  "\u00ea": 5620,
  "\u2581verzocht": 5621,
  "66": 5622,
  "\u2581Sub": 5623,
  "ET": 5624,
  "\u2581digital": 5625,
  "\u2581church": 5626,
  "\u2581begrip": 5627,
  "\u2581alternative": 5628,
  "ink": 5629,
  "\u2581remove": 5630,
  "\u2581Handelingen": 5631,
  "stra": 5632,
  "\u2581Last": 5633,
  "\u2581erkenning": 5634,
  "\u2581fell": 5635,
  "\u2581witte": 5636,
  "\u2581aanzienlijke": 5637,
  "\u2581regelingen": 5638,
  "\u2581Richard": 5639,
  "\u2581presence": 5640,
  "tig": 5641,
  "\u2581secure": 5642,
  "Me": 5643,
  "\u2581EP": 5644,
  "\u2581Mil": 5645,
  "\u2581ADOPTED": 5646,
  "\u2581PRO": 5647,
  "teren": 5648,
  "\u2581looked": 5649,
  "\u2581getroffen": 5650,
  "\u2581Number": 5651,
  "\u2581kleuren": 5652,
  "ikt": 5653,
  "\u2581continued": 5654,
  "\u2581geleverd": 5655,
  "\u2581heavy": 5656,
  "ifi": 5657,
  "\u2581suiker": 5658,
  "98": 5659,
  "\u2581Bon": 5660,
  "\u2581firm": 5661,
  "8/": 5662,
  "\u2581serve": 5663,
  "\u2581aanzienlijk": 5664,
  "\u258147": 5665,
  "dienst": 5666,
  "-12": 5667,
  "\u2581regime": 5668,
  "88": 5669,
  "\u2581growing": 5670,
  "\u2581Sunday": 5671,
  "raal": 5672,
  "\u2581definition": 5673,
  "97": 5674,
  "\u2581Voorts": 5675,
  "\u2581linked": 5676,
  "laten": 5677,
  "\u2581cars": 5678,
  "\u2581operational": 5679,
  "\u2581blow": 5680,
  "\u2581currency": 5681,
  "\u2581bear": 5682,
  "rus": 5683,
  "gelijk": 5684,
  "000": 5685,
  "niveau": 5686,
  "\u2581geb": 5687,
  "\u2581verlies": 5688,
  "\u2581applies": 5689,
  "\u2581Russian": 5690,
  "Lo": 5691,
  "\u2581hoeveel": 5692,
  "\u2581VS": 5693,
  "\u2581Campi": 5694,
  "check": 5695,
  "\u2581jaarlijkse": 5696,
  "\u2581offering": 5697,
  "\u2581Share": 5698,
  "\u2581burger": 5699,
  "\u2581phase": 5700,
  "\u2581error": 5701,
  "\u2581120": 5702,
  "\u2581voldoet": 5703,
  "\u2581makkelijk": 5704,
  "\u2581eigenschappen": 5705,
  "hang": 5706,
  "\u2581guarantees": 5707,
  "\u2581Henry": 5708,
  "\u2581wit": 5709,
  "\u2581Iran": 5710,
  "\u2581Gran": 5711,
  "\u00eb": 5712,
  "\u2581books": 5713,
  "\u2581toevoegen": 5714,
  "\u2581boodschap": 5715,
  "\u2581discussie": 5716,
  "ret": 5717,
  "\u2581medicine": 5718,
  "Ro": 5719,
  "\u2581Wal": 5720,
  "\u2581Goede": 5721,
  "La": 5722,
  "\u258146": 5723,
  "\u25812:": 5724,
  "\u2581kamp": 5725,
  "\u2581Action": 5726,
  "\u2581eet": 5727,
  "verse": 5728,
  "anda": 5729,
  "eau": 5730,
  "\u2581Once": 5731,
  "ku": 5732,
  "\u2581degree": 5733,
  "stelling": 5734,
  "\u2581grow": 5735,
  "\u2581Mur": 5736,
  "\u2581Sweden": 5737,
  "\u2581businesses": 5738,
  "\u2581stated": 5739,
  "\u2581Russia": 5740,
  "0,": 5741,
  "\u2581culturele": 5742,
  "sc": 5743,
  "\u2581heat": 5744,
  "\u2581Market": 5745,
  "gezel": 5746,
  "nor": 5747,
  "An": 5748,
  "\u2581COMMISSIE": 5749,
  "\u2581button": 5750,
  "\u2581Iemand": 5751,
  "producten": 5752,
  "lock": 5753,
  "\u2581DNA": 5754,
  "\u258187": 5755,
  "\u2581rich": 5756,
  "\u2581index": 5757,
  "\u2581oppervlakte": 5758,
  "ova": 5759,
  "plan": 5760,
  "ction": 5761,
  "ml": 5762,
  "\u2581bevoegdheden": 5763,
  "\u2581uitgebreid": 5764,
  "pper": 5765,
  "rust": 5766,
  "\u2581staten": 5767,
  "rash": 5768,
  "\u25813-": 5769,
  "dia": 5770,
  "\u25819.": 5771,
  "\u2581certificate": 5772,
  "ona": 5773,
  "\u2581levens": 5774,
  "\u258154": 5775,
  "\u2581Everything": 5776,
  "\u258141": 5777,
  "\u2581gezin": 5778,
  "\u2581Belgian": 5779,
  "\u2581moved": 5780,
  "5/": 5781,
  "\u00ef": 5782,
  "\u2581cities": 5783,
  "\u2581trial": 5784,
  "\u2581voorzieningen": 5785,
  "\u2581skills": 5786,
  "\u2581Pat": 5787,
  "\u2581Midden": 5788,
  "\u2581bestemming": 5789,
  "\u2581Parijs": 5790,
  "\u2581improving": 5791,
  "\u2581tablet": 5792,
  "br": 5793,
  "\u2581selectie": 5794,
  "\u2581internationaal": 5795,
  "ett": 5796,
  "\u2581med": 5797,
  "\u2581tasks": 5798,
  "IP": 5799,
  "\u2581welk": 5800,
  "nic": 5801,
  "\u2581meant": 5802,
  "\u2581lage": 5803,
  "\u2581Agen": 5804,
  "\u2581Sant": 5805,
  "\u2581Also": 5806,
  "\u2581discover": 5807,
  "\u25818.": 5808,
  "ool": 5809,
  "iek": 5810,
  "\u2581Vanaf": 5811,
  "\u2581authorised": 5812,
  "ization": 5813,
  "\u2581label": 5814,
  "76": 5815,
  "imi": 5816,
  "\u2581Say": 5817,
  "\u258172": 5818,
  "Een": 5819,
  "\u2581museum": 5820,
  "81": 5821,
  "\u2581Zou": 5822,
  "\u2581driving": 5823,
  "\u258186": 5824,
  "\u2581articles": 5825,
  "\u2581recommendations": 5826,
  "oo": 5827,
  "\u2581Berlin": 5828,
  "loze": 5829,
  "\u2581resulting": 5830,
  "str": 5831,
  "oid": 5832,
  "pil": 5833,
  "ave": 5834,
  "\u2581kwijt": 5835,
  "07": 5836,
  "making": 5837,
  "\u2581client": 5838,
  "\u2581Amerika": 5839,
  "\u2581enterprises": 5840,
  "ON": 5841,
  "riff": 5842,
  "\u2581inwoners": 5843,
  "\u2581richtlijnen": 5844,
  "lid": 5845,
  "ability": 5846,
  "\u2581flow": 5847,
  "\u2581huge": 5848,
  "\u25811983": 5849,
  "\u2581player": 5850,
  "\u2581audit": 5851,
  "\u2581devices": 5852,
  "\u2581obligation": 5853,
  "\u2581Hold": 5854,
  "\u2581electricity": 5855,
  "\u2581tabel": 5856,
  "\u2581huwelijk": 5857,
  "\u25811981": 5858,
  "\u2581categories": 5859,
  "\u2581statistics": 5860,
  "\u2581considers": 5861,
  "\u25811000": 5862,
  "\u2581Transport": 5863,
  "\u2581ondersteunen": 5864,
  "\u2581stupid": 5865,
  "\u2581COMMISSION": 5866,
  "persoon": 5867,
  "\u2581recognition": 5868,
  "site": 5869,
  "rate": 5870,
  "Pa": 5871,
  "\u2581learning": 5872,
  "\u2581wonderful": 5873,
  "\u2581wakker": 5874,
  "erende": 5875,
  "\u2581automatisch": 5876,
  "bank": 5877,
  "\u2581inbegrepen": 5878,
  "\u2581huren": 5879,
  "\u2581William": 5880,
  "\u2581onderhavige": 5881,
  "\u2581gingen": 5882,
  "head": 5883,
  "station": 5884,
  "\u2581clinical": 5885,
  "\u2581verslagen": 5886,
  "ula": 5887,
  "51": 5888,
  "\u2581scale": 5889,
  "\u2581douane": 5890,
  "\u2581ziekenhuis": 5891,
  "\u2581uitgerust": 5892,
  "\u2581Work": 5893,
  "\u2581gedrag": 5894,
  "\u2581volle": 5895,
  "dan": 5896,
  "\u2581trend": 5897,
  "\u2581Zweden": 5898,
  "\u2581activa": 5899,
  "69": 5900,
  "rill": 5901,
  "zij": 5902,
  "\u2581Britse": 5903,
  "\u2581drop": 5904,
  "\u2581format": 5905,
  "\u2581zwart": 5906,
  "\u2581Zaken": 5907,
  "including": 5908,
  "\u2581copy": 5909,
  "Ma": 5910,
  "\u2581Rusland": 5911,
  "\u2581herstellen": 5912,
  "\u2581rapport": 5913,
  "\u2581ochtend": 5914,
  "\u2581Valencia": 5915,
  "rol": 5916,
  "\u2581seeing": 5917,
  "\u2581processes": 5918,
  "\u2581happening": 5919,
  "\u2581geweldige": 5920,
  "morgen": 5921,
  "\u2581blind": 5922,
  "\u2581facilitate": 5923,
  "\u2581merk": 5924,
  "\u2581opgericht": 5925,
  "\u2581finish": 5926,
  "\u2581exposure": 5927,
  "\u2581geneesmiddel": 5928,
  "\u2581Name": 5929,
  "\u2581Son": 5930,
  "\u2581sites": 5931,
  "\u2581bezit": 5932,
  "\u2581aanbevelingen": 5933,
  "\u2581ser": 5934,
  "SD": 5935,
  "mber": 5936,
  "\u2581stability": 5937,
  "\u2581levering": 5938,
  "3/": 5939,
  "\u2581consideration": 5940,
  "\u2581EEG": 5941,
  "\u2581democratic": 5942,
  "\u2581Brand": 5943,
  "\u2581gebouwd": 5944,
  "hel": 5945,
  "\u2581missie": 5946,
  "\u2581Wall": 5947,
  "\u2581Ons": 5948,
  "\u2581images": 5949,
  "\u2581stom": 5950,
  "\u2581spent": 5951,
  "\u2581accession": 5952,
  "\u2581suit": 5953,
  "\u2581priv\u00e9": 5954,
  "\u2581Wees": 5955,
  "\u2581eenheid": 5956,
  "\u2581VOLGENDE": 5957,
  "\u2581variety": 5958,
  "\u2581handle": 5959,
  "57": 5960,
  "\u2581medische": 5961,
  "\u2581preparation": 5962,
  "\u2581bouwen": 5963,
  "\u2581Moreover": 5964,
  "\u2581Fred": 5965,
  "**": 5966,
  "\u2581evenals": 5967,
  "Co": 5968,
  "On": 5969,
  "\u2581shop": 5970,
  "\u2581papier": 5971,
  "\u2581booking": 5972,
  "kracht": 5973,
  "\u2581acting": 5974,
  "\u2581dom": 5975,
  "\u2581Captain": 5976,
  "\u2581daarin": 5977,
  "\u2581players": 5978,
  "\u2581bijwerkingen": 5979,
  "\u2581Nor": 5980,
  "pan": 5981,
  "\u2581waard": 5982,
  "\u2581werkloosheid": 5983,
  "67": 5984,
  "loss": 5985,
  "lis": 5986,
  "sprogramma": 5987,
  "\u2581print": 5988,
  "\u2581situated": 5989,
  "European": 5990,
  "\u2581taste": 5991,
  "nl": 5992,
  "wing": 5993,
  "\u2581highest": 5994,
  "\u2581el": 5995,
  "\u2581encourage": 5996,
  "\u2581Costa": 5997,
  "\u2581regelmatig": 5998,
  "\u2581Soms": 5999,
  "\u2581gedachten": 6000,
  "grad": 6001,
  "\u2581differences": 6002,
  "9/": 6003,
  "asy": 6004,
  "\u25811982": 6005,
  "\u2581Real": 6006,
  "gie": 6007,
  "\u2581consequences": 6008,
  "\u2581ren": 6009,
  "aag": 6010,
  "\u2581EEC": 6011,
  "\u2581Fac": 6012,
  "\u2581ingevoerd": 6013,
  "\u2581farm": 6014,
  "pol": 6015,
  "\u2581throw": 6016,
  "\u2581em": 6017,
  "\u2581Gas": 6018,
  "\u2581originating": 6019,
  "\u2581observed": 6020,
  "\u2581Rotterdam": 6021,
  "\u2581vital": 6022,
  "\u2581finished": 6023,
  "\u2581Association": 6024,
  "bord": 6025,
  "5,": 6026,
  "\u2581Main": 6027,
  "\u2581achtergrond": 6028,
  "Fractie": 6029,
  "Op": 6030,
  "IG": 6031,
  "\u2581Three": 6032,
  "\u2581planten": 6033,
  "wond": 6034,
  "\u2581Prof": 6035,
  "nc": 6036,
  "\u2581modellen": 6037,
  "\u2581honey": 6038,
  "west": 6039,
  "\u2581teken": 6040,
  "89": 6041,
  "\u258151": 6042,
  "\u2581referentie": 6043,
  "\u2581Ty": 6044,
  "ew": 6045,
  "ena": 6046,
  "\u2581gisteren": 6047,
  "$": 6048,
  "\u2581Sky": 6049,
  "\u2581Greek": 6050,
  "PT": 6051,
  "\u2581optie": 6052,
  "\u2581trein": 6053,
  "\u2581moeite": 6054,
  "komt": 6055,
  "\u2581Lou": 6056,
  "\u2581meisjes": 6057,
  "laar": 6058,
  "ele": 6059,
  "oli": 6060,
  "\u2581fractie": 6061,
  "rac": 6062,
  "\u2581fly": 6063,
  "\u2581600": 6064,
  "mal": 6065,
  "\u2581anyway": 6066,
  "ase": 6067,
  "\u2581zwe": 6068,
  "cause": 6069,
  "58": 6070,
  "\u2581Spaanse": 6071,
  "\u2581released": 6072,
  "\u2581omschreven": 6073,
  "\u2581Afrika": 6074,
  "\u2581haat": 6075,
  "km": 6076,
  "II": 6077,
  "\u2581Euratom": 6078,
  "\u2581Fonds": 6079,
  "key": 6080,
  "\u2581OP": 6081,
  "64": 6082,
  "\u2581accident": 6083,
  "2018": 6084,
  "oud": 6085,
  "\u2581fill": 6086,
  "\u258152": 6087,
  "\u2581def": 6088,
  "\u2581approximately": 6089,
  "\u2581characteristics": 6090,
  "\u2581iron": 6091,
  "max": 6092,
  "\u2581fit": 6093,
  "\u2581schriftelijk": 6094,
  "NI": 6095,
  "\u258196": 6096,
  "\u2581bos": 6097,
  "\u2581declaration": 6098,
  "Com": 6099,
  "\u2581monetary": 6100,
  "\u2581geplaatst": 6101,
  "woon": 6102,
  "\u2581leger": 6103,
  "\u2581raakt": 6104,
  "\u2581Support": 6105,
  "\u2581EIB": 6106,
  "\u2581draagt": 6107,
  "\u2581priorities": 6108,
  "\u2581kli": 6109,
  "Mar": 6110,
  "\u2581bevestigd": 6111,
  "\u2581Opinion": 6112,
  "\u258162": 6113,
  "\u2581Done": 6114,
  "\u2581dames": 6115,
  "instellingen": 6116,
  "\u2581update": 6117,
  "\u2581wensen": 6118,
  "\u2581jong": 6119,
  "Wat": 6120,
  "\u2581largest": 6121,
  "\u2581ON": 6122,
  "\u2581agriculture": 6123,
  "\u2581Route": 6124,
  "\u2581beschrijving": 6125,
  "\u2581quantity": 6126,
  "\u2581signs": 6127,
  "\u2581firms": 6128,
  "\u2581verkeerd": 6129,
  "\u2581worst": 6130,
  "uke": 6131,
  "Al": 6132,
  "blad": 6133,
  "\u2581express": 6134,
  "\u2581zwarte": 6135,
  "\u2581primary": 6136,
  "\u2581neither": 6137,
  "\u2581Pol": 6138,
  "leden": 6139,
  "\u2581probeerde": 6140,
  "\u2581ideas": 6141,
  "\u2581onafhankelijk": 6142,
  "gram": 6143,
  "info": 6144,
  "\u2581aimed": 6145,
  "\u2581Bos": 6146,
  "\u2581arbeidsmarkt": 6147,
  "\u2581verzekering": 6148,
  "\u258110.": 6149,
  "rin": 6150,
  "\u2581perform": 6151,
  "\u2581verrichten": 6152,
  "\u2581taxes": 6153,
  "\u2581conduct": 6154,
  "\u2581functies": 6155,
  "\u2581fault": 6156,
  "laag": 6157,
  "\u2581conference": 6158,
  "\u258106": 6159,
  "87": 6160,
  "\u2581bag": 6161,
  "\u2581beperkte": 6162,
  "\u2581spreekt": 6163,
  "\u2581Royal": 6164,
  "\u2581Director": 6165,
  "\u2581bewijzen": 6166,
  "\u2581verkocht": 6167,
  "\u2581planet": 6168,
  "\u2581addressed": 6169,
  "\u2581SA": 6170,
  "anti": 6171,
  "\u2581glas": 6172,
  "MS": 6173,
  "\u2581Average": 6174,
  "\u2581ontmoeten": 6175,
  "\u2581voorbereiding": 6176,
  "\u2581prestaties": 6177,
  "\u2581Charles": 6178,
  "\u2581SMEs": 6179,
  "rouw": 6180,
  "\u2581ourselves": 6181,
  "\u2581traditionele": 6182,
  "\u2581Lot": 6183,
  "\u2581Motor": 6184,
  "\u2581Simon": 6185,
  "qua": 6186,
  "IL": 6187,
  "\u2581samenleving": 6188,
  "\u2581dien": 6189,
  "\u2581entitled": 6190,
  "\u2581mention": 6191,
  "\u2581loans": 6192,
  "\u2581difficulties": 6193,
  "IC": 6194,
  "\u2581Totaal": 6195,
  "\u2581Bio": 6196,
  "\u2581evil": 6197,
  "sco": 6198,
  "\u2581gebrek": 6199,
  "\u2581donker": 6200,
  "\u2581Today": 6201,
  "\u2581Father": 6202,
  "\u2581chemische": 6203,
  "\u2581totally": 6204,
  "\u2581availability": 6205,
  "84": 6206,
  "omething": 6207,
  "\u2581Media": 6208,
  "\u2581exceed": 6209,
  "zy": 6210,
  "\u2581temporary": 6211,
  "ort": 6212,
  "\u2581verkeerde": 6213,
  "centrum": 6214,
  "\u2581notes": 6215,
  "stroom": 6216,
  "hoek": 6217,
  "igheid": 6218,
  "\u2581farmers": 6219,
  "host": 6220,
  "\u2581heaven": 6221,
  "\u2581twijfel": 6222,
  "\u2581debt": 6223,
  "\u2581alstublieft": 6224,
  "euze": 6225,
  "\u2581geweld": 6226,
  "\u2581waters": 6227,
  "\u2581[1]": 6228,
  "\u2581therapy": 6229,
  "\u2581Eu": 6230,
  "\u2581improved": 6231,
  "ics": 6232,
  "\u2581Denmark": 6233,
  "\u2581Conference": 6234,
  "\u2581beperkingen": 6235,
  "\u2581contained": 6236,
  "\u2581Ms": 6237,
  "overschrijdende": 6238,
  "\u2581moesten": 6239,
  "\u2581character": 6240,
  "\u2581fisheries": 6241,
  "\u2581Long": 6242,
  "\u2581governments": 6243,
  "\u2581showed": 6244,
  "osa": 6245,
  "\u2581controls": 6246,
  "\u2581Many": 6247,
  "\u2581ontdekt": 6248,
  "\u2581streven": 6249,
  "\u2581challenges": 6250,
  "\u2581trots": 6251,
  "\u2581comit\u00e9": 6252,
  "\u2581command": 6253,
  "\u2581count": 6254,
  "\u2581actieve": 6255,
  "kra": 6256,
  "\u2581Del": 6257,
  "Plus": 6258,
  "\u2581afkomstig": 6259,
  "kwaliteit": 6260,
  "waarde": 6261,
  "\u2581sight": 6262,
  "\u2581committed": 6263,
  "\u2581kinder": 6264,
  "thing": 6265,
  "\u2581uitwisseling": 6266,
  "\u2581rot": 6267,
  "\u2581opdat": 6268,
  "\u2581wa": 6269,
  "\u2581casino": 6270,
  "\\": 6271,
  "\u2581revolution": 6272,
  "maatschappij": 6273,
  "\u2581criminal": 6274,
  "iro": 6275,
  "\u2581vierde": 6276,
  "\u2581association": 6277,
  "ima": 6278,
  "\u2581HEEFT": 6279,
  "\u2581emergency": 6280,
  "\u2581sterren": 6281,
  "\u2581onderworpen": 6282,
  "\u2581veld": 6283,
  "\u2581Naam": 6284,
  "\u2581Cham": 6285,
  "\u2581samenhang": 6286,
  "knop": 6287,
  "\u2581fix": 6288,
  "\u258108": 6289,
  "\u2581creating": 6290,
  "\u2581powerful": 6291,
  "\u2581democratie": 6292,
  "\u258153": 6293,
  "\u2581harde": 6294,
  "\u2581Company": 6295,
  "\u2581School": 6296,
  "53": 6297,
  "\u2581woensdag": 6298,
  "\u2581Life": 6299,
  "-4": 6300,
  "\u2581zondag": 6301,
  "vil": 6302,
  "\u2581vreemd": 6303,
  "meer": 6304,
  "\u2581worse": 6305,
  "\u2581onmogelijk": 6306,
  "\u2581tu": 6307,
  "ringen": 6308,
  "General": 6309,
  "\u2581behandelen": 6310,
  "\u2581elektrische": 6311,
  "\u2581judgment": 6312,
  "\u2581specifiek": 6313,
  "\u2581aanvragen": 6314,
  "\u2581fe": 6315,
  "\u2581Ram": 6316,
  "\u2581vereiste": 6317,
  "\u2581NA": 6318,
  "LE": 6319,
  "\u2581hetzij": 6320,
  "\u2581aangeboden": 6321,
  "\u2581Law": 6322,
  "\u2581eer": 6323,
  "\u2581Via": 6324,
  "\u2581qua": 6325,
  "\u2581registration": 6326,
  "/2004": 6327,
  "\u2581CH": 6328,
  "\u2581discussed": 6329,
  "\u2581toestand": 6330,
  "\u2581goud": 6331,
  "\u258104": 6332,
  "\u2581advance": 6333,
  "\u2581injectie": 6334,
  "gaat": 6335,
  "eeuw": 6336,
  "\u2581ernstig": 6337,
  "\u2581subsidies": 6338,
  "\u2581server": 6339,
  "\u2581capaciteit": 6340,
  "ition": 6341,
  "\u2581Zet": 6342,
  "bei": 6343,
  "\u2581afzonderlijke": 6344,
  "\u2581Mill": 6345,
  "zw": 6346,
  "\u2581wijst": 6347,
  "\u2581zeide": 6348,
  "\u2581improvement": 6349,
  "\u2581Communication": 6350,
  "\u2581digitale": 6351,
  "\u2581seek": 6352,
  "middag": 6353,
  "\u2581spread": 6354,
  "\u2581instance": 6355,
  "\u2581stelsel": 6356,
  "\u2581Para": 6357,
  "\u2581diep": 6358,
  "ologie": 6359,
  "\u2581discuss": 6360,
  "\u2581pilot": 6361,
  "\u2581intervention": 6362,
  "100": 6363,
  "\u2581Gall": 6364,
  "MO": 6365,
  "\u2581manufacturer": 6366,
  "\u2581strength": 6367,
  "\u2581zeiden": 6368,
  "\u2581Med": 6369,
  "\u2581noted": 6370,
  "ati": 6371,
  "iev": 6372,
  "lak": 6373,
  "2000": 6374,
  "\u2581monster": 6375,
  "hard": 6376,
  "\u2581richten": 6377,
  "\u2581ob": 6378,
  "\u2581Onderzoek": 6379,
  "rist": 6380,
  "\u2581wear": 6381,
  "\u2581verwachten": 6382,
  "\u2581rent": 6383,
  "\u2581voren": 6384,
  "\u2581provincie": 6385,
  "\u2581understanding": 6386,
  "\u2581nader": 6387,
  "\u2581reporting": 6388,
  "\u2581wegens": 6389,
  "iger": 6390,
  "\u2581indruk": 6391,
  "\u2581des": 6392,
  "\u2581Gold": 6393,
  "\u2581zware": 6394,
  "\u2581zodanig": 6395,
  "\u2581Deel": 6396,
  "\u2581Year": 6397,
  "\u2581wapens": 6398,
  "lingen": 6399,
  "\u2581vliegen": 6400,
  "\u2581sports": 6401,
  "\u2581dear": 6402,
  "\u2581swimming": 6403,
  "kort": 6404,
  "\u2581lag": 6405,
  "\u258179": 6406,
  "Ch": 6407,
  "\u2581democracy": 6408,
  "\u2581doch": 6409,
  "erde": 6410,
  "\u2581pure": 6411,
  "onderzoek": 6412,
  "\u2581afge": 6413,
  "\u2581thy": 6414,
  "\u2581comfortable": 6415,
  "aba": 6416,
  "\u2581leningen": 6417,
  "Do": 6418,
  "\u2581bekendmaking": 6419,
  "\u2581berekend": 6420,
  "\u2581rural": 6421,
  "\u2581plasma": 6422,
  "\u2581zwaar": 6423,
  "\u2581Lisbon": 6424,
  "\u2581(6)": 6425,
  "\u2581Area": 6426,
  "\u2581protected": 6427,
  "dress": 6428,
  "tur": 6429,
  "\u2581charges": 6430,
  "\u2581extended": 6431,
  "ison": 6432,
  "PC": 6433,
  "\u2581quantities": 6434,
  "\u2581mocht": 6435,
  "\u2581raken": 6436,
  "TS": 6437,
  "\u2581vertrek": 6438,
  "achtige": 6439,
  "\u2581match": 6440,
  "\u2581Hoeveel": 6441,
  "\u2581netwerken": 6442,
  "\u2581probeert": 6443,
  "\u2581Protection": 6444,
  "\u2581ziek": 6445,
  "\u2581stabiliteit": 6446,
  "\u2581(3": 6447,
  "\u2581gezamenlijke": 6448,
  "\u2581passed": 6449,
  "steun": 6450,
  "\u2581Gemiddelde": 6451,
  "regio": 6452,
  "\u2581historische": 6453,
  "\u2581figures": 6454,
  "qu": 6455,
  "\u2581transparency": 6456,
  "\u2581Tar": 6457,
  "\u2581Thomas": 6458,
  "ual": 6459,
  "\u2581Denemarken": 6460,
  "\u2581aangewezen": 6461,
  "\u2581Card": 6462,
  "\u2581angst": 6463,
  "\u2581Frans": 6464,
  "\u2581rode": 6465,
  "gekomen": 6466,
  "hat": 6467,
  "\u2581aims": 6468,
  "\u2581Language": 6469,
  "\u2581Vak": 6470,
  "\u2581competitive": 6471,
  "\u2581combined": 6472,
  "ash": 6473,
  "\u2581boos": 6474,
  "7/": 6475,
  "\u2581Paper": 6476,
  "teerde": 6477,
  "\u2581neck": 6478,
  "\u2581codes": 6479,
  "61": 6480,
  "\u2581ball": 6481,
  "\u2581named": 6482,
  "ball": 6483,
  "bedrijven": 6484,
  "ben": 6485,
  "ald": 6486,
  "hil": 6487,
  "\u2581thans": 6488,
  "bestanden": 6489,
  "\u2581appears": 6490,
  "aten": 6491,
  "\u2581Monday": 6492,
  "\u2581aldus": 6493,
  "\u2581verminderen": 6494,
  "\u2581produkt": 6495,
  "\u2581betekenis": 6496,
  "\u2581shopping": 6497,
  "\u2581verhogen": 6498,
  "\u2581lady": 6499,
  "\u2581Anders": 6500,
  "\u2581applying": 6501,
  "\u2581financieel": 6502,
  "\u2581rijk": 6503,
  "\u2581voorraad": 6504,
  "\u2581faith": 6505,
  "meter": 6506,
  "\u2581gewerkt": 6507,
  "\u2581pat": 6508,
  "\u2581Poland": 6509,
  "eller": 6510,
  "\u2581becomes": 6511,
  "fort": 6512,
  "\u2581conferentie": 6513,
  "\u2581Implementing": 6514,
  "\u2581Fine": 6515,
  "\u2581voorziet": 6516,
  "\u2581spoor": 6517,
  "geld": 6518,
  "ida": 6519,
  "\u2581argument": 6520,
  "unch": 6521,
  "\u2581kandidaat": 6522,
  "ians": 6523,
  "\u2581vet": 6524,
  "\u2581aanwezigheid": 6525,
  "\u2581session": 6526,
  "\u2581Actual": 6527,
  "ines": 6528,
  "\u2581eenmaal": 6529,
  "\u2581stimuleren": 6530,
  "\u25811).": 6531,
  "\u2581deals": 6532,
  "\u25815%": 6533,
  "\u2581properties": 6534,
  "\u2581prove": 6535,
  "\u2581Christmas": 6536,
  "\u2581background": 6537,
  "pped": 6538,
  "\u2581partnership": 6539,
  "\u2581ruim": 6540,
  "\u2581Drie": 6541,
  "\u2581river": 6542,
  "\u2581app": 6543,
  "\u2581chemical": 6544,
  "7,": 6545,
  "soort": 6546,
  "\u2581str": 6547,
  "\u2581gewezen": 6548,
  "\u2581lager": 6549,
  "aut": 6550,
  "\u2581amazing": 6551,
  "\u2581sur": 6552,
  "warm": 6553,
  "\u2581Malta": 6554,
  "\u2581walking": 6555,
  "\u2581bracht": 6556,
  "\u2581fundamentele": 6557,
  "\u2581Ban": 6558,
  "\u2581functions": 6559,
  "\u2581zitting": 6560,
  "mont": 6561,
  "tru": 6562,
  "\u2581psycho": 6563,
  "\u2581standing": 6564,
  "\u2581Aantal": 6565,
  "run": 6566,
  "\u2581gepubliceerd": 6567,
  "\u2581Verslag": 6568,
  "\u2581suggest": 6569,
  "\u2581Australia": 6570,
  "ipp": 6571,
  "vat": 6572,
  "\u2581Maastricht": 6573,
  "\u2581structures": 6574,
  "vir": 6575,
  "\u2581tablets": 6576,
  "hem": 6577,
  "\u2581Dia": 6578,
  "\u2581valid": 6579,
  "\u2581database": 6580,
  "raad": 6581,
  "\u2581breed": 6582,
  "werkingtreding": 6583,
  "elli": 6584,
  "\u2581verdieping": 6585,
  "\u2581cl": 6586,
  "\u2581unieke": 6587,
  "\u2581seconds": 6588,
  "\u2581boord": 6589,
  "\u2581purchase": 6590,
  "\u2581justice": 6591,
  "\u2581lengte": 6592,
  "\u2581sets": 6593,
  "\u2581severe": 6594,
  "\u2581fat": 6595,
  "\u2581noodzakelijke": 6596,
  "\u2581corresponding": 6597,
  "\u2581respectievelijk": 6598,
  "ondanks": 6599,
  "\u2581deliver": 6600,
  "\u258173": 6601,
  "\u2581began": 6602,
  "\u2581adem": 6603,
  "ther": 6604,
  "\u258107": 6605,
  "ral": 6606,
  "91": 6607,
  "nia": 6608,
  "\u2581testing": 6609,
  "\u2581accordingly": 6610,
  "\u2581planned": 6611,
  "\u2581Geda": 6612,
  "\u2581Exp": 6613,
  "Registr": 6614,
  "\u2581quick": 6615,
  "FA": 6616,
  "\u2581ID": 6617,
  "\u2581extend": 6618,
  "\u2581sen": 6619,
  "beheer": 6620,
  "\u2581sal": 6621,
  "~": 6622,
  "\u2581reflect": 6623,
  "\u2581hyper": 6624,
  "\u2581alarm": 6625,
  "\u2581eindelijk": 6626,
  "\u2581specifically": 6627,
  "\u2581verplichting": 6628,
  "96": 6629,
  "-3": 6630,
  "AD": 6631,
  "\u2581mountain": 6632,
  "\u2581strengthen": 6633,
  "\u2581closely": 6634,
  "bot": 6635,
  "\u2581letters": 6636,
  "boek": 6637,
  "\u2581reacties": 6638,
  "mis": 6639,
  "\u2581department": 6640,
  "\u2581Mart": 6641,
  "dar": 6642,
  "\u2581weekend": 6643,
  "\u2581rivier": 6644,
  "\u2581nogal": 6645,
  "\u2581cards": 6646,
  "\u2581Rock": 6647,
  "2-": 6648,
  "\u2581cells": 6649,
  "\u2581inge": 6650,
  "8,": 6651,
  "doen": 6652,
  "\u2581poly": 6653,
  "\u2581toediening": 6654,
  "place": 6655,
  "\u2581LORD": 6656,
  "\u2581Ol": 6657,
  "1.": 6658,
  "\u2581afspraak": 6659,
  "\u2581Shu": 6660,
  "\u2581checks": 6661,
  "\u2581populair": 6662,
  "sol": 6663,
  "\u2581zak": 6664,
  "\u2581union": 6665,
  "\u2581Houd": 6666,
  "\u2581yesterday": 6667,
  "\u2581ratio": 6668,
  "\u2581gevangenis": 6669,
  "ury": 6670,
  "\u2581grounds": 6671,
  "\u2581gevestigd": 6672,
  "\u2581ACP": 6673,
  "\u2581consistent": 6674,
  "72": 6675,
  "\u2581pati\u00ebnt": 6676,
  "\u2581residence": 6677,
  "\u2581schepen": 6678,
  "\u2581challenge": 6679,
  "\u2581Another": 6680,
  "\u2581Products": 6681,
  "\u2581ski": 6682,
  "maatregelen": 6683,
  "6/": 6684,
  "\u2581wens": 6685,
  "\u2581mad": 6686,
  "\u2581ijs": 6687,
  "\u2581VASTGESTELD": 6688,
  "\u2581square": 6689,
  "\u258182": 6690,
  "\u2581pot": 6691,
  "\u2581degene": 6692,
  "tec": 6693,
  "\u2581Switzerland": 6694,
  "\u2581impossible": 6695,
  "\u2581notification": 6696,
  "\u2581regen": 6697,
  "\u2581forces": 6698,
  "\u2581bevinden": 6699,
  "\u2581Agenda": 6700,
  "\u2581Travel": 6701,
  "\u2581exceeding": 6702,
  "\u2581geacht": 6703,
  "activiteiten": 6704,
  "\u2581Video": 6705,
  "\u2581removed": 6706,
  ".30": 6707,
  "\u2581plaatselijke": 6708,
  "\u2581directory": 6709,
  "\u2581lies": 6710,
  "\u2581Mas": 6711,
  "\u2581Amar": 6712,
  "\u2581bought": 6713,
  "\u2581ri": 6714,
  "\u2581belast": 6715,
  "essen": 6716,
  "wind": 6717,
  "\u2581caught": 6718,
  "\u2581automatically": 6719,
  "\u2581]": 6720,
  "\u2581snelheid": 6721,
  "deel": 6722,
  "\u2581cre": 6723,
  "\u2581absoluut": 6724,
  "\u2581cr": 6725,
  "\u2581Sand": 6726,
  "\u2581twice": 6727,
  "ody": 6728,
  "hood": 6729,
  "\u2581Rating": 6730,
  "\u2581Grote": 6731,
  "ila": 6732,
  "\u2581none": 6733,
  "\u2581periods": 6734,
  "\u2581Link": 6735,
  "\u2581anybody": 6736,
  "yr": 6737,
  "fel": 6738,
  "\u2581plaatsvinden": 6739,
  "\u2581drank": 6740,
  "\u2581eligible": 6741,
  "ome": 6742,
  "\u2581si": 6743,
  "\u2581apparaat": 6744,
  "\u2581beschikbaarheid": 6745,
  "\u2581Center": 6746,
  "lect": 6747,
  "border": 6748,
  "\u2581Safety": 6749,
  "\u2581tank": 6750,
  "grepen": 6751,
  "\u2581doses": 6752,
  "\u2581tickets": 6753,
  "\u2581examination": 6754,
  "\u2581Mov": 6755,
  "\u2581sol": 6756,
  "\u2581kansen": 6757,
  "ime": 6758,
  "aak": 6759,
  "\u2581straf": 6760,
  "\u2581Tuesday": 6761,
  "\u2581college": 6762,
  "lus": 6763,
  "\u2581properly": 6764,
  "anger": 6765,
  "\u2581Road": 6766,
  "\u2581slaan": 6767,
  "\u2581tegelijkertijd": 6768,
  "anse": 6769,
  "av": 6770,
  "\u2581competitiveness": 6771,
  "\u2581easier": 6772,
  "\u2581hum": 6773,
  "\u2581herziening": 6774,
  "\u2581producer": 6775,
  "\u2581Uitvoerings": 6776,
  "\u2581ban": 6777,
  "dal": 6778,
  "RO": 6779,
  "\u2581Lissabon": 6780,
  "\u2581Fire": 6781,
  "................": 6782,
  "RE": 6783,
  "\u2581Foundation": 6784,
  "\u2581droom": 6785,
  "\u2581treden": 6786,
  "erson": 6787,
  "\u2581fantastisch": 6788,
  "\u2581audio": 6789,
  "\u2581nummers": 6790,
  "86": 6791,
  "\u2581manage": 6792,
  "\u2581Ren": 6793,
  "Ja": 6794,
  "zar": 6795,
  "ept": 6796,
  "\u2581zaterdag": 6797,
  "\u2581ontdekken": 6798,
  "\u2581kwesties": 6799,
  "\u2581nine": 6800,
  "\u2581advocaat": 6801,
  "\u2581shut": 6802,
  "\u2581offices": 6803,
  "\u2581overeen": 6804,
  "you": 6805,
  "SS": 6806,
  "\u2581latter": 6807,
  "\u2581claims": 6808,
  "\u2581motion": 6809,
  "\u258198": 6810,
  "')": 6811,
  "chip": 6812,
  "\u2581erkend": 6813,
  "\u2581Island": 6814,
  "fan": 6815,
  "\u2581Overeenkomstig": 6816,
  "OP": 6817,
  "phy": 6818,
  "sky": 6819,
  "ology": 6820,
  "pla": 6821,
  "\u2581desire": 6822,
  "-20": 6823,
  "\u2581hierna": 6824,
  "\u2581Note": 6825,
  "\u2581dier": 6826,
  "\u2581Bay": 6827,
  "\u2581Peru": 6828,
  "stein": 6829,
  "\u2581directeur": 6830,
  "sgebied": 6831,
  "\u2581formulier": 6832,
  "comp": 6833,
  "itis": 6834,
  "\u2581cijfers": 6835,
  "\u2581confirmed": 6836,
  "IM": 6837,
  "\u2581promoting": 6838,
  "\u2581expertise": 6839,
  "..\"": 6840,
  "\u2581colour": 6841,
  "\u2581jump": 6842,
  "\u2581ervaringen": 6843,
  "\u2581hiervoor": 6844,
  "round": 6845,
  "\u258169": 6846,
  "\u2581rubber": 6847,
  "\u2581gewenst": 6848,
  "\u2581comment": 6849,
  "\u25811979": 6850,
  "\u2581anderzijds": 6851,
  "\u2581BIJLAGE": 6852,
  "\u2581closer": 6853,
  "\u2581positief": 6854,
  "oy": 6855,
  "\u2581borst": 6856,
  "\u2581Vrij": 6857,
  "rich": 6858,
  "\u2581bonus": 6859,
  "bert": 6860,
  "\u2581treat": 6861,
  "\u2581IS": 6862,
  "\u2581rail": 6863,
  "model": 6864,
  "\u2581existence": 6865,
  "\u2581stil": 6866,
  "AG": 6867,
  "\u2581failed": 6868,
  "1)": 6869,
  "una": 6870,
  "\u2581dubbele": 6871,
  "\u2581vastgelegd": 6872,
  "ebben": 6873,
  "\u2581requirement": 6874,
  "\u2581prison": 6875,
  "\u2581surveillance": 6876,
  "sson": 6877,
  "\u2581speaking": 6878,
  "\u2581constant": 6879,
  "\u2581proef": 6880,
  "\u2581obtain": 6881,
  "\u2581Dow": 6882,
  "\u2581broken": 6883,
  "\u2581Buil": 6884,
  "\u2581Reglement": 6885,
  "\u2581absolutely": 6886,
  "staat": 6887,
  "\u2581Subject": 6888,
  "\u2581parkeer": 6889,
  "\u2581slachtoffer": 6890,
  "mag": 6891,
  "\u2581eigendom": 6892,
  "\u2581Christus": 6893,
  "\u2581Proposal": 6894,
  "://": 6895,
  "\u2581supporting": 6896,
  "\u2581transactions": 6897,
  "\u2581nood": 6898,
  "cell": 6899,
  "Europa": 6900,
  "bon": 6901,
  "\u2581Polen": 6902,
  "\u2581ware": 6903,
  "\u2581rec": 6904,
  "\u2581rain": 6905,
  "\u2581Control": 6906,
  "\u2581eventueel": 6907,
  "\u2581Comp": 6908,
  "\u2581installatie": 6909,
  "\u2581feature": 6910,
  "\u2581memory": 6911,
  "DR": 6912,
  "\u2581mobiele": 6913,
  "\u2581omvatten": 6914,
  "\u258159": 6915,
  "{": 6916,
  "\u2581onderhoud": 6917,
  "virus": 6918,
  "\u2581AB": 6919,
  "\u2581identify": 6920,
  "\u2581vliegtuig": 6921,
  "\u2581Legal": 6922,
  "\u2581Step": 6923,
  "\u2581bottom": 6924,
  "\u2581evenwicht": 6925,
  "zza": 6926,
  "\u2581beroemd": 6927,
  "\u2581onderwerpen": 6928,
  "\u2581vertel": 6929,
  "\u2581zoiets": 6930,
  "\u2581gal": 6931,
  "\u2581hypo": 6932,
  "73": 6933,
  "\u2581char": 6934,
  "\u2581Should": 6935,
  "\u2581factoren": 6936,
  "\u2581falling": 6937,
  "ootball": 6938,
  "52": 6939,
  "\u2581vullen": 6940,
  "\u2581wetenschap": 6941,
  "\u2581uitgebracht": 6942,
  "sla": 6943,
  "\u2581boom": 6944,
  "\u2581notified": 6945,
  "\u2581geslacht": 6946,
  "mobili": 6947,
  "\u2581carrying": 6948,
  "eck": 6949,
  "\u2581verboden": 6950,
  "\u2581contributions": 6951,
  "oppen": 6952,
  "\u2581Que": 6953,
  "\u2581River": 6954,
  "\u2581vermindering": 6955,
  "europa": 6956,
  "\u2581Kon": 6957,
  "\u2581beweging": 6958,
  "\u2581Bijlage": 6959,
  "\u2581somewhere": 6960,
  "\u2581smaak": 6961,
  "\u2581toegediend": 6962,
  "\u2581Procedure": 6963,
  "\u2581output": 6964,
  "\u2581broad": 6965,
  "pannen": 6966,
  "\u2581beperking": 6967,
  "ssa": 6968,
  "EX": 6969,
  "\u2581fund": 6970,
  "\u2581technological": 6971,
  "\u2581stuur": 6972,
  "\u2581spin": 6973,
  "\u2581Never": 6974,
  ".00": 6975,
  "\u2581shape": 6976,
  "\u2581schedule": 6977,
  "ctor": 6978,
  "\u2581categorie\u00ebn": 6979,
  "cer": 6980,
  "\u2581regeringen": 6981,
  "\u2581supports": 6982,
  "\u2581von": 6983,
  "\u2581science": 6984,
  "UM": 6985,
  "\u2581restructuring": 6986,
  "mu": 6987,
  "ech": 6988,
  "\u2581luisteren": 6989,
  "\u2581prioriteiten": 6990,
  "\u2581prejudice": 6991,
  "\u2581Kin": 6992,
  "\u2581effectively": 6993,
  "cat": 6994,
  "uz": 6995,
  "\u2581Thus": 6996,
  "\u2581compensation": 6997,
  "vak": 6998,
  "\u2581sneller": 6999,
  "\u2581voorkeur": 7000,
  "\u258174": 7001,
  "[": 7002,
  "unnen": 7003,
  "\u2581Rules": 7004,
  "\u2581fiets": 7005,
  "\u2581leiding": 7006,
  "\u2581commerci\u00eble": 7007,
  "srecht": 7008,
  "001": 7009,
  "produkten": 7010,
  "icht": 7011,
  "\u2581essentieel": 7012,
  "SA": 7013,
  "\u2581ANNEX": 7014,
  "last": 7015,
  "\u2581putting": 7016,
  "\u2581negatieve": 7017,
  "\u258181": 7018,
  "\u2581zodra": 7019,
  "nov": 7020,
  "\u2581agents": 7021,
  "urt": 7022,
  "\u2581Zwitserland": 7023,
  "\u2581publieke": 7024,
  "plaatsen": 7025,
  "tain": 7026,
  "\u2581Zeker": 7027,
  "\u258177": 7028,
  "\u2581enlargement": 7029,
  "\u2581len": 7030,
  "\u2581Hans": 7031,
  "gr": 7032,
  "\u2581managed": 7033,
  "\u2581beat": 7034,
  "doc": 7035,
  "\u2581AS": 7036,
  "igen": 7037,
  "kwam": 7038,
  "\u2581methoden": 7039,
  "\u2581Phil": 7040,
  "\u2581militaire": 7041,
  "\u2581Probeer": 7042,
  "\u2581versterking": 7043,
  "\u2581pension": 7044,
  "\u2581houses": 7045,
  "\u2581ISBN": 7046,
  "\u2581manieren": 7047,
  "\u25819,": 7048,
  "\u2581operator": 7049,
  "\u2581temperatuur": 7050,
  "\u2581arms": 7051,
  "reg": 7052,
  "\u2581gevaarlijke": 7053,
  "dic": 7054,
  "\u2581hearing": 7055,
  "\u2581[2]": 7056,
  "\u2581pa": 7057,
  "izer": 7058,
  "83": 7059,
  "\u2581bloemen": 7060,
  "ures": 7061,
  "\u2581ice": 7062,
  "\u2581herinneren": 7063,
  "positie": 7064,
  "\u2581Sil": 7065,
  "\u2581calculated": 7066,
  "CI": 7067,
  "\u2581kruis": 7068,
  "\u2581performed": 7069,
  "\u2581vroeger": 7070,
  "\u2581vooruit": 7071,
  "\u258194": 7072,
  "\u2581receiving": 7073,
  "iber": 7074,
  "slaan": 7075,
  "\u2581mutual": 7076,
  "rine": 7077,
  "delen": 7078,
  "\u2581dossier": 7079,
  "\u258105": 7080,
  "via": 7081,
  "\u2581uitstekende": 7082,
  "\u2581driver": 7083,
  "eri": 7084,
  "\u2581participate": 7085,
  "\u2581saved": 7086,
  "\u2581gestelde": 7087,
  "\u2581imagine": 7088,
  "ple": 7089,
  "\u2581berekening": 7090,
  "esse": 7091,
  "\u258157": 7092,
  "\u2581eilanden": 7093,
  "\u2581Mol": 7094,
  "\u25813:": 7095,
  "\u2581raw": 7096,
  "\u2581soft": 7097,
  "staan": 7098,
  "\u2581haven": 7099,
  "\u2581ar": 7100,
  "\u2581voornaamste": 7101,
  "\u2581investments": 7102,
  "\u2581ontbijt": 7103,
  "\u2581dealing": 7104,
  "\u2581ve": 7105,
  "vallen": 7106,
  "\u2581Naas": 7107,
  "\u2581gecontroleerd": 7108,
  "\u2581advanced": 7109,
  "\u2581controlled": 7110,
  "\u2581wees": 7111,
  "lij": 7112,
  "\u2581Ser": 7113,
  "\u2581finance": 7114,
  "\u2581imp": 7115,
  "\u2581chosen": 7116,
  "\u2581tree": 7117,
  "\u2581VN": 7118,
  "\u2581dumping": 7119,
  "cock": 7120,
  "\u2581kredieten": 7121,
  "add": 7122,
  "\u2581buildings": 7123,
  "\u2581gift": 7124,
  "\u2581Londen": 7125,
  "OL": 7126,
  "fl": 7127,
  "}": 7128,
  "\u2581Vincent": 7129,
  "school": 7130,
  "\u2581hundred": 7131,
  "\u2581klinische": 7132,
  "\u2581verkrijgen": 7133,
  "\u2581expert": 7134,
  "71": 7135,
  "vac": 7136,
  "\u2581banen": 7137,
  "\u2581Press": 7138,
  "maximale": 7139,
  "\u2581cancer": 7140,
  "\u2581records": 7141,
  "made": 7142,
  "\u2581hoef": 7143,
  "\u2581television": 7144,
  "\u2581anywhere": 7145,
  "\u2581bedoeling": 7146,
  "\u2581Mary": 7147,
  "\u2581vak": 7148,
  "rive": 7149,
  "eva": 7150,
  "\u2581Gre": 7151,
  "\u2581transmission": 7152,
  "\u2581Vis": 7153,
  "\u2581ing": 7154,
  "\u2581keeping": 7155,
  "\u2581Multi": 7156,
  "\u2581homes": 7157,
  "\u2581whereas": 7158,
  "down": 7159,
  "\u2581vooraf": 7160,
  "\u2581monitor": 7161,
  "\u2581beoordelen": 7162,
  "ats": 7163,
  "\u2581merken": 7164,
  "\u2581Leg": 7165,
  "\u2581hierbij": 7166,
  "\u2581plattelands": 7167,
  "\u2581prepare": 7168,
  "lori": 7169,
  "\u2581Parties": 7170,
  "\u2581feite": 7171,
  "bak": 7172,
  "\u2581twaalf": 7173,
  "\u2581betalingen": 7174,
  "\u2581moeilijkheden": 7175,
  "tocht": 7176,
  "lat": 7177,
  "cc": 7178,
  "\u2581victims": 7179,
  "\u2581optimal": 7180,
  "\u2581RE": 7181,
  "Amerika": 7182,
  "\u2581ni": 7183,
  "\u2581Big": 7184,
  "\u2581werkte": 7185,
  "handel": 7186,
  "\u2581consists": 7187,
  "aj": 7188,
  "\u2581title": 7189,
  "\u2581definitie": 7190,
  "\u2581Federal": 7191,
  "hof": 7192,
  "\u2581concentration": 7193,
  "\u2581votes": 7194,
  "matic": 7195,
  "\u2581CE": 7196,
  "\u2581cohesion": 7197,
  "\u2581proof": 7198,
  "\u2581Zal": 7199,
  "\u2581corner": 7200,
  "put": 7201,
  "ban": 7202,
  "\u2581technologische": 7203,
  "aya": 7204,
  "bes": 7205,
  "\u2581involving": 7206,
  "\u2581010": 7207,
  "\u2581voorzichtig": 7208,
  "\u2581films": 7209,
  "\u2581Roman": 7210,
  "\u2581ongeacht": 7211,
  "rest": 7212,
  "\u2581goal": 7213,
  "\u2581geregeld": 7214,
  "\u2581Rights": 7215,
  "\u2581Belgische": 7216,
  "\u2581capable": 7217,
  "\u2581uitgebreide": 7218,
  "\u2581reactions": 7219,
  "\u2581lezing": 7220,
  "ato": 7221,
  "\u2581zonne": 7222,
  "zend": 7223,
  "raag": 7224,
  "CH": 7225,
  "born": 7226,
  "\u2581gebeurde": 7227,
  "\u2581Bre": 7228,
  "\u2581Cata": 7229,
  "\u2581Environment": 7230,
  "\u2581enerzijds": 7231,
  "\u2581tenminste": 7232,
  "was": 7233,
  "pit": 7234,
  "\u2581careful": 7235,
  "\u2581urban": 7236,
  "\u2581deskundigen": 7237,
  "gene": 7238,
  "\u2581th": 7239,
  "\u2581helped": 7240,
  "\u2581kregen": 7241,
  "\u2581Dublin": 7242,
  "lov": 7243,
  "\u2581stick": 7244,
  "assi": 7245,
  "rm": 7246,
  "\u2581Reg": 7247,
  "pir": 7248,
  "\u2581namely": 7249,
  "nam": 7250,
  "ote": 7251,
  "view": 7252,
  "\u2581getrouw": 7253,
  "\u2581onafhankelijke": 7254,
  "tch": 7255,
  "\u2581bleek": 7256,
  "\u2581represent": 7257,
  "\u2581bleef": 7258,
  "ssel": 7259,
  "\u2581mono": 7260,
  "\u2581Both": 7261,
  "\u2581tonnes": 7262,
  "\u2581tabletten": 7263,
  "\u2581Chr": 7264,
  "\u2581pollution": 7265,
  "\u2581handels": 7266,
  "82": 7267,
  "\u2581bekende": 7268,
  "\u2581considerable": 7269,
  "63": 7270,
  "\u258199": 7271,
  "\u2581appreciate": 7272,
  "\u2581mere": 7273,
  "\u2581strategic": 7274,
  "Article": 7275,
  "tle": 7276,
  "-6": 7277,
  "\u2581Zu": 7278,
  "\u2581Cat": 7279,
  "smiddelen": 7280,
  "\u2581Mensen": 7281,
  "\u2581witness": 7282,
  "\u2581seconden": 7283,
  "\u2581disabled": 7284,
  "lier": 7285,
  "94": 7286,
  "navir": 7287,
  "Welcome": 7288,
  "\u2581absence": 7289,
  "\u2581horse": 7290,
  "ole": 7291,
  "achtig": 7292,
  "\u2581enig": 7293,
  "\u2581functioning": 7294,
  "\u2581behouden": 7295,
  "\u2581raadpleging": 7296,
  "\u2581Voorstel": 7297,
  "cert": 7298,
  "rijk": 7299,
  "ssysteem": 7300,
  "\u258112.": 7301,
  "\u2581gered": 7302,
  "\u2581temperatures": 7303,
  "\u2581gevangen": 7304,
  "\u2581Project": 7305,
  "\u2581overweging": 7306,
  "\u2581surprise": 7307,
  "stuk": 7308,
  "\u2581shared": 7309,
  "\u2581overtuigd": 7310,
  "toon": 7311,
  "flat": 7312,
  "\u2581fil": 7313,
  "organisaties": 7314,
  "\u2581dinsdag": 7315,
  "olo": 7316,
  "\u2581hiermee": 7317,
  "ela": 7318,
  "\u2581miles": 7319,
  "\u2581dak": 7320,
  "\u2581duration": 7321,
  "nemen": 7322,
  "\u2581schaal": 7323,
  "\u2581idee\u00ebn": 7324,
  "\u258176": 7325,
  "\u2581wenst": 7326,
  "And": 7327,
  "\u25811)": 7328,
  "\u2581beelden": 7329,
  "\u2581bodem": 7330,
  "\u2581nergens": 7331,
  "\u2581erover": 7332,
  "\u2581gefinancierd": 7333,
  "\u2581borders": 7334,
  "stelsel": 7335,
  "\u2581substantial": 7336,
  "\u2581Ltd": 7337,
  "\u2581max": 7338,
  "fin": 7339,
  "\u2581Tur": 7340,
  "loog": 7341,
  "\u2581electric": 7342,
  "\u2581concentratie": 7343,
  "tom": 7344,
  "\u2581Washington": 7345,
  "74": 7346,
  "\u258168": 7347,
  "\u2581vocational": 7348,
  "cen": 7349,
  "\u2581innovative": 7350,
  "\u2581(2),": 7351,
  "\u2581feiten": 7352,
  "\u2581Terms": 7353,
  "\u2581individuals": 7354,
  "\u2581wi": 7355,
  "\u2581bringing": 7356,
  "gebieden": 7357,
  "\u2581Watch": 7358,
  "\u2581binnenlandse": 7359,
  "\u2581organic": 7360,
  "hin": 7361,
  "\u2581plane": 7362,
  "\u2581Pap": 7363,
  "\u2581situations": 7364,
  "\u2581Palm": 7365,
  "\u2581Aard": 7366,
  "sprakelijkheid": 7367,
  "TO": 7368,
  "\u2581commitments": 7369,
  "pet": 7370,
  "\u2581getuigen": 7371,
  "\u2581Zonder": 7372,
  "\u2581mechanism": 7373,
  "reed": 7374,
  "ronk": 7375,
  "Baby": 7376,
  "raden": 7377,
  "\u2581aluminium": 7378,
  "\u2581hoek": 7379,
  "\u2581Cooperation": 7380,
  "\u2581Regulations": 7381,
  "\u2581healthy": 7382,
  "wart": 7383,
  "\u2581ogenblik": 7384,
  "\u2581geleerd": 7385,
  "\u2581tijden": 7386,
  "nder": 7387,
  "hy": 7388,
  "\u2581beoordelingen": 7389,
  "\u2581adjustment": 7390,
  "\u2581registratie": 7391,
  "\u2581verdeeld": 7392,
  "\u258158": 7393,
  "ullen": 7394,
  "\u2581wrote": 7395,
  "\u2581reducing": 7396,
  "\u2581recorded": 7397,
  "gui": 7398,
  "\u2581smell": 7399,
  "ido": 7400,
  "\u2581Gerecht": 7401,
  "DF": 7402,
  "rum": 7403,
  "aca": 7404,
  "\u2581advantages": 7405,
  "\u2581geboden": 7406,
  "\u2581Old": 7407,
  "\u2581monetaire": 7408,
  "\u2581maandag": 7409,
  "\u2581computers": 7410,
  "\u2581vo": 7411,
  "\u2581eenvoudige": 7412,
  "Vandaag": 7413,
  "\u2581appeal": 7414,
  "\u2581supplies": 7415,
  "\u258161": 7416,
  "\u2581gebouwen": 7417,
  "\u2581indicate": 7418,
  "\u2581excit": 7419,
  "\u2581winst": 7420,
  "\u2581verzamelen": 7421,
  "\u2581telephone": 7422,
  "\u2581tekenen": 7423,
  "\u2581mistake": 7424,
  "\u2581tea": 7425,
  "\u2581Without": 7426,
  "3.": 7427,
  "\u2581erbij": 7428,
  "\u2581opties": 7429,
  "\u2581trap": 7430,
  "menu": 7431,
  "\u2581Scott": 7432,
  "\u2581Clean": 7433,
  "\u2581aangetoond": 7434,
  "\u2581thinks": 7435,
  "\u2581Doc": 7436,
  "\u2581definitely": 7437,
  "ars": 7438,
  "\u2581career": 7439,
  "\u2581speel": 7440,
  "\u2581Roma": 7441,
  "\u2581interessant": 7442,
  "\u2581weak": 7443,
  "\u2581covers": 7444,
  "\u2581noise": 7445,
  "\u2581wilden": 7446,
  "\u2581storm": 7447,
  "\u2581simpel": 7448,
  "\u2581installation": 7449,
  "\u2581DG": 7450,
  "Dat": 7451,
  "\u2581occur": 7452,
  "auw": 7453,
  "technologie": 7454,
  "\u2581Antwoord": 7455,
  "\u2581stone": 7456,
  "\u2581por": 7457,
  "\u2581victim": 7458,
  "slanden": 7459,
  "\u2581benadering": 7460,
  "\u2581symptoms": 7461,
  "\u2581Nations": 7462,
  "proces": 7463,
  "\u2581component": 7464,
  "\u2581Access": 7465,
  "\u2581Berg": 7466,
  "\u2581blootstelling": 7467,
  "\u2581illegal": 7468,
  "with": 7469,
  "\u2581wellicht": 7470,
  "\u2581coast": 7471,
  "nar": 7472,
  "\u2581gewone": 7473,
  "rank": 7474,
  "0/": 7475,
  "\u2581Institute": 7476,
  "ega": 7477,
  "zin": 7478,
  "body": 7479,
  "\u2581proud": 7480,
  "chan": 7481,
  "\u2581vloer": 7482,
  "\u2581block": 7483,
  "\u2581dergelijk": 7484,
  "\u2581remind": 7485,
  "\u00e9r": 7486,
  "\u2581REGULATION": 7487,
  "\u2581primarily": 7488,
  "scan": 7489,
  "gens": 7490,
  "sbrief": 7491,
  "\u2581Education": 7492,
  "paar": 7493,
  "related": 7494,
  "\u2581dimension": 7495,
  "ival": 7496,
  "\u2581parameters": 7497,
  "stre": 7498,
  "\u2581operatie": 7499,
  "\u2581verpakking": 7500,
  "\u2581chain": 7501,
  "point": 7502,
  "\u2581opstellen": 7503,
  "\u2581Industrial": 7504,
  "hir": 7505,
  "\u2581frequently": 7506,
  "\u2581tariff": 7507,
  "\u258171": 7508,
  "\u2581blik": 7509,
  "\u2581praktijken": 7510,
  "\u2581technologie\u00ebn": 7511,
  "\u2581behoort": 7512,
  "\u2581Ski": 7513,
  "\u2581geboekt": 7514,
  "\u2581omhoog": 7515,
  "uel": 7516,
  "\u2581bud": 7517,
  "\u2581slachtoffers": 7518,
  "\u2581sand": 7519,
  "\u2581Isra\u00ebl": 7520,
  "\u2581signal": 7521,
  "ific": 7522,
  "\u2581toepassingen": 7523,
  "beeld": 7524,
  "\u2581weergegeven": 7525,
  "\u2581geproduceerd": 7526,
  "\u2581shares": 7527,
  "\u2581older": 7528,
  "organisatie": 7529,
  "\u2581beroeps": 7530,
  "pr": 7531,
  "\u2581naleving": 7532,
  "\u2581introduce": 7533,
  "\u2581violence": 7534,
  "\u2581Non": 7535,
  "\u2581Network": 7536,
  "bol": 7537,
  "\u2581paragraphs": 7538,
  "\u2581daardoor": 7539,
  "\u2581staatssteun": 7540,
  "\u2581opinions": 7541,
  "\u2581fourth": 7542,
  "\u2581Ask": 7543,
  "AM": 7544,
  "ned": 7545,
  "\u2581organizations": 7546,
  "\u2581Details": 7547,
  "ario": 7548,
  "\u2581relax": 7549,
  "\u2581aanbeveling": 7550,
  "\u2581regelen": 7551,
  "\u2581Single": 7552,
  "\u2581positions": 7553,
  "\u2581Pak": 7554,
  "\u2581vergroten": 7555,
  "\u2581volwassen": 7556,
  "\u2581toepasselijk": 7557,
  "\u2581verklaard": 7558,
  "\u2581aangebracht": 7559,
  "\u2581realize": 7560,
  "\u2581thee": 7561,
  "ML": 7562,
  "\u258189": 7563,
  "\u2581formal": 7564,
  "\u2581syn": 7565,
  "OV": 7566,
  "\u2581oral": 7567,
  "\u2581Pra": 7568,
  "\u2581delay": 7569,
  "klo": 7570,
  "graf": 7571,
  "\u2581menselijk": 7572,
  "\u2581trading": 7573,
  "\u2581vechten": 7574,
  "EUR": 7575,
  "GR": 7576,
  "\u2581Sun": 7577,
  "\u2581RT": 7578,
  "i\u00ebn": 7579,
  "\u2581west": 7580,
  "ites": 7581,
  "kelijk": 7582,
  "\u2581seriously": 7583,
  "mand": 7584,
  "rr": 7585,
  "\u2581aandeel": 7586,
  "\u2581rood": 7587,
  "\u2581hall": 7588,
  "UR": 7589,
  "\u2581spelers": 7590,
  "\u2581beslissingen": 7591,
  "\u2581ongeluk": 7592,
  "\u2581repair": 7593,
  "\u2581depends": 7594,
  "oma": 7595,
  "\u2581kennisgeving": 7596,
  "\u2581instructions": 7597,
  "\u2581exclusive": 7598,
  "\u2581organen": 7599,
  "tech": 7600,
  "\u2581Hal": 7601,
  "\u2581slow": 7602,
  "format": 7603,
  "\u2581gesprek": 7604,
  "\u2581stopped": 7605,
  "\u00f3n": 7606,
  "\u2581vereisten": 7607,
  "ui": 7608,
  "\u2581Zorg": 7609,
  "\u2581FR": 7610,
  "fil": 7611,
  "\u2581prevention": 7612,
  "\u2581reasonable": 7613,
  "vang": 7614,
  "\u2581immediate": 7615,
  "\u2581governance": 7616,
  "\u2581lossen": 7617,
  "\u2581flag": 7618,
  "\u2581Universiteit": 7619,
  "\u2581manufacture": 7620,
  "\u2581invited": 7621,
  "\u2581eigenaar": 7622,
  "\u2581leef": 7623,
  "\u2581recept": 7624,
  "straat": 7625,
  "\u2581restrictions": 7626,
  "\u2581Flight": 7627,
  "\u2581Av": 7628,
  "\":": 7629,
  "\u2581bronnen": 7630,
  "som": 7631,
  "zaam": 7632,
  "\u2581eeuwig": 7633,
  "rak": 7634,
  "\u2581negen": 7635,
  "ANT": 7636,
  "\u2581mits": 7637,
  "maatschappijen": 7638,
  "\u2581magic": 7639,
  "\u2581display": 7640,
  "\u2581ijzer": 7641,
  "ieten": 7642,
  "\u2581leaves": 7643,
  "\u2581kick": 7644,
  "\u2581busy": 7645,
  "\u2581pieces": 7646,
  "0%": 7647,
  "\u2581comparison": 7648,
  "\u2581critical": 7649,
  "\u25811/": 7650,
  "waardering": 7651,
  "\u2581onderlinge": 7652,
  "punten": 7653,
  "\u2581agencies": 7654,
  "\u2581diameter": 7655,
  "\u2581enforcement": 7656,
  "\u2581scherm": 7657,
  "offer": 7658,
  "\u2581overheden": 7659,
  "\u2581toont": 7660,
  "\u2581democratische": 7661,
  "\u2581finding": 7662,
  "\u2581ruime": 7663,
  "\u2581Duits": 7664,
  "\u2581presentation": 7665,
  "\u2581werkzame": 7666,
  "\u2581operationele": 7667,
  "\u2581installed": 7668,
  "\u2581Cer": 7669,
  ".12.": 7670,
  "\u2581confidence": 7671,
  "iva": 7672,
  "\u00e4": 7673,
  "\u2581Sur": 7674,
  "\u2581pet": 7675,
  "\u2581Adv": 7676,
  "\u2581afternoon": 7677,
  "pc": 7678,
  "\u2581overdracht": 7679,
  "\u2581800": 7680,
  "\u2581WTO": 7681,
  "\u2581verdrag": 7682,
  "\u2581fabrikant": 7683,
  "\u2581Mij": 7684,
  "ril": 7685,
  "\u2581greatest": 7686,
  "\u2581leeft": 7687,
  "rei": 7688,
  "\u2581assist": 7689,
  "\u2581sexual": 7690,
  "\u2581hoeven": 7691,
  "\u2581Michel": 7692,
  "\u2581clo": 7693,
  "\u2581harmonisatie": 7694,
  "\u2581Church": 7695,
  "\u2581talked": 7696,
  "iano": 7697,
  "\u2581zwanger": 7698,
  "\u2581watching": 7699,
  "\u2581oven": 7700,
  "\u2581dimensie": 7701,
  "\u2581tele": 7702,
  "\u2581ontvangst": 7703,
  "\u2581garanties": 7704,
  "\u25814-": 7705,
  "\u2581larger": 7706,
  "\u2581testen": 7707,
  "\u2581significantly": 7708,
  "\u2581meters": 7709,
  "home": 7710,
  "\u258109": 7711,
  "\u2581loan": 7712,
  "\u2581afgegeven": 7713,
  "\u2581pakket": 7714,
  "\u2581sluit": 7715,
  "\u2581Lind": 7716,
  "\u2581Science": 7717,
  "\u2581Class": 7718,
  "tery": 7719,
  "\u2581zoekt": 7720,
  "\u2581stads": 7721,
  "\u2581tijdelijke": 7722,
  "\u2581levert": 7723,
  "\u2581inclusive": 7724,
  "\u2581exports": 7725,
  "iter": 7726,
  "\u2581forest": 7727,
  "\u2581sides": 7728,
  "\u2581consumptie": 7729,
  "chten": 7730,
  "\u2581Vietnam": 7731,
  "\u2581subjects": 7732,
  "lei": 7733,
  "\u2581biologische": 7734,
  "\u2581bedrijfstak": 7735,
  "\u2581Best": 7736,
  "MB": 7737,
  "ucht": 7738,
  "\u2581Middellandse": 7739,
  "\u2581Gegevens": 7740,
  "\u2581aircraft": 7741,
  "\u2581banden": 7742,
  "\u2581imposed": 7743,
  "brand": 7744,
  "rge": 7745,
  "\u2581Kal": 7746,
  "alk": 7747,
  "AK": 7748,
  "drukken": 7749,
  "\u2581voorlopige": 7750,
  "\u2581inspection": 7751,
  "\u2581drawing": 7752,
  "\u2581lying": 7753,
  "\u2581Advies": 7754,
  "\u2581changing": 7755,
  "\u2581incl": 7756,
  "He": 7757,
  "\u2581operate": 7758,
  "\u2581insuline": 7759,
  "\u2581Vice": 7760,
  "\u2581connect": 7761,
  "ott": 7762,
  "\u2581Jul": 7763,
  "\u2581bespreken": 7764,
  "\u2581Czech": 7765,
  "\u2581slotte": 7766,
  "py": 7767,
  "\u2581erger": 7768,
  "\u2581African": 7769,
  "\u2581covering": 7770,
  "wij": 7771,
  "\u2581weapons": 7772,
  "\u2581officer": 7773,
  "\u2581Foreign": 7774,
  "\u2581reply": 7775,
  "\u25811975": 7776,
  "\u00e1n": 7777,
  "\u2581verbinding": 7778,
  "\u2581gebruiker": 7779,
  "\u2581mobility": 7780,
  "\u2581schijf": 7781,
  "\u2581vissen": 7782,
  "kov": 7783,
  "\u2581respond": 7784,
  "\u2581vision": 7785,
  "\u2581Wet": 7786,
  "\u258111.": 7787,
  "\u2581conducted": 7788,
  "\u2581geachte": 7789,
  "\u2581Cu": 7790,
  "\u2581pitch": 7791,
  "\u2581VII": 7792,
  "\u2581Regional": 7793,
  "\u2581gedood": 7794,
  "\u2581nobody": 7795,
  "tour": 7796,
  "\u2581Groep": 7797,
  "\u2581daarop": 7798,
  "maak": 7799,
  "pin": 7800,
  "\u2581despite": 7801,
  "MI": 7802,
  "\u2581lunch": 7803,
  "Deze": 7804,
  "LA": 7805,
  "\u2581Jong": 7806,
  "regeling": 7807,
  "\u2581semi": 7808,
  "\u2581daartoe": 7809,
  "alog": 7810,
  "ene": 7811,
  "\u2581seizoen": 7812,
  "kes": 7813,
  "sturen": 7814,
  "\u2581feels": 7815,
  "zu": 7816,
  "\u2581valuta": 7817,
  "\u2581ed": 7818,
  "\u2581translation": 7819,
  "MC": 7820,
  "\u2581pleasure": 7821,
  "EM": 7822,
  "\u2581dubbel": 7823,
  "\u2581deelname": 7824,
  "\u2581wegen": 7825,
  "\u2581painting": 7826,
  "\u2581thousand": 7827,
  "\u2581Private": 7828,
  "\u2581mat": 7829,
  "\u2581willing": 7830,
  "\u2581sample": 7831,
  "\u2581Sla": 7832,
  "\u2581schools": 7833,
  "\u258197": 7834,
  "\u2581bier": 7835,
  "\u2581organize": 7836,
  "\u2581battle": 7837,
  "\u2581entirely": 7838,
  "oven": 7839,
  "\u2581certificaat": 7840,
  "\u258167": 7841,
  "\u2581Pal": 7842,
  "\u2581medicines": 7843,
  "\u2581bek": 7844,
  "mers": 7845,
  "\u2581lived": 7846,
  "\u2581Fri": 7847,
  "\u2581Papa": 7848,
  "\u2581appointed": 7849,
  "\u2581deelnemers": 7850,
  "\u2581(7)": 7851,
  "\u2581solid": 7852,
  "bil": 7853,
  "\u2581Uni": 7854,
  "\u2581Asia": 7855,
  "\u2581VERORDENING": 7856,
  "\u2581uitdagingen": 7857,
  "\u2581doeleinden": 7858,
  "\u2581medewerkers": 7859,
  "productie": 7860,
  "\u2581institutional": 7861,
  "\u2581beslist": 7862,
  "\u258130%": 7863,
  "\u2581Break": 7864,
  "-18": 7865,
  "\u2581GDP": 7866,
  "\u2581daadwerkelijk": 7867,
  "\u2581sterker": 7868,
  "\u2581trees": 7869,
  "\u2581definitieve": 7870,
  "gels": 7871,
  "periode": 7872,
  "\u2581filter": 7873,
  "\u2581Has": 7874,
  "\u2581cor": 7875,
  "\u2581verkiezingen": 7876,
  "\u2581accompanied": 7877,
  "\u2581carefully": 7878,
  "\u2581Hungary": 7879,
  "\u2581owner": 7880,
  "\u2581stukken": 7881,
  "\u2581groene": 7882,
  "\u2581Remember": 7883,
  "\u2581identification": 7884,
  "\u2581disposal": 7885,
  "\u2581entirety": 7886,
  "\u2581110": 7887,
  "\u2581deleted": 7888,
  "OT": 7889,
  "\u2581structurele": 7890,
  "\u2581verhouding": 7891,
  "-11": 7892,
  "\u2581dates": 7893,
  "\u2581identity": 7894,
  "\u2581beveiliging": 7895,
  "\u2581Indeed": 7896,
  "\u2581fighting": 7897,
  "\u2581\u03bc": 7898,
  "\u2581gene": 7899,
  "\u2581female": 7900,
  "\u2581generation": 7901,
  "ond": 7902,
  "\u00ee": 7903,
  "\u2581macro": 7904,
  "\u2581refers": 7905,
  "\u2581verhoogd": 7906,
  "\u2581atmosphere": 7907,
  "\u2581professionele": 7908,
  "zet": 7909,
  "\u2581Question": 7910,
  "\u2581Afghanistan": 7911,
  "TP": 7912,
  "\u2581Werk": 7913,
  "\u2581pers": 7914,
  "\u2581Design": 7915,
  "\u2581indirect": 7916,
  "\u2581tijdstip": 7917,
  "\u2581sluiting": 7918,
  "\u2581prioriteit": 7919,
  "\u2581ISO": 7920,
  "cm": 7921,
  "\u2581becoming": 7922,
  "\u2581Stor": 7923,
  "\u2581answers": 7924,
  "\u2581pr": 7925,
  "\u2581Fra": 7926,
  "rem": 7927,
  "\u2581sl": 7928,
  "\u2581muur": 7929,
  "TER": 7930,
  "\u2581rente": 7931,
  "\u2581effectiveness": 7932,
  "\u2581vonden": 7933,
  "\u2581insulin": 7934,
  "MA": 7935,
  "weer": 7936,
  "\u2581essenti\u00eble": 7937,
  "\u2581televisie": 7938,
  "gebruik": 7939,
  "\u258125%": 7940,
  "\u2581Cuba": 7941,
  "\u2581USD": 7942,
  "\u2581vergoeding": 7943,
  "\u2581Colombia": 7944,
  "\u2581duurt": 7945,
  "\u2581Perhaps": 7946,
  "\u2581Korea": 7947,
  "achter": 7948,
  "lp": 7949,
  "\u258178": 7950,
  "\u2581respectively": 7951,
  "\u2581breng": 7952,
  "\u2581routes": 7953,
  "\u2581Jacob": 7954,
  "\u2581Country": 7955,
  "\u2581load": 7956,
  "\u2581partnerschap": 7957,
  "\u2581sprak": 7958,
  "\u2581kleding": 7959,
  "\u2581threat": 7960,
  "\u2581zijde": 7961,
  "\u2581Buy": 7962,
  "\u2581indienen": 7963,
  "\u2581recognised": 7964,
  "middelen": 7965,
  "\u2581nadruk": 7966,
  "\u2581pages": 7967,
  "pul": 7968,
  "\u2581Children": 7969,
  "appen": 7970,
  "ttle": 7971,
  "\u2581smaller": 7972,
  "\u2581discussions": 7973,
  "kunde": 7974,
  "speriode": 7975,
  "\u2581profile": 7976,
  "\u2581Naties": 7977,
  "\u2581stijging": 7978,
  "\u2581zolang": 7979,
  "lag": 7980,
  "\u2581vreemde": 7981,
  "\u2581empty": 7982,
  "\u2581measured": 7983,
  "\u2581spoke": 7984,
  "\u2581lijk": 7985,
  "\u2581onver": 7986,
  "Archi": 7987,
  "\u2581toename": 7988,
  "\u2581tender": 7989,
  "\u2581surrounding": 7990,
  "elt": 7991,
  "\u2581legt": 7992,
  "EF": 7993,
  "\u2581forum": 7994,
  "sport": 7995,
  "\u2581Cho": 7996,
  "table": 7997,
  "\u2581remaining": 7998,
  "\u2581woont": 7999,
  "\u2581hopen": 8000,
  "\u2581brood": 8001,
  "\u2581uiteraard": 8002,
  "meld": 8003,
  "sme": 8004,
  "\u2581continuing": 8005,
  "\u2581fouten": 8006,
  "\u2581tal": 8007,
  "\u2581conclusie": 8008,
  "\u2581scheppen": 8009,
  "\u2581fre": 8010,
  "\u2581praktische": 8011,
  "\u2581perfectly": 8012,
  "\u2581Qu": 8013,
  "\u2581identiteit": 8014,
  "rup": 8015,
  "\u2581extreme": 8016,
  "tage": 8017,
  "zijn": 8018,
  "materiaal": 8019,
  "\u2581stable": 8020,
  "\u2581lichte": 8021,
  ".11.": 8022,
  "lau": 8023,
  "\u2581serieus": 8024,
  "\u2581burden": 8025,
  "\u2581functioneren": 8026,
  "\u2581Direct": 8027,
  "pyr": 8028,
  "\u2581entity": 8029,
  "\u25812005.": 8030,
  "PL": 8031,
  "62": 8032,
  "\u2581bedanken": 8033,
  "ika": 8034,
  "\u2581viel": 8035,
  "\u2581tion": 8036,
  "cio": 8037,
  "\u2581Lang": 8038,
  "\u2581vlinder": 8039,
  "\u2581gevaarlijk": 8040,
  "ua": 8041,
  "\u258110,": 8042,
  "\u2581worried": 8043,
  "doe": 8044,
  "\u2581truly": 8045,
  "\u2581combat": 8046,
  "\u2581helps": 8047,
  "\u2581universiteit": 8048,
  "lers": 8049,
  "\u2581clothes": 8050,
  "\u2581kijkt": 8051,
  "\u2581appropriations": 8052,
  "\u2581Juist": 8053,
  "\u2581vertelt": 8054,
  "iana": 8055,
  "lok": 8056,
  "\u2581overheids": 8057,
  "\u2581height": 8058,
  "TA": 8059,
  "WE": 8060,
  "UT": 8061,
  "\u2581Hongarije": 8062,
  "open": 8063,
  "\u2581lock": 8064,
  "\u2581Garden": 8065,
  "\u2581nuttig": 8066,
  "\u2581butter": 8067,
  "cis": 8068,
  "\u2581estimated": 8069,
  "\u2581cry": 8070,
  "\u2581bepaalt": 8071,
  "schreef": 8072,
  "\u2581fleet": 8073,
  "\u2581aankoop": 8074,
  "\u2581Cur": 8075,
  "richtlijn": 8076,
  "\u2581bin": 8077,
  "\u2581Agriculture": 8078,
  "\u2581Indian": 8079,
  "zelfde": 8080,
  "\u2581voetbal": 8081,
  "\u2581appointment": 8082,
  "\u2581Point": 8083,
  "fr": 8084,
  "\u2581stars": 8085,
  "\u2581killing": 8086,
  "\u2581cel": 8087,
  "\u2581friendly": 8088,
  "\u2581campaign": 8089,
  "\u2581zulke": 8090,
  "\u2581ge\u00efntegreerde": 8091,
  "\u2581organised": 8092,
  "\u2581voted": 8093,
  "\u2581Santa": 8094,
  "\u2581assess": 8095,
  "\u2581Volg": 8096,
  "\u2581transacties": 8097,
  "staten": 8098,
  "\u2581aandelen": 8099,
  "\u2581thi": 8100,
  "rma": 8101,
  "\u2581crew": 8102,
  "\u2581leugen": 8103,
  "dium": 8104,
  "\u2581Russische": 8105,
  "\u2581lagere": 8106,
  "\u2581reclame": 8107,
  "\u2581excu": 8108,
  "\u2581Romania": 8109,
  "lle": 8110,
  "oni": 8111,
  "arn": 8112,
  "\u2581treffen": 8113,
  "\u2581Low": 8114,
  "\u2581sheet": 8115,
  "\u2581danger": 8116,
  "\u2581ships": 8117,
  "\u2581spoedig": 8118,
  "\u2581veroorzaken": 8119,
  "claim": 8120,
  "200": 8121,
  "night": 8122,
  "\u2581reageren": 8123,
  "\u2581Croatia": 8124,
  "ijs": 8125,
  "\u2581Visit": 8126,
  "utter": 8127,
  "\u2581marine": 8128,
  ".3.": 8129,
  "\u2581versterkt": 8130,
  "\u2581laatstelijk": 8131,
  "\u2581restaurants": 8132,
  "\u2581reizigers": 8133,
  "\u2581sfeer": 8134,
  "\u2581telt": 8135,
  "lidstaten": 8136,
  "own": 8137,
  "\u2581frequency": 8138,
  "\u2581honor": 8139,
  "\u2581deelnemen": 8140,
  "kk": 8141,
  "tuin": 8142,
  "\u2581pensioen": 8143,
  "\u2581crucial": 8144,
  "\u2581retail": 8145,
  "\u2581Leave": 8146,
  "\u2581Stel": 8147,
  "cs": 8148,
  "\u2581vertrekken": 8149,
  "\u2581outcome": 8150,
  "med": 8151,
  "zame": 8152,
  "\u2581Marin": 8153,
  "\u2581entities": 8154,
  "\u2581honger": 8155,
  "\u2581Order": 8156,
  "\u2581Secretary": 8157,
  "\u2581volksgezondheid": 8158,
  "\u2581enhance": 8159,
  "\u2581kinds": 8160,
  "\u2581aanvaard": 8161,
  "\u2581logo": 8162,
  "\u2581tarief": 8163,
  "baan": 8164,
  "NA": 8165,
  "\u2581agency": 8166,
  "imo": 8167,
  "\u2581Hy": 8168,
  "\u2581voting": 8169,
  "\u2581onbe": 8170,
  "\u2581ervaren": 8171,
  "\u2581lit": 8172,
  "\u2581exact": 8173,
  "\u2581arrival": 8174,
  "\u2581Text": 8175,
  "\u2581Mid": 8176,
  "project": 8177,
  "\u25811976": 8178,
  "\u2581mechanisms": 8179,
  "\u2581gestuurd": 8180,
  "\u2581Griekse": 8181,
  "\u2581scan": 8182,
  "\u2581accessible": 8183,
  "\u2581verzekerings": 8184,
  "\u2581licence": 8185,
  "sters": 8186,
  "\u2581beoordeeld": 8187,
  "\u2581jaarlijks": 8188,
  "hole": 8189,
  "haven": 8190,
  "ander": 8191,
  "\u2581revenue": 8192,
  "doek": 8193,
  "\u2581harm": 8194,
  "\u2581allerlei": 8195,
  "\u2581allocated": 8196,
  "\u2581kat": 8197,
  "\u2581Salvador": 8198,
  "\u2581Eastern": 8199,
  "\u2581125": 8200,
  "\u2581beauty": 8201,
  "raat": 8202,
  "\u25811978": 8203,
  "\u2581elections": 8204,
  "\u2581speech": 8205,
  "kal": 8206,
  "\u2581http": 8207,
  "lige": 8208,
  "\u2581intra": 8209,
  "\u2581bedrijfsleven": 8210,
  "\u2581poverty": 8211,
  "asse": 8212,
  "rik": 8213,
  "\u2581prefer": 8214,
  "\u2581Sometimes": 8215,
  "\u2581voeten": 8216,
  "\u2581homo": 8217,
  "\u2581maal": 8218,
  "svoorwaarden": 8219,
  "\u2581houd": 8220,
  "\u2581allowing": 8221,
  "92": 8222,
  "\u2581verspreiding": 8223,
  "\u2581adverse": 8224,
  "\u2581inzicht": 8225,
  "\u2581coal": 8226,
  "\u2581roof": 8227,
  "\u2581impression": 8228,
  "\u2581gere": 8229,
  "\u2581zones": 8230,
  ".2": 8231,
  "\u2581inkomsten": 8232,
  "\u2581gedeeltelijk": 8233,
  "\u2581filled": 8234,
  "itor": 8235,
  "\u2581interpretation": 8236,
  "kh": 8237,
  "\u2581facts": 8238,
  "quality": 8239,
  "\u2581Monte": 8240,
  "\u2581Second": 8241,
  "AC": 8242,
  "\u2581tourism": 8243,
  "\u2581voelde": 8244,
  "\u2581guidance": 8245,
  "\u2581geprobeerd": 8246,
  "\u2581Licht": 8247,
  "\u2581lastig": 8248,
  "\u2581Funds": 8249,
  "\u2581urgent": 8250,
  "\u2581distributie": 8251,
  "erend": 8252,
  "\u2581Staat": 8253,
  "tafel": 8254,
  "\u2581exception": 8255,
  "volle": 8256,
  "\u2581vrees": 8257,
  "tag": 8258,
  "long": 8259,
  "amper": 8260,
  "\u2581oplossen": 8261,
  "rug": 8262,
  "\u2581leeg": 8263,
  "crypt": 8264,
  "\u2581starts": 8265,
  "\u2581selecteren": 8266,
  "Hoe": 8267,
  "vrij": 8268,
  "\u25811970": 8269,
  "\u2581communications": 8270,
  "\u2581experienced": 8271,
  "\u2581uiterst": 8272,
  "\u2581municipality": 8273,
  "Te": 8274,
  "\u2581bewegen": 8275,
  "wis": 8276,
  "\u2581veilige": 8277,
  "\u2581recommend": 8278,
  "\u2581represents": 8279,
  "\u2581bomb": 8280,
  "gelegen": 8281,
  "\u2581custom": 8282,
  "\u2581lijden": 8283,
  "\u2581Breng": 8284,
  "\u2581GmbH": 8285,
  "h\u00e9": 8286,
  "truc": 8287,
  "\u2581gebeurtenissen": 8288,
  "\u2581ide": 8289,
  "\u2581Amendment": 8290,
  "\u2581besteed": 8291,
  "\u2581constitute": 8292,
  "\u2581obviously": 8293,
  "\u2581raadplegen": 8294,
  "schappen": 8295,
  "\u2581landscape": 8296,
  "\u2581hangt": 8297,
  "grond": 8298,
  "ions": 8299,
  "\u2581verhoging": 8300,
  "\u2581industries": 8301,
  "\u2581Pin": 8302,
  "\u2581georganiseerd": 8303,
  "\u2581increases": 8304,
  "rew": 8305,
  "\u2581schuldig": 8306,
  "mie": 8307,
  "\u2581diseases": 8308,
  "\u2581broke": 8309,
  ".10.": 8310,
  "\u2581vegetables": 8311,
  "houden": 8312,
  "\u2581transparantie": 8313,
  "koop": 8314,
  "\u2581worldwide": 8315,
  "\u2581pregnant": 8316,
  "\u2581rating": 8317,
  "\u2581Western": 8318,
  "\u2581defence": 8319,
  "gevallen": 8320,
  "gio": 8321,
  "\u2581leader": 8322,
  "\u2581Conditions": 8323,
  "\u2581orgaan": 8324,
  "\u2581barb": 8325,
  "\u2581flu": 8326,
  "\u2581profit": 8327,
  "\u2581Daarna": 8328,
  "\u2581onlangs": 8329,
  "stin": 8330,
  "laat": 8331,
  "\u2581passagiers": 8332,
  "izz": 8333,
  "\u2581Holy": 8334,
  "\u2581geassocieerd": 8335,
  "wezen": 8336,
  "\u2581Framework": 8337,
  "vatte": 8338,
  "\u2581updated": 8339,
  "\u2581Autoriteit": 8340,
  "\u2581dienstverlening": 8341,
  "uut": 8342,
  "\u2581teams": 8343,
  "tus": 8344,
  "\u2581principe": 8345,
  "\u2581behaviour": 8346,
  "sing": 8347,
  "\u2581compatible": 8348,
  "PA": 8349,
  "\u2581hervormingen": 8350,
  "\u2581experiences": 8351,
  "\u2581Qua": 8352,
  "\u2581gar": 8353,
  "\u2581leek": 8354,
  "echt": 8355,
  "rog": 8356,
  "\u2581CN": 8357,
  "\u2581geografische": 8358,
  "\u2581flowers": 8359,
  "\u2581berichten": 8360,
  "\u2581journey": 8361,
  "\u2581besproken": 8362,
  "\u2581Goedkeuring": 8363,
  "gelovig": 8364,
  "strategie": 8365,
  "\u25811977": 8366,
  "\u2581Four": 8367,
  "like": 8368,
  "\u2581gaten": 8369,
  "\u2581Think": 8370,
  "pas": 8371,
  "\u2581vermijden": 8372,
  "\u2581waargenomen": 8373,
  "\u2581Kra": 8374,
  "\u2581teaching": 8375,
  "bedrijf": 8376,
  "\u2581mor": 8377,
  "vre": 8378,
  "\u2581stocks": 8379,
  "\u2581resort": 8380,
  "\u2581onderstaande": 8381,
  "\u2581fellow": 8382,
  "\u2581conformity": 8383,
  "dri": 8384,
  "\u2581push": 8385,
  "2002": 8386,
  "procedure": 8387,
  "nce": 8388,
  "\u2581leads": 8389,
  "\u2581centraal": 8390,
  "\u2581input": 8391,
  "broek": 8392,
  "\u2581verzekeren": 8393,
  "\u2581possibly": 8394,
  "\u2581inachtneming": 8395,
  "\u2581afwijking": 8396,
  "hot": 8397,
  "\u2581possibilities": 8398,
  "\u2581koud": 8399,
  "\u2581Berlijn": 8400,
  "\u2581oor": 8401,
  "\u2581zomaar": 8402,
  "-5": 8403,
  "\u2581191": 8404,
  "\u2581levende": 8405,
  "\u2581verbindend": 8406,
  "\u2581Internationale": 8407,
  "\u2581geldende": 8408,
  "\u2581terrible": 8409,
  "\u2581verhuur": 8410,
  "\u2581targets": 8411,
  "Ex": 8412,
  "\u2581served": 8413,
  "\u2581sensitive": 8414,
  "lac": 8415,
  "6%": 8416,
  "\u2581Lan": 8417,
  "\u2581crash": 8418,
  "\u25a0": 8419,
  "\u2581130": 8420,
  "\u2581outdoor": 8421,
  "ule": 8422,
  "\u2581aanpassen": 8423,
  "\u2581increasingly": 8424,
  "\u2581vessel": 8425,
  "erij": 8426,
  "economische": 8427,
  "\u2581bijeenkomst": 8428,
  "\u2581armoede": 8429,
  "\u2581cycle": 8430,
  "\u2581calendar": 8431,
  "\u2581returned": 8432,
  "\u2581Return": 8433,
  "mble": 8434,
  "\u2581aanval": 8435,
  "\u2581percent": 8436,
  "\u258166": 8437,
  "\u2581propose": 8438,
  "\u2581parallel": 8439,
  "lage": 8440,
  "\u2581pleased": 8441,
  "\u2581missed": 8442,
  "vorm": 8443,
  "\u2581declared": 8444,
  "NO": 8445,
  "graaf": 8446,
  "\u2581powder": 8447,
  "\u2581Vel": 8448,
  "VE": 8449,
  "\u2581discrimination": 8450,
  "\u2581es": 8451,
  "\u2581showing": 8452,
  "\u2581Terr": 8453,
  "\u2581wal": 8454,
  "\u2581col": 8455,
  "\u2581voorgeschreven": 8456,
  "under": 8457,
  "\u2581marriage": 8458,
  "\u2581modified": 8459,
  "gemaakt": 8460,
  "\u2581Nobody": 8461,
  "agon": 8462,
  "\u2581numerous": 8463,
  "\u2581geldig": 8464,
  "\u2581verdeling": 8465,
  "\u2581cup": 8466,
  "\u2581Contract": 8467,
  "\u258163": 8468,
  "\u2581apparaten": 8469,
  "\u25811.3.1": 8470,
  "\u2581mobiliteit": 8471,
  "\u2581gekocht": 8472,
  "\u25812006.": 8473,
  "\u2581prof": 8474,
  "\u2581trends": 8475,
  "\u2581bekeken": 8476,
  "\u2581derden": 8477,
  "\u2581Terwijl": 8478,
  "\u2581calm": 8479,
  "\u2581vaardigheden": 8480,
  "ora": 8481,
  "CC": 8482,
  "\u2581checked": 8483,
  "\u2581launch": 8484,
  "\u2581Ray": 8485,
  "\u2581Bent": 8486,
  "\u2581klassieke": 8487,
  "\u2581volwassenen": 8488,
  "\u2581cream": 8489,
  "veiligheid": 8490,
  "\u2581statements": 8491,
  "\u2581inschrijving": 8492,
  "\u2581messages": 8493,
  "\u2581vlieg": 8494,
  "\u2581exploitatie": 8495,
  "\u2581wereldwijd": 8496,
  "/10": 8497,
  "\u2581nut": 8498,
  "\u2581regionaal": 8499,
  "\u2581wake": 8500,
  "\u2581180": 8501,
  "\u2581ronde": 8502,
  "mir": 8503,
  "sproces": 8504,
  "ament": 8505,
  "\u2581core": 8506,
  "\u2581conditioning": 8507,
  "\u2581zuiden": 8508,
  "itt": 8509,
  "\u2581gezamenlijk": 8510,
  "\u2581Weg": 8511,
  "schiet": 8512,
  "excl": 8513,
  "\u2581attached": 8514,
  "\u2581verbeterd": 8515,
  "\u2581jeugd": 8516,
  "\u2581Ferr": 8517,
  "beoordeling": 8518,
  "sized": 8519,
  "\u2581klasse": 8520,
  "\u2581professor": 8521,
  "\u2581verdient": 8522,
  "\u2581niveaus": 8523,
  "\u2581onto": 8524,
  "\u2581defend": 8525,
  "\u2581examine": 8526,
  "\u2581represented": 8527,
  "\u2581ofwel": 8528,
  "\u2581genuine": 8529,
  "rea": 8530,
  "\u2581flexible": 8531,
  "\u2581learned": 8532,
  "\u2581seeking": 8533,
  "zaak": 8534,
  "\u2581contrary": 8535,
  "\u2581geboorte": 8536,
  "\u2581strengthening": 8537,
  "reis": 8538,
  "\u2581quotas": 8539,
  "\u2581youth": 8540,
  "pest": 8541,
  "\u2581reaction": 8542,
  "\u2581Title": 8543,
  "\u2581inzet": 8544,
  "lands": 8545,
  "\u2581strange": 8546,
  "Afrika": 8547,
  "\u2581overeengekomen": 8548,
  "fast": 8549,
  "\u2581symptomen": 8550,
  "\u2581samenstelling": 8551,
  "apparaat": 8552,
  "\u2581Ap": 8553,
  "\u2581onderzoeks": 8554,
  "\u2581teksten": 8555,
  "\u2581Norway": 8556,
  "\u2581zogenaamde": 8557,
  "\u2581domain": 8558,
  "artikel": 8559,
  "\u2581Boy": 8560,
  "main": 8561,
  "\u2581blauwe": 8562,
  "\u2581kaarten": 8563,
  "\u2581causes": 8564,
  "\u2581Must": 8565,
  "\u2581gedetailleerde": 8566,
  "\u2581forgive": 8567,
  "\u2581Radio": 8568,
  "\u2581examined": 8569,
  "\u2581Gil": 8570,
  "\u25812010.": 8571,
  "iteit": 8572,
  "\u2581pol": 8573,
  "\u2581maintained": 8574,
  "\u25811.3.": 8575,
  "\u2581NT": 8576,
  "\u2581Qui": 8577,
  "\u2581relatively": 8578,
  "\u2581originele": 8579,
  "\u2581ordening": 8580,
  "\u2581bak": 8581,
  "ych": 8582,
  "\u2581gedacht": 8583,
  "ogen": 8584,
  "beroepsopleiding": 8585,
  "\u2581enorm": 8586,
  "\u2581normally": 8587,
  "wan": 8588,
  "lit": 8589,
  "ising": 8590,
  "\u2581previously": 8591,
  "\u2581MA": 8592,
  "\u2581historical": 8593,
  "\u2581werkelijke": 8594,
  "\u2581verwezenlijking": 8595,
  "une": 8596,
  "\u2581heid": 8597,
  "\u2581schieten": 8598,
  "\u2581bull": 8599,
  "\u2581trouwens": 8600,
  "\u2581definitief": 8601,
  "\u2581warrant": 8602,
  "\u2581England": 8603,
  "\u2581accounting": 8604,
  "\u2581qualified": 8605,
  "\u2581truck": 8606,
  "\u2581bevestigen": 8607,
  ".1.": 8608,
  "\u2581aanbieden": 8609,
  "\u2581Vader": 8610,
  "\u2581hide": 8611,
  "\u2581Mann": 8612,
  "\u2581Department": 8613,
  "\u2581steen": 8614,
  "\u2581zekere": 8615,
  "therapie": 8616,
  "\u2581Cre": 8617,
  "\u2581rejected": 8618,
  "\u2581(4": 8619,
  "\u2581planeet": 8620,
  "\u2581plays": 8621,
  "raten": 8622,
  "\u2581composition": 8623,
  "istic": 8624,
  "\u2581Head": 8625,
  "\u2581Besides": 8626,
  "core": 8627,
  "\u2581beschermd": 8628,
  "\u2581judge": 8629,
  "\u2581carbon": 8630,
  "beoordelingen": 8631,
  "\u2581officieel": 8632,
  "aster": 8633,
  "\u2581dogs": 8634,
  "bied": 8635,
  "\u2581vice": 8636,
  "\u2581geraakt": 8637,
  "mix": 8638,
  "\u2581participants": 8639,
  "\u2581Station": 8640,
  "\u2581technisch": 8641,
  "\u2581courses": 8642,
  "\u2581verbod": 8643,
  "\u2581gelezen": 8644,
  "\u2581compromis": 8645,
  "Software": 8646,
  "\u2581Privacy": 8647,
  "\u2581handelen": 8648,
  "\u2581Ontwikkeling": 8649,
  "\u2581spring": 8650,
  "\u2581transit": 8651,
  "\u2581omtrent": 8652,
  "omen": 8653,
  "\u2581(5": 8654,
  "\u2581jurisdiction": 8655,
  "\u2581transparent": 8656,
  "\u2581hat": 8657,
  "\u258140%": 8658,
  "\u2581fraud": 8659,
  "boot": 8660,
  "\u2581ingenomen": 8661,
  "\u2581belanghebbenden": 8662,
  "responsibilities": 8663,
  "\u2581techniques": 8664,
  "\u2581Prima": 8665,
  "\u2581Technical": 8666,
  "\u2581directives": 8667,
  "ost": 8668,
  "\u2581Eerste": 8669,
  "\u2581voortdurend": 8670,
  "\u2581Schengen": 8671,
  "\u2581survive": 8672,
  "ijnen": 8673,
  "\u2581belastingen": 8674,
  "verandering": 8675,
  "\u2581destroy": 8676,
  "etter": 8677,
  "\u2581Australi\u00eb": 8678,
  "1999": 8679,
  "\u2581Ombudsman": 8680,
  "\u2581launched": 8681,
  "\u2581cleaning": 8682,
  "\u2581houding": 8683,
  "\u2581draaien": 8684,
  "izing": 8685,
  "\u2581keren": 8686,
  "\u2581dagelijkse": 8687,
  "\u2581vorderingen": 8688,
  "leiding": 8689,
  "\u2581kers": 8690,
  "\u2581korting": 8691,
  "\u2581stelde": 8692,
  "\u2581amend": 8693,
  "Dit": 8694,
  "werp": 8695,
  "3)": 8696,
  "\u2581teach": 8697,
  "\u2581(18": 8698,
  "\u2581dagelijks": 8699,
  "witt": 8700,
  "geving": 8701,
  "\u2581army": 8702,
  "\u2581produceren": 8703,
  "\u2581Key": 8704,
  "\u2581welkom": 8705,
  "\u2581moe": 8706,
  "\u2581doordat": 8707,
  "\u2581richt": 8708,
  "\u2581NB": 8709,
  "\u2581selling": 8710,
  "\u2581GEMEENSCHAPPEN": 8711,
  "\u2581verdienen": 8712,
  "\u2581bottle": 8713,
  "\u2581helaas": 8714,
  "\u2581bevoegd": 8715,
  "\u2581voegen": 8716,
  "\u2581rare": 8717,
  "\u2581Stockholm": 8718,
  "\u2581Jun": 8719,
  "93": 8720,
  "\u2581Location": 8721,
  "\u2581opgeslagen": 8722,
  "\u2581colleagues": 8723,
  "\u2581stands": 8724,
  "tto": 8725,
  "\u2581Still": 8726,
  "\u2581Employment": 8727,
  "bureau": 8728,
  "\u2581kilo": 8729,
  "\u2581continues": 8730,
  "\u2581rand": 8731,
  "\u2581believes": 8732,
  "\u2581tired": 8733,
  "\u2581nearly": 8734,
  "BC": 8735,
  "\u2581gemeten": 8736,
  "\u2581Organisation": 8737,
  "\u2581zijnde": 8738,
  "\u2581statistical": 8739,
  "^": 8740,
  "\u2581voorgelegd": 8741,
  "\u2581counter": 8742,
  "commissie": 8743,
  "\u2581laugh": 8744,
  "\u2581classified": 8745,
  "\u2581PE": 8746,
  "\u2581taxation": 8747,
  "zoeken": 8748,
  "pack": 8749,
  "\u2581Albert": 8750,
  "\u2581Kosovo": 8751,
  "\u2581sake": 8752,
  "\u2581male": 8753,
  "\u2581zand": 8754,
  "ender": 8755,
  "\u2581Ali": 8756,
  "\u2581wearing": 8757,
  "hoofd": 8758,
  "\u2581Smith": 8759,
  "\u2581emotion": 8760,
  "\u2581remote": 8761,
  "\u2581inlichtingen": 8762,
  "rechten": 8763,
  "\u2581Pass": 8764,
  "\u2581verkrijgbaar": 8765,
  "\u2581wound": 8766,
  "\u2581broeder": 8767,
  "\u2581cable": 8768,
  "heim": 8769,
  "gat": 8770,
  "\u2581awareness": 8771,
  "teer": 8772,
  "\u2581Forum": 8773,
  "\u2581wishes": 8774,
  "\u2581gastro": 8775,
  "dij": 8776,
  "kijken": 8777,
  "\u2581Wereld": 8778,
  "\u2581reglement": 8779,
  "\u2581eenheden": 8780,
  "\u2581allocation": 8781,
  "dagen": 8782,
  "\u2581toegewezen": 8783,
  "\u2581satellite": 8784,
  "\u2581suspect": 8785,
  "\u2581onvoldoende": 8786,
  "\u2581consensus": 8787,
  "\u2581geheugen": 8788,
  "\u2581scenario": 8789,
  "\u2581voormalige": 8790,
  "\u2581toepassen": 8791,
  "\u2581Mah": 8792,
  "\u2581hangen": 8793,
  "\u2581forth": 8794,
  "projecten": 8795,
  "\u2581participating": 8796,
  "\u2581hierboven": 8797,
  "\u2581experiment": 8798,
  "\u25812008.": 8799,
  "ME": 8800,
  "\u2581ge\u00efnteresseerd": 8801,
  "\u2581\u00e0": 8802,
  "kla": 8803,
  ".2.": 8804,
  "\u2581Irish": 8805,
  "\u2581jury": 8806,
  "haak": 8807,
  "leer": 8808,
  "\u2581granting": 8809,
  "\u2581Box": 8810,
  "IR": 8811,
  "teken": 8812,
  "\u2581provisional": 8813,
  "\u2581grootte": 8814,
  "\u2581clients": 8815,
  "\u2581schiet": 8816,
  "2005": 8817,
  "tact": 8818,
  "\u2581Extra": 8819,
  "Europese": 8820,
  "\u2581replace": 8821,
  "\u2581respective": 8822,
  "\u2581stations": 8823,
  "\u2581lijnen": 8824,
  "\u2581recommendation": 8825,
  "called": 8826,
  "rey": 8827,
  "akt": 8828,
  "\u2581CB": 8829,
  "\u2581Charter": 8830,
  "\u2581supervision": 8831,
  "\u2581Plaats": 8832,
  "\u2581reliable": 8833,
  "\u2581verborgen": 8834,
  "zien": 8835,
  "\u2581proportion": 8836,
  "\u2581excuse": 8837,
  "\u2581huizen": 8838,
  "\u2581sum": 8839,
  "\u25811%": 8840,
  "\").": 8841,
  "\u2581luxe": 8842,
  "\u2581Florence": 8843,
  "\u2581Standard": 8844,
  "300": 8845,
  "\u2581VIII": 8846,
  "\u2581seed": 8847,
  "\u2581maatschappij": 8848,
  "\u2581geregistreerd": 8849,
  "\u2581onderscheid": 8850,
  "rou": 8851,
  "zuur": 8852,
  "zorg": 8853,
  "cap": 8854,
  "\u2581Lucht": 8855,
  "\u2581aanvulling": 8856,
  "\u2581balans": 8857,
  "\u2581handelingen": 8858,
  "\u2581Women": 8859,
  "\u2581qui": 8860,
  "\u2581groenten": 8861,
  "\u25812007.": 8862,
  "PSE": 8863,
  "\u2581uitrusting": 8864,
  "\u2581Film": 8865,
  "\u2581landschap": 8866,
  "geschoten": 8867,
  "\u2581Tax": 8868,
  "\u2581contrast": 8869,
  "des": 8870,
  "\u25811.5": 8871,
  "\u2581sporen": 8872,
  "\u2581COMMUNITIES": 8873,
  "\u2581lawyer": 8874,
  "\u2581shipping": 8875,
  "\u2581koper": 8876,
  "\";": 8877,
  "\u2581Indonesia": 8878,
  "\u2581Ham": 8879,
  "\u2581meen": 8880,
  "\u2581nogmaals": 8881,
  "\u2581soortgelijke": 8882,
  "rio": 8883,
  "pass": 8884,
  "\u2581waaruit": 8885,
  "\u2581Thi": 8886,
  "kleur": 8887,
  "\u2581CON": 8888,
  "Ar": 8889,
  "rc": 8890,
  "\u2581permit": 8891,
  "\u2581regularly": 8892,
  "\u2581Mega": 8893,
  "\u2581reforms": 8894,
  "eil": 8895,
  "\u2581determining": 8896,
  "\u2581beurt": 8897,
  "\u2581edge": 8898,
  "\u2581forced": 8899,
  "\u2581centres": 8900,
  "\u2581drinking": 8901,
  "\u2581award": 8902,
  "\u2581din": 8903,
  "\u2581tro": 8904,
  "\u2581Beau": 8905,
  "\u2581gender": 8906,
  "\u2581opname": 8907,
  "\u2581Technology": 8908,
  "\u2581verspreid": 8909,
  "\u2581neder": 8910,
  "film": 8911,
  "\u2581potentieel": 8912,
  "\u2581hierover": 8913,
  "\u2581confirm": 8914,
  "active": 8915,
  "\u2581gewonnen": 8916,
  "\u2581brandstof": 8917,
  "\u2581trick": 8918,
  "\u2581Kroati\u00eb": 8919,
  "\u2581automatic": 8920,
  "\u2581mix": 8921,
  "persoonsgegevens": 8922,
  "\u2581shift": 8923,
  "\u2581intention": 8924,
  "\u2581AG": 8925,
  "foto": 8926,
  "mas": 8927,
  "Als": 8928,
  "\u25815-": 8929,
  "\u2581gedefinieerd": 8930,
  "\u2581koelkast": 8931,
  "\u2581spectrum": 8932,
  "\u2581160": 8933,
  "\u2581Nadat": 8934,
  "400": 8935,
  "\u2581middelgrote": 8936,
  "ject": 8937,
  "\u2581liability": 8938,
  "\u2581Tor": 8939,
  "\u2581biggest": 8940,
  "steken": 8941,
  "\u2581pattern": 8942,
  "\u2581uitmaken": 8943,
  "\u2581recognize": 8944,
  "\u2581arrive": 8945,
  "IE": 8946,
  "\u2581collective": 8947,
  "\u2581gel": 8948,
  "\u2581Sim": 8949,
  "\u2581bergen": 8950,
  "\u2581Spe": 8951,
  "\u2581Additional": 8952,
  "\u2581gerecht": 8953,
  "cro": 8954,
  "cept": 8955,
  "ochet": 8956,
  "\u2581Prop": 8957,
  "\u2581verzoekt": 8958,
  "\u2581transition": 8959,
  "\u2581toerisme": 8960,
  "sburg": 8961,
  "\u2581Eind": 8962,
  "\u2581verzekeringen": 8963,
  "\u2581beantwoorden": 8964,
  "gal": 8965,
  "\u2581governing": 8966,
  "\u2581steek": 8967,
  "lopen": 8968,
  "\u2581beer": 8969,
  "r\u00e9": 8970,
  "\u2581reserves": 8971,
  "bia": 8972,
  "\u2581Elk": 8973,
  "\u2581continu": 8974,
  "\u2581bright": 8975,
  "\u2581packaging": 8976,
  "\u2581Sound": 8977,
  "\u2581Rio": 8978,
  "\u2581Rand": 8979,
  "that": 8980,
  "\u2581Tegen": 8981,
  "\u2581rapid": 8982,
  "\u2581birds": 8983,
  "\u2581Below": 8984,
  "\u2581domein": 8985,
  "phone": 8986,
  "\u2581aannemen": 8987,
  "\u2581upper": 8988,
  "\u2581certification": 8989,
  "\u2581bezorgd": 8990,
  "\u2581announced": 8991,
  "\u2581collected": 8992,
  "\u2581Overige": 8993,
  "\u2581vergelijkbaar": 8994,
  "\u2581adult": 8995,
  "\u2581Answer": 8996,
  "\u2581sky": 8997,
  "\u2581tevreden": 8998,
  "\u2581pointed": 8999,
  "4.": 9000,
  "\u2581gezond": 9001,
  "awa": 9002,
  "\u2581administered": 9003,
  "\u2581permanente": 9004,
  "\u2581groen": 9005,
  "\u2581supplement": 9006,
  "\u2581Permanent": 9007,
  "\u2581Rekenkamer": 9008,
  "jarige": 9009,
  "vet": 9010,
  "\u00e0": 9011,
  "-02": 9012,
  "\u2581indicators": 9013,
  "than": 9014,
  "\u2581illegale": 9015,
  "\u2581tekort": 9016,
  "\u2581swear": 9017,
  "\u2581noorden": 9018,
  "\u2581Voordat": 9019,
  "\u2581discriminatie": 9020,
  "\u2581toegankelijk": 9021,
  "\u2581verbinden": 9022,
  "zoals": 9023,
  "\u2581Thailand": 9024,
  "\u2581verandert": 9025,
  "\u2581identificatie": 9026,
  "\u2581marked": 9027,
  "\u2581starten": 9028,
  "law": 9029,
  "xi": 9030,
  "\u2581Var": 9031,
  "\u2581panel": 9032,
  "\u2581Japanese": 9033,
  "\u2581vraagstukken": 9034,
  "\u2581Joseph": 9035,
  "\u2581ge\u00efnstalleerd": 9036,
  "\u2581Eerst": 9037,
  "\u2581elektriciteit": 9038,
  "ruit": 9039,
  "\u2581Tweede": 9040,
  "nieuw": 9041,
  "\u2581loon": 9042,
  "\u2581Regio": 9043,
  "ser": 9044,
  "\u2581continent": 9045,
  "\u2581alfa": 9046,
  "\u2581theme": 9047,
  "\u2581genaamd": 9048,
  "\u2581Guide": 9049,
  "\u2581Sit": 9050,
  "\u2581situaties": 9051,
  "\u2581surely": 9052,
  "\u2581fraude": 9053,
  "\u2581Select": 9054,
  "\u2581paying": 9055,
  "\u2581veterinary": 9056,
  "\u2581stopt": 9057,
  "\u2581Danish": 9058,
  "\u2581reservering": 9059,
  "\u2581vuil": 9060,
  "okken": 9061,
  "How": 9062,
  "\u2581interface": 9063,
  "\u2581entrance": 9064,
  "\u2581overigens": 9065,
  "\u2581NO": 9066,
  "\u2581flexibility": 9067,
  "\u2581missen": 9068,
  "\u2581supplied": 9069,
  "range": 9070,
  "machines": 9071,
  "\u2581consult": 9072,
  "&": 9073,
  "\u2581AL": 9074,
  "\u2581screw": 9075,
  "lach": 9076,
  "\u2581Chicago": 9077,
  "\u2581fees": 9078,
  "\u258180%": 9079,
  "\u2581gebleken": 9080,
  "\u2581herinnering": 9081,
  "\u2581attempt": 9082,
  "\u2581bound": 9083,
  "\u2581terugkeer": 9084,
  "\u2581stadium": 9085,
  "\u2581involvement": 9086,
  "\u2581doors": 9087,
  "GE": 9088,
  "istor": 9089,
  "\u2581heden": 9090,
  "600": 9091,
  "SI": 9092,
  "gun": 9093,
  "\u2581plaatse": 9094,
  "\u2581wisselen": 9095,
  "\u2581SE": 9096,
  "\u2581hardware": 9097,
  "gepakt": 9098,
  "apt": 9099,
  "\u2581begrijpt": 9100,
  "\u2581sad": 9101,
  "wide": 9102,
  "\u2581opgelost": 9103,
  "\u2581Previous": 9104,
  "\u2581arbeid": 9105,
  "\u2581compromise": 9106,
  "\u2581achiev": 9107,
  "\u2581candidate": 9108,
  "\u2581extensive": 9109,
  "\u2581chi": 9110,
  "\u2581toegevoegde": 9111,
  "\u0142": 9112,
  "stof": 9113,
  "overeenkomsten": 9114,
  "\u2581overleden": 9115,
  "sil": 9116,
  "\u2581ruin": 9117,
  "\u2581processed": 9118,
  "\u2581locations": 9119,
  "\u2581escape": 9120,
  "\u2581breath": 9121,
  "\u2581bridge": 9122,
  "\u2581ven": 9123,
  "\u2581paragraaf": 9124,
  "\u2581stukje": 9125,
  "\u2581Steel": 9126,
  "vergemakkelijken": 9127,
  "\u010d": 9128,
  "pur": 9129,
  "\u2581passenger": 9130,
  "wijk": 9131,
  "tz": 9132,
  "\u2581gain": 9133,
  "\u2581paard": 9134,
  "\u2581mixed": 9135,
[...]
